<unk>	0
<s>	0
</s>	0
<start>	0
<end>	0
<star:1>	0
<star:2>	0
<star:3>	0
<star:4>	0
<star:5>	0
.	-2.97218
▁the	-3.39625
▁and	-3.5653
,	-3.59815
▁I	-3.80316
▁a	-3.85121
▁to	-3.93045
'	-4.18591
▁was	-4.21091
s	-4.30238
▁of	-4.45732
▁is	-4.64555
▁it	-4.6492
▁for	-4.6704
▁in	-4.70131
t	-4.94328
▁The	-4.96098
▁that	-4.99289
▁with	-5.00597
!	-5.02782
▁my	-5.07627
▁you	-5.17905
▁on	-5.18759
▁but	-5.20467
▁have	-5.30239
▁had	-5.32362
▁they	-5.33383
▁this	-5.33751
▁were	-5.38483
▁we	-5.4207
▁not	-5.45133
▁	-5.48131
▁are	-5.53204
▁food	-5.58804
▁so	-5.60284
▁be	-5.61873
▁at	-5.626
▁place	-5.65131
▁good	-5.66685
▁me	-5.76847
▁out	-5.86891
▁as	-5.8696
▁very	-5.87781
▁great	-5.90171
-	-5.92928
▁(	-5.93712
▁We	-5.95268
▁here	-5.96636
▁there	-5.98892
▁time	-5.98998
▁our	-6.01748
▁all	-6.01983
▁like	-6.04525
▁get	-6.07203
▁just	-6.09064
▁service	-6.09871
▁from	-6.10248
▁back	-6.10279
▁It	-6.12875
▁an	-6.15709
▁up	-6.15717
▁one	-6.16048
▁would	-6.18069
▁their	-6.18365
▁or	-6.19474
▁can	-6.21288
I	-6.24138
▁go	-6.24558
▁They	-6.26646
▁if	-6.27925
▁about	-6.28021
m	-6.29732
▁when	-6.35588
ve	-6.36093
▁will	-6.36332
▁been	-6.37703
▁which	-6.39046
▁really	-6.41065
)	-6.45859
▁your	-6.46155
▁some	-6.49455
▁us	-6.49516
d	-6.51467
▁more	-6.51701
▁them	-6.52192
▁what	-6.52977
...	-6.54695
▁by	-6.55326
▁got	-6.56619
▁only	-6.57339
▁-	-6.57978
▁also	-6.58124
▁no	-6.58789
▁because	-6.59142
▁"	-6.61249
▁has	-6.68076
▁he	-6.68571
▁other	-6.68834
▁order	-6.69
▁nice	-6.6966
▁My	-6.69855
▁she	-6.70293
▁do	-6.71636
▁ordered	-6.72011
▁even	-6.72013
re	-6.72943
ed	-6.74655
▁well	-6.74812
▁staff	-6.75172
ing	-6.76394
▁too	-6.77657
▁did	-6.78005
▁best	-6.78353
▁don	-6.79478
▁restaurant	-6.80728
▁always	-6.83636
▁could	-6.83962
▁friendly	-6.84327
▁didn	-6.85034
▁than	-6.85236
"	-6.85535
▁over	-6.86308
▁delicious	-6.86483
▁little	-6.86831
▁came	-6.86996
▁This	-6.89485
▁experience	-6.90853
▁try	-6.92779
▁menu	-6.93116
▁her	-6.93773
▁people	-6.93871
▁after	-6.95799
▁never	-6.96262
▁chicken	-6.97149
▁much	-6.97594
▁come	-6.97829
▁made	-6.98837
▁first	-6.99264
:	-7.00322
▁love	-7.00378
▁went	-7.00868
▁again	-7.01053
/	-7.01495
▁make	-7.02925
▁definitely	-7.05838
▁said	-7.06329
▁bar	-7.07336
▁who	-7.08072
▁recommend	-7.09557
▁amazing	-7.09613
▁off	-7.09835
▁wait	-7.10019
▁know	-7.10216
▁going	-7.10766
?	-7.11012
▁day	-7.11798
▁two	-7.13588
▁way	-7.13999
▁better	-7.15807
▁how	-7.16044
ll	-7.1655
▁before	-7.17134
▁right	-7.19461
▁take	-7.19512
▁night	-7.19887
▁any	-7.19994
▁pretty	-7.21303
▁new	-7.21352
▁want	-7.21861
▁&	-7.22364
▁ever	-7.22393
▁area	-7.22448
▁cheese	-7.23842
▁then	-7.23842
y	-7.24
).	-7.24067
▁down	-7.2416
▁say	-7.25296
▁around	-7.25481
▁2	-7.25555
▁A	-7.25788
▁If	-7.25933
▁few	-7.26419
▁minutes	-7.26729
▁told	-7.2769
▁sure	-7.28541
▁fresh	-7.29064
▁sauce	-7.2955
▁am	-7.30004
▁pizza	-7.30537
▁table	-7.3111
▁There	-7.31788
▁still	-7.32092
▁eat	-7.32303
▁see	-7.3268
▁think	-7.34785
▁took	-7.3578
▁give	-7.35784
▁work	-7.35983
▁So	-7.37888
▁asked	-7.3797
▁meal	-7.38018
▁times	-7.39983
▁She	-7.4056
This	-7.40855
▁while	-7.41135
▁location	-7.4136
!!	-7.41948
▁He	-7.42103
▁find	-7.42437
ly	-7.42683
▁lunch	-7.43827
▁many	-7.43975
▁small	-7.44261
▁room	-7.4439
▁bit	-7.44804
▁lot	-7.44904
▁next	-7.44944
▁i	-7.4511
▁wasn	-7.45237
▁And	-7.45572
▁his	-7.4649
▁dinner	-7.46605
▁3	-7.47119
▁salad	-7.47209
▁being	-7.4743
▁another	-7.47819
▁home	-7.48734
▁You	-7.48798
▁price	-7.49771
▁something	-7.50256
▁But	-7.5095
▁everything	-7.51161
▁bad	-7.51284
▁into	-7.51363
▁since	-7.52051
▁every	-7.52093
▁most	-7.52637
▁drinks	-7.53275
▁long	-7.53927
▁now	-7.54305
▁favorite	-7.55276
▁last	-7.55466
▁side	-7.55878
▁where	-7.57587
▁5	-7.58199
▁tried	-7.58843
▁though	-7.59028
▁customer	-7.59678
▁wanted	-7.60118
▁visit	-7.6045
▁hot	-7.6101
▁feel	-7.62041
er	-7.63064
▁need	-7.6314
▁worth	-7.64142
e	-7.64283
▁both	-7.64549
▁clean	-7.646
▁looking	-7.65206
▁should	-7.65263
▁car	-7.65275
▁super	-7.65373
▁When	-7.655
The	-7.65528
▁server	-7.65663
▁thing	-7.65766
▁different	-7.65788
▁coffee	-7.65858
▁happy	-7.66149
▁store	-7.66627
▁enough	-7.66633
▁sandwich	-7.6709
▁years	-7.68362
▁beer	-7.68924
▁drink	-7.69687
▁flavor	-7.71399
▁atmosphere	-7.71649
▁things	-7.71837
▁left	-7.72568
▁excellent	-7.72728
▁spot	-7.7358
▁fries	-7.74185
▁hour	-7.74899
▁awesome	-7.75393
▁away	-7.757
▁check	-7.75811
▁sweet	-7.76102
▁done	-7.76191
▁Not	-7.76313
▁4	-7.76474
▁quality	-7.76923
▁found	-7.77024
▁breakfast	-7.77238
▁called	-7.77253
▁taste	-7.7783
▁perfect	-7.78473
▁stars	-7.7875
▁same	-7.80549
▁fried	-7.8215
▁top	-7.8259
▁Our	-7.82837
▁him	-7.83094
!!!	-7.83177
▁through	-7.83426
a	-7.83889
▁family	-7.8417
▁Great	-7.84481
▁prices	-7.84614
▁bread	-7.85357
▁big	-7.85682
;	-7.86542
▁full	-7.86651
▁tasty	-7.86873
▁meat	-7.87048
▁special	-7.87213
▁selection	-7.87318
▁look	-7.87504
▁friends	-7.87522
▁anything	-7.88891
We	-7.88978
▁business	-7.88987
▁friend	-7.89294
▁kind	-7.89966
▁burger	-7.90808
▁husband	-7.91148
▁call	-7.91436
▁shrimp	-7.91757
▁large	-7.92496
▁put	-7.92532
▁else	-7.92547
▁getting	-7.9272
▁outside	-7.92828
▁coming	-7.93318
▁inside	-7.93906
▁care	-7.95582
▁old	-7.95645
▁enjoyed	-7.96202
▁open	-7.96762
▁busy	-7.97317
▁ask	-7.97401
▁nothing	-7.97493
▁thought	-7.97674
in	-7.98118
▁decided	-7.98122
▁review	-7.98324
▁places	-7.98366
▁job	-7.98767
▁without	-7.98862
▁cream	-7.98971
▁gave	-7.99064
▁10	-7.99072
▁options	-7.99113
▁dish	-7.99226
▁used	-7.99731
▁fun	-7.99967
▁line	-8.00487
▁each	-8.0079
▁actually	-8.01068
▁manager	-8.01296
▁these	-8.01345
▁front	-8.01503
▁free	-8.01513
▁disappointed	-8.01753
n	-8.01935
▁half	-8.02308
▁All	-8.02313
▁No	-8.02348
▁let	-8.03162
▁use	-8.03169
▁rice	-8.03598
▁items	-8.03809
▁looked	-8.04527
),	-8.05096
▁waitress	-8.0606
▁town	-8.06242
▁helpful	-8.06281
▁needed	-8.06929
▁water	-8.07538
▁cooked	-8.07944
▁For	-8.07958
▁money	-8.07997
▁tell	-8.08165
▁during	-8.08743
▁week	-8.08747
▁couple	-8.08767
▁able	-8.08848
▁loved	-8.08985
▁shop	-8.08998
▁soup	-8.0911
▁wonderful	-8.09251
▁Service	-8.09756
▁served	-8.09885
▁quite	-8.09959
▁probably	-8.10095
▁hard	-8.10103
▁why	-8.10325
o	-8.10669
▁house	-8.10729
▁quick	-8.11074
▁waiting	-8.11145
▁wine	-8.11192
▁local	-8.11382
▁far	-8.11578
▁person	-8.12129
▁once	-8.12281
▁reviews	-8.12286
▁enjoy	-8.1252
▁pork	-8.12539
▁owner	-8.12645
▁someone	-8.1286
▁pay	-8.12927
▁parking	-8.13328
▁Also	-8.14203
▁everyone	-8.144
▁couldn	-8.14505
▁such	-8.14561
▁1	-8.14599
▁steak	-8.14603
▁huge	-8.15049
▁having	-8.15295
▁tables	-8.15458
▁sushi	-8.15503
▁hours	-8.16206
▁those	-8.16263
▁stop	-8.16492
▁fish	-8.16821
▁dishes	-8.16991
▁Very	-8.1749
▁high	-8.17708
▁part	-8.17836
▁That	-8.17859
▁several	-8.1827
▁almost	-8.18399
▁later	-8.18468
▁hotel	-8.18556
▁return	-8.18676
▁highly	-8.1869
▁fast	-8.18777
▁walk	-8.18913
▁tasted	-8.18991
▁won	-8.19327
▁After	-8.1939
▁least	-8.19461
▁door	-8.19832
▁As	-8.1987
▁trying	-8.204
▁ice	-8.20778
▁fantastic	-8.2084
▁wife	-8.21054
▁help	-8.21075
▁must	-8.21259
▁three	-8.21768
S	-8.22089
▁close	-8.22137
▁absolutely	-8.22218
▁In	-8.22391
r	-8.22694
▁cold	-8.22897
A	-8.22923
▁usually	-8.23249
▁point	-8.23277
▁whole	-8.24324
▁year	-8.24418
▁end	-8.2447
▁hair	-8.2474
▁wrong	-8.24836
▁felt	-8.24993
▁own	-8.25435
▁extremely	-8.25519
Great	-8.25578
▁New	-8.25856
▁until	-8.26144
▁eating	-8.26327
▁spicy	-8.26363
▁less	-8.26393
▁phone	-8.26417
▁days	-8.26606
▁Food	-8.26733
▁dining	-8.26809
▁walked	-8.2804
▁Their	-8.2814
es	-8.28491
▁seemed	-8.28496
▁extra	-8.28932
▁brought	-8.28996
▁cool	-8.29681
▁star	-8.30816
and	-8.31125
My	-8.31673
▁seating	-8.32459
▁music	-8.32818
▁does	-8.32874
▁arrived	-8.32895
▁today	-8.32947
▁beef	-8.3332
▁restaurants	-8.33343
▁live	-8.335
▁started	-8.33697
▁doesn	-8.338
▁customers	-8.34007
▁tacos	-8.34245
▁second	-8.34363
▁attentive	-8.3525
▁pick	-8.35324
▁decent	-8.35693
▁sit	-8.36588
▁bring	-8.36604
▁especially	-8.36738
▁Overall	-8.36851
▁name	-8.37255
▁dessert	-8.37359
▁However	-8.37603
▁keep	-8.37701
▁leave	-8.38045
▁working	-8.38233
▁anyone	-8.38677
▁party	-8.38737
th	-8.39003
▁kids	-8.39084
▁may	-8.39158
▁6	-8.39719
i	-8.39725
▁stay	-8.40487
▁seated	-8.40914
or	-8.40936
▁isn	-8.41808
▁group	-8.42031
▁guy	-8.4218
▁deal	-8.42334
▁drive	-8.42612
▁finally	-8.42756
▁20	-8.42821
▁ok	-8.42876
▁makes	-8.4309
▁beautiful	-8.43247
▁St	-8.43315
▁waiter	-8.43406
▁problem	-8.43571
▁company	-8.4399
▁course	-8.44118
▁sat	-8.44289
▁quickly	-8.44861
▁offer	-8.4499
▁waited	-8.4512
▁cut	-8.45187
▁fine	-8.45559
▁plate	-8.45951
▁street	-8.46231
to	-8.46357
▁start	-8.46426
▁What	-8.46595
▁making	-8.4721
▁trip	-8.4742
▁reason	-8.47607
▁amount	-8.4781
▁cake	-8.47858
▁perfectly	-8.48196
▁rude	-8.48277
▁wouldn	-8.48775
▁ago	-8.4881
▁comes	-8.492
▁doing	-8.49622
▁yet	-8.49672
▁size	-8.49747
▁easy	-8.50061
▁wish	-8.50801
▁saw	-8.50849
▁tea	-8.51458
▁maybe	-8.51759
▁instead	-8.52092
▁One	-8.52101
▁either	-8.5212
▁wings	-8.52995
▁chocolate	-8.53702
▁might	-8.53783
it	-8.54402
▁already	-8.54545
▁dry	-8.54707
▁Everything	-8.549
▁received	-8.55327
▁warm	-8.55484
▁professional	-8.55558
▁myself	-8.55582
▁appointment	-8.55962
▁past	-8.56159
▁reasonable	-8.5626
the	-8.56272
al	-8.56472
▁roll	-8.56624
▁dog	-8.56738
▁Saturday	-8.5676
▁flavors	-8.5693
▁crab	-8.56935
▁real	-8.57197
▁ready	-8.57265
▁soon	-8.57286
▁under	-8.57334
▁short	-8.57459
▁late	-8.57475
▁city	-8.5775
▁bacon	-8.57781
▁rolls	-8.57786
▁chips	-8.58216
▁counter	-8.58336
▁entire	-8.58815
▁fan	-8.59061
--	-8.59143
▁morning	-8.59224
▁space	-8.59545
▁liked	-8.59657
....	-8.59683
▁its	-8.5986
▁kitchen	-8.6036
▁brunch	-8.60502
▁regular	-8.60575
▁S	-8.60578
▁expect	-8.60619
▁Good	-8.61221
▁Just	-8.61431
▁appetizer	-8.61474
c	-8.6263
▁style	-8.62789
▁Philly	-8.62987
▁ate	-8.63401
▁Then	-8.63456
▁red	-8.63962
l	-8.64019
▁Will	-8.64632
▁available	-8.64721
▁ended	-8.64896
▁impressed	-8.64948
▁fact	-8.65401
▁set	-8.65627
▁sandwiches	-8.65649
▁variety	-8.65664
▁however	-8.6568
▁stuff	-8.66404
▁paid	-8.6644
▁needs	-8.66585
▁show	-8.66604
▁portions	-8.667
▁30	-8.66947
▁Definitely	-8.67108
▁employees	-8.67209
▁given	-8.67249
▁seems	-8.67346
▁list	-8.67534
▁often	-8.67922
▁early	-8.68084
pm	-8.68144
▁beans	-8.68818
▁guys	-8.68994
▁change	-8.69252
▁15	-8.69423
▁seem	-8.6957
▁Don	-8.69576
▁slow	-8.69703
▁ordering	-8.69869
▁light	-8.6988
▁Orleans	-8.70014
▁run	-8.70124
▁life	-8.70312
▁believe	-8.70324
▁buy	-8.70528
▁decor	-8.70789
▁months	-8.70933
▁offered	-8.70992
▁portion	-8.71405
▁Nashville	-8.71462
▁plenty	-8.7189
▁bowl	-8.71985
▁taking	-8.72268
▁etc	-8.72344
▁stopped	-8.72439
▁evening	-8.72704
▁expensive	-8.72937
▁issue	-8.7297
▁sitting	-8.73033
▁seafood	-8.73055
▁Sunday	-8.74041
▁Mexican	-8.74302
▁re	-8.74375
▁flavorful	-8.74905
▁charge	-8.74942
▁seen	-8.75525
▁On	-8.75695
▁To	-8.75803
▁kept	-8.75969
▁comfortable	-8.76044
▁bite	-8.76213
▁office	-8.76943
▁card	-8.7711
▁twice	-8.77266
▁man	-8.77502
▁okay	-8.77523
▁completely	-8.77744
▁choice	-8.7776
▁serve	-8.77954
▁mind	-8.7803
▁glad	-8.78148
▁white	-8.7839
▁due	-8.78397
▁potatoes	-8.78461
▁pasta	-8.7856
▁egg	-8.78587
▁recommended	-8.78962
▁weekend	-8.79069
▁bill	-8.7907
▁between	-8.7922
▁potato	-8.79247
ers	-8.79385
▁French	-8.79738
▁knew	-8.79761
▁worst	-8.79797
▁8	-8.80024
▁Now	-8.80488
▁bartender	-8.8065
▁lots	-8.80817
▁rest	-8.8107
▁green	-8.81073
T	-8.81104
▁across	-8.81233
▁priced	-8.81362
▁eggs	-8.81525
▁delivery	-8.81716
▁At	-8.81748
▁add	-8.81758
▁pleasant	-8.82102
▁average	-8.8216
▁behind	-8.82248
▁unique	-8.82271
▁cheap	-8.82527
▁looks	-8.82567
▁weeks	-8.82668
▁Friday	-8.83067
▁hand	-8.83151
▁option	-8.83299
▁floor	-8.83325
▁along	-8.83332
▁Italian	-8.8336
▁main	-8.83365
▁heard	-8.83384
▁near	-8.83487
▁beers	-8.83796
▁understand	-8.84234
▁7	-8.84545
▁birthday	-8.84587
▁Thank	-8.84709
▁grilled	-8.84813
▁BB	-8.85042
▁crispy	-8.85191
▁reservation	-8.85455
▁E	-8.85484
▁cost	-8.85493
▁overall	-8.85971
▁un	-8.86001
▁guess	-8.86071
C	-8.8652
▁orders	-8.86885
▁--	-8.87311
▁terrible	-8.87556
▁gone	-8.87962
▁choose	-8.88069
▁prepared	-8.88251
k	-8.88515
▁B	-8.8854
▁walking	-8.8869
▁immediately	-8.89148
▁date	-8.8932
▁itself	-8.89322
▁rather	-8.89343
▁weren	-8.89369
▁moved	-8.89412
▁expected	-8.89427
▁lady	-8.89635
▁online	-8.89721
▁ingredients	-8.89964
▁plus	-8.90002
▁haven	-8.90371
▁taken	-8.90561
no	-8.90571
▁Yelp	-8.90576
▁Thai	-8.90582
▁authentic	-8.90747
▁butter	-8.90869
▁burgers	-8.90912
▁NOT	-8.91024
▁Even	-8.91235
▁four	-8.91477
▁Chicken	-8.91563
▁hit	-8.91573
▁oil	-8.92092
▁First	-8.92248
▁Dr	-8.92282
on	-8.92707
▁knowledgeable	-8.92759
▁together	-8.92896
▁surprised	-8.93323
▁month	-8.93475
▁patio	-8.93829
▁number	-8.93951
▁simple	-8.93997
▁forward	-8.94113
▁cute	-8.94188
▁saying	-8.94233
▁type	-8.94279
▁eaten	-8.94733
▁opened	-8.94878
▁others	-8.94882
▁yummy	-8.95012
▁recently	-8.95147
▁packed	-8.95355
am	-8.95372
▁soft	-8.95763
▁boyfriend	-8.95829
D	-8.95909
▁within	-8.96003
▁garlic	-8.96058
▁glass	-8.96179
B	-8.96419
▁salsa	-8.96535
▁remember	-8.96561
▁visiting	-8.96748
▁salon	-8.9675
▁Both	-8.97168
▁nails	-8.97191
▁girl	-8.97198
able	-8.97212
▁While	-8.97978
▁Had	-8.98184
▁worked	-8.98502
▁neighborhood	-8.98512
▁literally	-8.98528
▁park	-8.98678
▁meals	-8.98808
▁yourself	-8.9883
▁tip	-8.98976
▁tour	-8.99192
g	-8.99319
▁added	-8.99395
▁de	-8.99902
▁tender	-9.00019
▁horrible	-9.00087
▁Can	-9.00174
▁minute	-9.00539
▁longer	-9.00939
which	-9.01021
▁Well	-9.01769
▁hope	-9.01799
▁exactly	-9.02419
▁excited	-9.02685
▁desk	-9.02685
▁giving	-9.02735
▁Would	-9.02824
▁bland	-9.02848
▁servers	-9.03124
▁truly	-9.03299
▁Highly	-9.03379
▁daughter	-9.03381
▁Love	-9.03558
▁oysters	-9.03579
."	-9.03581
▁move	-9.03698
▁fix	-9.03939
▁building	-9.03963
p	-9.04073
F	-9.04092
▁Tampa	-9.04219
▁read	-9.04256
▁game	-9.0432
▁choices	-9.04335
▁talk	-9.04667
▁issues	-9.04711
go	-9.04748
▁toast	-9.04858
▁bought	-9.05514
▁sides	-9.0555
▁totally	-9.05608
▁T	-9.05899
▁vegan	-9.06073
▁sign	-9.06295
▁pieces	-9.06306
▁empty	-9.06346
▁sausage	-9.06468
▁questions	-9.06509
b	-9.06804
we	-9.07188
▁helped	-9.07341
▁ambiance	-9.07387
▁appetizers	-9.07429
▁outdoor	-9.07466
▁loud	-9.07477
▁w	-9.0772
▁five	-9.07892
▁feeling	-9.08008
▁poor	-9.08015
▁vibe	-9.08117
▁world	-9.08337
▁above	-9.0844
▁mean	-9.08472
▁closed	-9.08906
▁crust	-9.09086
".	-9.09199
▁C	-9.09204
▁crowded	-9.09326
▁cup	-9.09384
▁process	-9.09705
▁specials	-9.09725
▁black	-9.09902
▁Chinese	-9.09915
▁Oh	-9.10231
▁P	-9.10254
▁F	-9.10363
▁although	-9.10427
▁greeted	-9.10704
▁gets	-9.1097
▁incredible	-9.11057
▁downtown	-9.11216
▁checked	-9.12
▁son	-9.12059
▁piece	-9.12181
▁:)	-9.12731
▁massage	-9.12744
▁per	-9.12979
!!!!	-9.13023
as	-9.133
▁level	-9.1333
▁noticed	-9.13333
▁seat	-9.13343
▁including	-9.13436
en	-9.1344
▁pie	-9.13446
ting	-9.13459
▁treat	-9.13479
ING	-9.13562
▁hands	-9.13594
▁idea	-9.13825
▁wedding	-9.13828
out	-9.13931
▁rooms	-9.14084
▁Do	-9.14297
▁watch	-9.14356
▁anywhere	-9.14526
▁entree	-9.14671
▁establishment	-9.14847
▁entrees	-9.15008
▁beyond	-9.15162
▁interesting	-9.15396
ie	-9.15412
▁spend	-9.15457
▁tomato	-9.15542
▁plates	-9.1574
le	-9.15906
▁corn	-9.1602
▁based	-9.16044
▁fair	-9.16136
el	-9.16153
▁chef	-9.16169
▁showed	-9.16185
▁aren	-9.16235
▁gem	-9.16726
▁grab	-9.17079
▁cannot	-9.17125
▁miss	-9.17137
▁noodles	-9.17196
▁hear	-9.17259
▁management	-9.17398
▁outstanding	-9.17553
▁mouth	-9.17676
▁salmon	-9.17698
▁happened	-9.17773
▁share	-9.17785
▁hungry	-9.17792
▁chance	-9.17948
▁spent	-9.18024
▁turned	-9.18219
co	-9.18365
▁low	-9.18373
w	-9.18456
▁charged	-9.18547
▁afternoon	-9.18561
▁Maybe	-9.18655
▁attention	-9.18677
▁taco	-9.18703
▁pricey	-9.18744
▁filled	-9.18818
▁onion	-9.18856
▁finish	-9.18909
▁credit	-9.19377
▁case	-9.19439
▁view	-9.19461
not	-9.19512
▁9	-9.19559
▁dirty	-9.19733
It	-9.1974
▁head	-9.19919
▁pulled	-9.20253
▁talking	-9.20323
▁Go	-9.20371
▁multiple	-9.2038
▁visited	-9.20381
▁buffet	-9.20725
▁tasting	-9.20761
▁woman	-9.21105
▁paying	-9.21179
▁mention	-9.21396
If	-9.21643
R	-9.21667
M	-9.21698
▁toppings	-9.21747
▁picked	-9.21903
▁cocktails	-9.22042
▁Thanks	-9.22407
▁plan	-9.2246
ness	-9.22498
▁young	-9.22683
▁located	-9.22751
▁goes	-9.22835
▁single	-9.22844
up	-9.23144
▁lovely	-9.23157
▁filling	-9.23252
x	-9.23459
▁disappointing	-9.23531
▁sent	-9.23878
▁ribs	-9.24127
▁asking	-9.24148
so	-9.24238
▁Everyone	-9.24346
▁pool	-9.24417
▁seasoned	-9.24453
▁onions	-9.24562
▁With	-9.24704
h	-9.24714
▁team	-9.24816
▁nail	-9.24833
(	-9.2492
▁Staff	-9.24944
▁baked	-9.25261
▁Nice	-9.25432
ra	-9.2545
▁owners	-9.25567
▁future	-9.25783
▁non	-9.25849
▁vegetarian	-9.26101
▁solid	-9.26186
▁Reno	-9.26401
▁addition	-9.26413
▁item	-9.26461
▁salty	-9.26521
!)	-9.2676
▁window	-9.26871
P	-9.26934
▁finished	-9.26971
▁serving	-9.2733
▁sometimes	-9.27417
▁stand	-9.27506
▁mom	-9.27529
▁cook	-9.27693
▁welcoming	-9.27696
▁changed	-9.27757
▁hostess	-9.27767
ro	-9.27855
▁dressing	-9.27967
▁delivered	-9.28071
▁chose	-9.2818
f	-9.28203
▁play	-9.28425
▁says	-9.28494
▁attitude	-9.28532
▁mix	-9.28699
▁bathroom	-9.28868
▁wall	-9.28937
So	-9.28979
▁incredibly	-9.28987
▁gotten	-9.29214
▁returning	-9.29246
Went	-9.29335
▁medium	-9.29397
▁honestly	-9.29425
▁explained	-9.29982
▁opinion	-9.30102
la	-9.30156
▁please	-9.30319
est	-9.30618
▁certainly	-9.3075
▁purchase	-9.30829
▁write	-9.30876
▁ahead	-9.30921
▁n	-9.30996
▁crowd	-9.31258
nd	-9.31264
▁Best	-9.31374
▁box	-9.31384
▁lobster	-9.3159
but	-9.31653
▁simply	-9.31673
▁employee	-9.31861
▁burrito	-9.31896
▁shopping	-9.32128
▁touch	-9.32134
▁takes	-9.3222
▁accommodating	-9.32244
▁homemade	-9.32282
▁Some	-9.32508
▁color	-9.32564
an	-9.32839
▁Tucson	-9.33201
▁class	-9.3323
▁stayed	-9.33328
▁salads	-9.33383
▁dip	-9.33455
▁running	-9.33473
▁using	-9.33504
ri	-9.33894
▁mine	-9.34077
▁cash	-9.34103
▁thin	-9.34387
▁standard	-9.344
▁12	-9.34511
▁shared	-9.34553
▁veggies	-9.34565
▁salt	-9.34722
G	-9.34732
▁K	-9.34828
▁min	-9.35302
▁pre	-9.35422
▁value	-9.35518
▁true	-9.36009
▁Really	-9.3635
▁face	-9.36386
▁co	-9.36393
▁speak	-9.36427
▁middle	-9.36428
▁Every	-9.36587
▁pleased	-9.36772
▁truck	-9.36773
▁bottle	-9.37186
il	-9.37199
▁somewhere	-9.37337
▁cocktail	-9.37358
▁fairly	-9.37627
▁upon	-9.37772
▁Louis	-9.3795
▁From	-9.3806
▁bag	-9.38131
▁leaving	-9.38292
▁center	-9.38343
▁event	-9.38502
▁dogs	-9.38793
▁easily	-9.3896
▁split	-9.38987
na	-9.39053
▁awful	-9.39096
▁book	-9.39112
Very	-9.39141
▁Once	-9.39316
▁limited	-9.3942
▁...	-9.3946
▁clearly	-9.39819
man	-9.39874
▁appreciate	-9.39928
▁mixed	-9.40084
▁D	-9.40433
▁personal	-9.40615
▁dark	-9.40894
▁included	-9.41096
▁Only	-9.41101
▁lack	-9.41145
▁patient	-9.41258
▁O	-9.4131
▁sauces	-9.41456
▁ones	-9.41486
▁stuffed	-9.41494
▁total	-9.41497
▁tonight	-9.41792
▁complaint	-9.41828
▁heat	-9.41841
▁G	-9.41944
▁matter	-9.41952
▁lived	-9.42053
E	-9.42076
▁yes	-9.42152
▁bed	-9.42171
▁eye	-9.42221
▁slightly	-9.42618
u	-9.42771
W	-9.42894
Love	-9.42901
▁basically	-9.43017
▁Unfortunately	-9.43033
▁products	-9.43086
▁healthy	-9.43138
▁corner	-9.43604
Best	-9.43784
▁thick	-9.43806
▁Philadelphia	-9.43868
▁$5	-9.44072
▁!	-9.4423
▁Mac	-9.44377
▁frozen	-9.44598
▁NOLA	-9.4463
▁po	-9.44687
▁reservations	-9.44867
▁tiny	-9.45022
▁honest	-9.45129
▁La	-9.45493
▁supposed	-9.4556
▁efficient	-9.45567
▁Santa	-9.45616
▁summer	-9.45676
▁system	-9.45688
ic	-9.45728
▁spice	-9.45812
▁sell	-9.45929
▁lettuce	-9.46043
▁possible	-9.46082
▁die	-9.46161
▁generous	-9.46245
▁website	-9.46345
▁chain	-9.46395
▁treated	-9.46465
▁traditional	-9.46815
▁Never	-9.46923
▁Yes	-9.46983
▁turn	-9.47098
▁fruit	-9.47108
▁City	-9.47119
▁hold	-9.47162
K	-9.47312
▁app	-9.47569
▁environment	-9.47589
▁provided	-9.4765
ish	-9.47694
▁negative	-9.47756
▁forgot	-9.47862
▁mac	-9.47866
▁THE	-9.47906
▁typical	-9.47942
▁mediocre	-9.4797
▁tastes	-9.4804
is	-9.48109
▁crazy	-9.48174
ation	-9.48253
▁tuna	-9.48273
▁SO	-9.48948
▁lamb	-9.49296
▁school	-9.49434
ar	-9.49518
▁creamy	-9.49567
▁fixed	-9.49807
▁conversation	-9.4987
▁polite	-9.49873
▁casual	-9.49908
▁surprise	-9.50112
▁situation	-9.50231
▁milk	-9.50293
▁waste	-9.50423
▁mentioned	-9.50515
▁weird	-9.5052
▁mall	-9.50704
at	-9.50743
▁elsewhere	-9.5084
▁sort	-9.50937
Y	-9.50994
▁moving	-9.51179
▁perfection	-9.51193
▁missing	-9.51232
▁folks	-9.51283
▁Street	-9.51286
▁seats	-9.5131
▁guests	-9.51326
▁suggest	-9.51329
▁Pizza	-9.51568
▁positive	-9.51655
▁overpriced	-9.5167
▁slice	-9.51675
▁air	-9.51753
▁section	-9.51821
▁original	-9.51825
▁usual	-9.51884
▁airport	-9.51896
▁45	-9.51923
do	-9.52064
▁expectations	-9.52075
▁throughout	-9.52148
▁beach	-9.52164
▁clear	-9.52169
▁thinking	-9.52314
▁prefer	-9.52392
▁satisfied	-9.52462
▁expecting	-9.52464
▁unless	-9.52527
▁joint	-9.52584
▁barely	-9.52822
▁$10	-9.52896
▁pepper	-9.52909
▁market	-9.52966
they	-9.53066
▁brisket	-9.53127
▁note	-9.53429
▁Be	-9.53448
▁fabulous	-9.53497
▁veggie	-9.53531
▁strong	-9.53679
▁lemon	-9.53803
▁difficult	-9.53803
▁curry	-9.53897
▁Barbara	-9.53918
▁cleaning	-9.5399
▁11	-9.54067
▁Monday	-9.54153
▁R	-9.54193
▁alone	-9.54233
▁lost	-9.54346
▁greasy	-9.54396
▁dollars	-9.54444
▁playing	-9.54467
▁avocado	-9.54552
▁sad	-9.54714
▁Bar	-9.54727
▁sour	-9.54795
ne	-9.54947
▁hate	-9.55088
▁Re	-9.55385
▁sales	-9.55392
L	-9.55436
▁These	-9.55441
▁Since	-9.55505
▁grits	-9.55573
▁Indian	-9.55579
▁rating	-9.55683
▁glasses	-9.55803
What	-9.55839
▁thank	-9.55917
▁answer	-9.55925
ine	-9.55935
▁forget	-9.56001
▁gift	-9.56026
▁purchased	-9.56288
▁covered	-9.56292
▁complete	-9.56307
▁bun	-9.56491
▁craving	-9.56581
▁paper	-9.56623
▁checking	-9.56771
▁N	-9.56788
▁pancakes	-9.5679
▁seeing	-9.5692
▁convenient	-9.56978
less	-9.57017
▁mins	-9.57246
▁post	-9.5742
▁ran	-9.57528
▁heart	-9.57536
▁mostly	-9.57629
▁duck	-9.57775
▁vehicle	-9.57994
▁desserts	-9.58295
▁quiet	-9.58685
▁gravy	-9.58861
me	-9.58869
▁texture	-9.58929
▁seriously	-9.58944
▁beat	-9.59129
▁repair	-9.59239
▁shot	-9.59246
▁Next	-9.59259
First	-9.59264
2	-9.5933
N	-9.59393
▁broth	-9.59502
▁returned	-9.59617
▁Was	-9.59762
▁sister	-9.59966
ted	-9.60083
Food	-9.60091
▁whatever	-9.60094
▁spots	-9.60207
▁pho	-9.60216
▁product	-9.60276
▁Nothing	-9.6029
▁dress	-9.60305
▁considering	-9.60312
ment	-9.60356
▁refund	-9.60368
▁rare	-9.60393
▁Super	-9.60581
▁pictures	-9.60691
us	-9.6078
ty	-9.60878
▁works	-9.60882
▁word	-9.60942
▁pass	-9.60979
▁worse	-9.61033
▁M	-9.61179
ur	-9.61294
▁happen	-9.61313
▁smaller	-9.61352
▁double	-9.61356
▁tomatoes	-9.6136
▁deep	-9.61397
▁100	-9.6141
▁Although	-9.61416
▁kid	-9.61637
▁nicely	-9.61642
▁break	-9.61709
▁except	-9.61833
▁OK	-9.61878
▁gym	-9.61992
▁cafe	-9.62024
▁combo	-9.62099
▁road	-9.62209
te	-9.6221
▁normal	-9.62325
1	-9.62343
▁notch	-9.62385
▁fit	-9.6247
my	-9.6279
▁yelp	-9.62801
▁interior	-9.62936
▁means	-9.63065
ies	-9.63175
mo	-9.63194
z	-9.63206
▁disappoint	-9.63208
▁placed	-9.63211
They	-9.63341
Had	-9.63403
▁vegetables	-9.63611
▁rich	-9.63688
▁juicy	-9.63717
▁nearby	-9.63872
▁support	-9.63912
▁sugar	-9.63953
▁mistake	-9.64056
▁games	-9.64082
▁hang	-9.64102
▁sorry	-9.64115
▁art	-9.64249
▁platter	-9.64365
▁mess	-9.64416
▁South	-9.64602
▁chili	-9.64632
▁cozy	-9.64708
▁American	-9.64877
▁willing	-9.64926
▁smile	-9.64942
▁donuts	-9.65094
▁spinach	-9.65134
▁flat	-9.65183
▁AND	-9.65184
▁provide	-9.65464
▁previous	-9.65539
▁tap	-9.65662
▁Most	-9.65763
▁safe	-9.65855
▁diner	-9.65951
▁send	-9.66037
▁smell	-9.66076
▁bunch	-9.6609
▁cheesesteak	-9.66416
▁fancy	-9.66447
ion	-9.66448
ce	-9.66535
▁Co	-9.66735
▁classic	-9.66787
▁affordable	-9.66959
▁knows	-9.66962
▁continue	-9.66976
▁request	-9.67018
▁email	-9.67188
be	-9.6722
▁reading	-9.67247
▁chairs	-9.67284
▁Other	-9.67286
▁bartenders	-9.67299
▁known	-9.67494
▁meet	-9.67556
▁peppers	-9.67578
ist	-9.67605
▁spoke	-9.67738
▁experienced	-9.67746
▁girls	-9.67759
▁reasonably	-9.67778
▁fill	-9.67904
one	-9.68075
▁brand	-9.68086
▁boy	-9.68724
▁informed	-9.68893
ling	-9.68922
▁basic	-9.68995
▁stores	-9.69074
▁avoid	-9.69075
▁save	-9.69153
▁receive	-9.69165
▁W	-9.69451
▁Get	-9.69498
▁response	-9.69624
▁mushrooms	-9.69663
▁phenomenal	-9.69807
▁Plus	-9.69911
ch	-9.69931
ter	-9.69994
▁juice	-9.70072
▁skin	-9.70253
▁Like	-9.70316
Good	-9.70325
▁spring	-9.70566
▁actual	-9.70634
H	-9.70657
▁children	-9.70671
ma	-9.70757
▁pedicure	-9.70764
▁House	-9.70872
▁plain	-9.70874
▁How	-9.70877
▁favorites	-9.71082
▁slices	-9.71231
▁40	-9.71234
ta	-9.71496
▁rush	-9.71513
▁notice	-9.717
▁additional	-9.71716
▁blue	-9.71835
▁sense	-9.71941
O	-9.71947
Came	-9.72004
▁heavy	-9.72032
▁$1	-9.7206
▁pain	-9.72072
▁higher	-9.72111
▁topped	-9.7213
▁obviously	-9.72308
▁pot	-9.72324
▁drop	-9.72369
▁wash	-9.72404
▁telling	-9.72452
▁nights	-9.72464
ca	-9.72521
▁information	-9.72609
▁cakes	-9.72762
all	-9.72869
▁dine	-9.72927
▁roasted	-9.73107
▁similar	-9.73151
▁gluten	-9.73185
▁general	-9.73193
▁nearly	-9.73398
rs	-9.73488
▁forever	-9.73701
$	-9.73753
▁baby	-9.73782
▁modern	-9.73968
▁appreciated	-9.74191
▁correct	-9.74272
▁NO	-9.74321
▁driving	-9.74364
▁Ordered	-9.7438
de	-9.74496
▁meats	-9.74536
▁cleaned	-9.74601
like	-9.74738
▁register	-9.74883
▁welcome	-9.74909
▁Friendly	-9.75099
▁rate	-9.751
he	-9.75173
▁watching	-9.75176
▁insurance	-9.75185
▁L	-9.7527
▁staying	-9.75296
▁fee	-9.75313
ia	-9.75316
▁problems	-9.75352
4	-9.75382
os	-9.75406
▁Cafe	-9.75787
▁become	-9.75813
▁Prices	-9.75816
▁opening	-9.75842
side	-9.75844
▁relaxing	-9.75941
ive	-9.75996
▁con	-9.76075
▁station	-9.76083
▁straight	-9.76258
▁50	-9.76316
▁crisp	-9.76406
▁normally	-9.76443
age	-9.76563
▁turkey	-9.76569
▁stick	-9.76723
▁explain	-9.7678
▁Asian	-9.76923
▁ramen	-9.77017
▁brown	-9.77088
▁25	-9.77129
▁cookies	-9.77146
▁movie	-9.77175
ry	-9.77175
▁kick	-9.77208
▁venue	-9.77353
▁particular	-9.77406
▁Went	-9.77438
▁craft	-9.77503
▁compared	-9.77505
▁AMA	-9.77617
▁nachos	-9.77709
▁french	-9.77755
▁none	-9.77759
▁prior	-9.77857
▁despite	-9.77936
V	-9.78151
▁raw	-9.78218
▁prompt	-9.78367
▁story	-9.78473
▁carry	-9.78719
▁hadn	-9.78763
ian	-9.78794
▁club	-9.78819
▁calling	-9.78829
▁standing	-9.79014
▁Two	-9.79019
▁board	-9.79023
▁picture	-9.79105
.....	-9.79154
▁tough	-9.79213
you	-9.79232
▁Finally	-9.79276
▁$3	-9.79318
▁setting	-9.79375
▁1/2	-9.79416
v	-9.79501
▁moment	-9.7952
▁exceptional	-9.79547
▁sub	-9.79567
▁experiences	-9.79601
3	-9.79622
▁strip	-9.79695
▁machine	-9.79704
lo	-9.79716
▁bbq	-9.79899
▁complaints	-9.79912
▁yesterday	-9.79914
▁Try	-9.80041
▁b	-9.80147
▁Got	-9.80264
▁schedule	-9.80344
▁hidden	-9.80387
▁recent	-9.8041
▁bites	-9.8044
▁Tuesday	-9.80516
▁wide	-9.80542
Just	-9.80569
▁cooking	-9.8057
▁Burger	-9.80611
▁country	-9.8064
▁Day	-9.80642
▁honey	-9.80657
▁popular	-9.80719
▁Again	-9.80998
▁buying	-9.81187
▁cuisine	-9.81248
▁finding	-9.81327
▁important	-9.81373
▁met	-9.81376
▁driver	-9.81403
?"	-9.81453
▁services	-9.81474
▁courteous	-9.81512
▁takeout	-9.81571
▁rib	-9.81734
▁J	-9.81774
▁By	-9.81889
▁overly	-9.82113
▁unfortunately	-9.82161
▁recommendations	-9.82167
▁seasoning	-9.8219
▁step	-9.82281
▁booked	-9.82426
▁Lots	-9.82517
▁contact	-9.82711
▁Why	-9.82715
▁upstairs	-9.82868
▁workers	-9.82884
▁pop	-9.82908
▁offers	-9.82917
▁Always	-9.83025
se	-9.83063
▁cashier	-9.83068
▁gumbo	-9.83076
▁ride	-9.83083
▁trust	-9.83132
▁living	-9.83255
▁kinda	-9.83267
▁st	-9.83349
Excellent	-9.83375
▁absolute	-9.83645
▁locations	-9.83663
▁arrive	-9.83819
▁shops	-9.83968
▁la	-9.84133
▁soggy	-9.84228
▁requested	-9.84261
▁complain	-9.84262
▁p	-9.84475
▁$20	-9.84843
▁anyway	-9.84885
▁doctor	-9.84967
▁thru	-9.84994
▁follow	-9.85018
▁$2	-9.85083
▁question	-9.85272
&	-9.85281
▁disappointment	-9.85316
▁mood	-9.85379
▁wrap	-9.85383
house	-9.85406
▁host	-9.85422
▁pudding	-9.85424
▁suggested	-9.85496
▁e	-9.85544
▁mother	-9.85578
if	-9.85614
▁spa	-9.85692
▁cars	-9.85727
▁weather	-9.86122
▁patrons	-9.86124
▁Another	-9.8614
▁furniture	-9.86157
Not	-9.86163
▁roast	-9.86256
▁iced	-9.86267
▁walls	-9.86309
▁Po	-9.86368
▁LOVE	-9.86427
▁realized	-9.86462
▁presentation	-9.86502
▁sold	-9.86564
▁history	-9.86711
▁anymore	-9.868
▁bottom	-9.86804
▁range	-9.86859
▁hoping	-9.86897
▁broken	-9.869
▁decide	-9.86965
▁larger	-9.86991
▁cause	-9.87017
▁bother	-9.87044
▁state	-9.87045
▁ladies	-9.87051
ful	-9.87081
▁certain	-9.87218
▁refreshing	-9.87222
▁travel	-9.87378
▁fault	-9.87423
▁oh	-9.87446
▁pizzas	-9.87492
▁key	-9.87494
▁likely	-9.87543
▁ridiculous	-9.87551
▁difference	-9.87641
▁Cheese	-9.87697
▁helping	-9.87748
▁Let	-9.8782
▁bright	-9.87938
▁consider	-9.88155
▁greens	-9.88205
ity	-9.88293
▁band	-9.88319
▁odd	-9.88459
▁grill	-9.88543
▁pm	-9.88562
▁girlfriend	-9.88608
▁H	-9.88754
▁allowed	-9.88796
▁third	-9.88926
▁daily	-9.88989
▁bucks	-9.88994
▁Thursday	-9.89133
▁discount	-9.89224
ED	-9.89237
▁member	-9.89383
▁Shrimp	-9.89387
▁bike	-9.8945
▁smoked	-9.89481
um	-9.89652
▁lol	-9.89812
ent	-9.90069
▁stated	-9.90104
▁pricing	-9.90132
▁detail	-9.90169
▁consistently	-9.9031
rd	-9.90336
▁coconut	-9.90366
▁orange	-9.90452
▁answered	-9.90648
▁mushroom	-9.90804
un	-9.90969
▁par	-9.91043
▁enjoyable	-9.91072
▁cheaper	-9.91106
▁self	-9.91233
▁tofu	-9.91262
▁deliver	-9.91338
▁round	-9.91342
One	-9.91386
▁gel	-9.91484
▁wanting	-9.91524
▁combination	-9.9161
▁lines	-9.91684
▁soda	-9.91688
▁dumplings	-9.91695
▁themselves	-9.91968
▁nor	-9.92155
▁hummus	-9.92163
▁bagel	-9.92218
▁Please	-9.92288
▁talked	-9.92312
▁smoke	-9.92367
▁flight	-9.92537
▁personally	-9.92548
▁calamari	-9.92555
▁cover	-9.92572
▁U	-9.92597
▁realize	-9.92611
▁Of	-9.92619
▁burnt	-9.92678
▁biscuits	-9.92806
▁imagine	-9.92899
▁lacking	-9.92944
▁drove	-9.92983
▁figure	-9.93173
▁Indy	-9.9327
??	-9.93464
▁Parking	-9.93594
▁various	-9.9364
▁sick	-9.9365
com	-9.93651
▁Salad	-9.93777
▁Today	-9.93864
▁moist	-9.93911
for	-9.94002
▁Excellent	-9.94037
▁wood	-9.94046
▁apple	-9.94087
▁grocery	-9.94206
Stopped	-9.94215
Amazing	-9.94322
▁promptly	-9.94373
▁figured	-9.94454
▁belly	-9.94461
▁lucky	-9.94693
▁guacamole	-9.94737
▁crunchy	-9.94849
▁parts	-9.94852
sh	-9.94872
▁owned	-9.94899
▁margarita	-9.95047
ton	-9.95094
▁somewhat	-9.95187
▁Red	-9.95229
▁sports	-9.95279
▁bigger	-9.953
▁bars	-9.95317
▁feet	-9.95378
▁replaced	-9.95389
▁pet	-9.95389
▁closing	-9.95408
▁women	-9.95409
▁fire	-9.95507
▁fat	-9.95579
▁Big	-9.95677
▁Check	-9.95701
▁apartment	-9.95844
?!	-9.95927
▁recommendation	-9.95964
▁filet	-9.96098
▁crawfish	-9.96151
min	-9.96229
▁eyes	-9.96272
▁ambience	-9.96287
▁rushed	-9.963
of	-9.96336
▁earlier	-9.96355
▁Me	-9.96358
▁bakery	-9.96362
▁deli	-9.96418
▁Korean	-9.9649
▁apparently	-9.96491
▁bus	-9.96492
et	-9.96586
▁TV	-9.9659
▁Delicious	-9.96616
▁thanks	-9.96679
▁visits	-9.96717
▁everywhere	-9.96747
▁shows	-9.96765
▁$4	-9.96774
ba	-9.97053
ge	-9.9708
▁Wednesday	-9.97081
li	-9.97231
▁older	-9.97325
▁ten	-9.97465
▁sale	-9.97475
▁treatment	-9.97546
▁dropped	-9.97555
▁pleasantly	-9.97566
▁u	-9.97651
▁ton	-9.97822
mp	-9.97934
▁handle	-9.98022
▁rings	-9.98062
▁shower	-9.98072
▁California	-9.98424
▁scallops	-9.98457
▁distance	-9.98484
▁property	-9.98557
▁mini	-9.98577
50	-9.9867
▁favor	-9.98758
▁properly	-9.98862
▁six	-9.98871
▁cookie	-9.98888
▁Greek	-9.98914
▁An	-9.99063
▁selections	-9.99082
▁mashed	-9.99136
▁feels	-9.9919
▁unprofessional	-9.99251
▁sample	-9.99301
▁following	-9.99417
▁BEST	-9.99465
▁Seriously	-9.9948
▁dealership	-9.99566
▁separate	-9.99604
▁El	-9.99617
▁doubt	-9.99636
▁broccoli	-9.99715
▁major	-9.99771
▁NEVER	-9.99776
▁Amazing	-9.99904
▁regret	-10.0016
▁missed	-10.0018
▁Still	-10.0043
▁fell	-10.0043
▁weekends	-10.0056
▁foot	-10.0066
▁agreed	-10.0069
▁receipt	-10.0069
▁stuck	-10.007
▁zero	-10.0084
▁areas	-10.0091
▁Christmas	-10.0094
ant	-10.0097
way	-10.0105
▁funny	-10.0111
▁c	-10.0118
▁Cuban	-10.012
U	-10.0141
▁chill	-10.0155
▁sound	-10.0156
▁windows	-10.016
▁drinking	-10.016
▁health	-10.0163
▁creative	-10.0173
▁closer	-10.0182
▁vacation	-10.0198
▁tons	-10.022
▁effort	-10.0223
▁otherwise	-10.0234
▁calls	-10.0236
▁passed	-10.0237
▁trash	-10.0239
ier	-10.0243
▁Fresh	-10.0247
▁complimentary	-10.0253
ke	-10.0272
▁facility	-10.0274
▁generally	-10.0278
ee	-10.0295
▁photos	-10.0359
▁waffle	-10.0378
▁pro	-10.0386
▁body	-10.0386
▁plastic	-10.0387
▁noise	-10.0391
▁savory	-10.0393
op	-10.0396
▁dance	-10.0408
▁disgusting	-10.0417
▁manicure	-10.0419
▁sized	-10.0427
▁fall	-10.0428
▁bean	-10.0437
?)	-10.0438
▁strawberry	-10.0439
▁refused	-10.0447
▁doors	-10.0455
ary	-10.0459
▁Park	-10.0462
va	-10.0468
▁tire	-10.0473
pa	-10.0474
▁lobby	-10.0486
▁private	-10.0487
▁dozen	-10.0492
▁damn	-10.0492
▁VERY	-10.0496
ni	-10.0496
▁account	-10.0501
ated	-10.0502
▁DO	-10.0504
▁stood	-10.0519
▁chewy	-10.0529
▁goodness	-10.0531
▁types	-10.0533
▁Loved	-10.0533
▁Starbucks	-10.0535
▁impressive	-10.0535
▁community	-10.0539
▁def	-10.0541
▁consistent	-10.0547
▁sizes	-10.0549
▁catch	-10.0566
▁interested	-10.0574
▁dollar	-10.0607
ir	-10.0608
▁mango	-10.0617
▁upset	-10.0624
▁gives	-10.0627
▁department	-10.0635
▁noodle	-10.0641
ha	-10.0643
▁lower	-10.066
▁Her	-10.0662
this	-10.0666
▁gas	-10.0675
▁Mary	-10.0678
Wow	-10.0682
▁latte	-10.0685
▁typically	-10.0695
▁smooth	-10.071
▁particularly	-10.0727
▁hole	-10.0735
▁version	-10.0736
im	-10.0746
▁margaritas	-10.0755
▁cheesecake	-10.0756
opted	-10.0758
▁wear	-10.0759
▁ham	-10.0759
▁Florida	-10.0767
▁Ma	-10.0776
▁Mi	-10.0777
▁screen	-10.0783
▁update	-10.0783
▁pull	-10.0784
▁Each	-10.0791
▁below	-10.0793
▁personable	-10.0795
▁enjoying	-10.0806
▁crew	-10.081
▁clothes	-10.081
▁Or	-10.0814
da	-10.0814
▁bringing	-10.0819
▁classes	-10.0826
▁parents	-10.083
▁putting	-10.0858
▁spectacular	-10.0863
▁Last	-10.0884
ally	-10.0887
ah	-10.0889
▁goat	-10.0899
▁loves	-10.09
▁Hot	-10.092
ul	-10.0931
per	-10.0931
▁Because	-10.0942
▁haircut	-10.0948
▁miles	-10.095
▁block	-10.0951
▁dipping	-10.0956
▁joke	-10.0958
After	-10.0968
▁steaks	-10.0969
▁pan	-10.0993
▁tech	-10.0998
▁alcohol	-10.1001
▁peanut	-10.1007
▁agree	-10.1009
▁frequent	-10.1014
▁changes	-10.1015
▁child	-10.102
▁men	-10.1023
▁season	-10.1029
▁further	-10.1033
line	-10.1034
▁dentist	-10.1037
uarter	-10.1039
▁hash	-10.1043
▁Here	-10.1049
▁gross	-10.1053
oo	-10.106
▁scheduled	-10.1065
▁pickles	-10.1068
▁banana	-10.1069
▁pad	-10.1088
▁rock	-10.1088
▁specialty	-10.1095
▁guide	-10.1097
▁entrance	-10.1108
▁listen	-10.1111
▁advice	-10.1112
▁south	-10.1115
▁vanilla	-10.1116
▁De	-10.1121
▁whether	-10.1121
▁Pho	-10.1122
▁sprouts	-10.1124
▁guest	-10.1125
▁concept	-10.1129
▁Fried	-10.113
▁polish	-10.1132
▁members	-10.1133
▁college	-10.1135
▁decision	-10.1145
▁donut	-10.1147
▁Came	-10.1176
▁19	-10.1187
▁suggestions	-10.1204
▁apart	-10.1212
time	-10.1212
▁chair	-10.1216
ci	-10.1223
ck	-10.1231
▁overcooked	-10.1235
▁lime	-10.1253
▁/	-10.127
▁museum	-10.1271
▁Vietnamese	-10.1272
▁test	-10.1274
▁Which	-10.1289
▁shoes	-10.1291
mi	-10.1292
▁uncomfortable	-10.1295
▁$6	-10.1299
sa	-10.1343
▁John	-10.1346
▁West	-10.1347
▁words	-10.1362
▁site	-10.1363
▁o	-10.1369
dy	-10.1369
▁manner	-10.1376
▁gorgeous	-10.1379
▁allow	-10.1379
▁Anyway	-10.1392
▁rent	-10.1411
▁stylist	-10.1413
▁design	-10.1416
▁ground	-10.1418
▁fare	-10.1438
▁dough	-10.1442
▁Market	-10.1449
▁comment	-10.1451
▁His	-10.1459
▁Steak	-10.1466
▁superb	-10.1467
▁accommodate	-10.1474
Really	-10.1497
▁loaded	-10.151
▁Place	-10.1523
▁learned	-10.1524
▁Happy	-10.1531
▁pub	-10.1543
ley	-10.155
▁pita	-10.1553
▁coupon	-10.1562
▁$15	-10.1575
▁mayo	-10.1598
▁laid	-10.1609
▁mid	-10.162
ous	-10.1628
▁offering	-10.1631
that	-10.1635
▁spacious	-10.1646
▁Pete	-10.1655
pe	-10.1663
▁bathrooms	-10.1666
▁comfort	-10.1668
▁begin	-10.1668
▁booth	-10.1676
▁wonder	-10.1678
▁spread	-10.1683
▁training	-10.1685
led	-10.1694
▁equipment	-10.1696
▁tend	-10.1697
▁writing	-10.17
▁wearing	-10.1708
▁cinnamon	-10.1712
▁specific	-10.1713
▁lights	-10.172
▁Have	-10.1725
▁inviting	-10.175
ac	-10.1761
▁picky	-10.1785
▁TO	-10.1791
▁delightful	-10.1795
You	-10.1799
▁extensive	-10.18
▁pleasure	-10.1805
▁pastries	-10.1805
id	-10.1808
▁Le	-10.1808
▁perhaps	-10.1812
▁events	-10.1814
▁luck	-10.1822
▁24	-10.1824
▁slaw	-10.1826
▁biggest	-10.1834
ad	-10.185
▁Ro	-10.185
▁mustard	-10.1863
▁awhile	-10.1863
▁shame	-10.1872
▁occasion	-10.1877
▁stock	-10.1878
▁meatballs	-10.1883
▁wrapped	-10.1902
land	-10.1913
▁Chicago	-10.1929
▁include	-10.1929
▁garage	-10.1945
▁throw	-10.1947
▁against	-10.1955
▁refill	-10.196
▁oven	-10.1977
▁toasted	-10.1977
▁Green	-10.1986
▁serious	-10.1991
▁omelette	-10.1997
▁replace	-10.2002
▁spending	-10.2025
▁rental	-10.2042
▁Joe	-10.2043
can	-10.2043
30	-10.2046
▁Upon	-10.2047
our	-10.2054
▁produce	-10.2059
▁buffalo	-10.2062
▁ticket	-10.2062
▁cards	-10.2072
▁shouldn	-10.2073
▁Ha	-10.208
▁cat	-10.2083
▁desert	-10.209
▁relaxed	-10.2093
▁biscuit	-10.2098
▁parties	-10.2101
▁theater	-10.2103
▁waffles	-10.2106
▁respect	-10.2114
▁melted	-10.2122
▁results	-10.2141
20	-10.215
▁vet	-10.2162
▁Coffee	-10.2168
with	-10.2183
▁bone	-10.2186
▁syrup	-10.2188
▁Come	-10.219
▁bowls	-10.2194
▁hanging	-10.2208
▁bottles	-10.221
!!!!!	-10.2214
▁address	-10.2215
▁Center	-10.2218
▁Restaurant	-10.2221
▁constantly	-10.2229
▁Car	-10.2234
▁ourselves	-10.2236
▁trouble	-10.2236
▁locals	-10.224
▁King	-10.2246
▁towards	-10.2257
▁scene	-10.2262
▁Make	-10.2262
▁eggplant	-10.2262
▁groups	-10.2268
▁Ra	-10.2281
▁partner	-10.2282
▁followed	-10.2284
▁sea	-10.2287
▁admit	-10.2288
▁Lo	-10.2312
▁apologized	-10.2317
▁possibly	-10.2323
▁Japanese	-10.2331
Awesome	-10.2332
▁advance	-10.2332
▁refills	-10.2351
▁menus	-10.2354
▁bank	-10.2354
▁whenever	-10.236
ex	-10.2367
▁stomach	-10.2387
▁thorough	-10.2408
▁meeting	-10.2409
▁beginning	-10.2414
▁annoying	-10.2419
▁garden	-10.2425
▁$8	-10.2432
▁via	-10.2432
▁lighting	-10.244
son	-10.2445
▁Instead	-10.245
▁Pork	-10.2463
▁mi	-10.247
▁package	-10.2474
▁learn	-10.2476
▁chip	-10.2479
▁dis	-10.2479
▁wow	-10.249
nt	-10.249
!"	-10.25
▁decorated	-10.2502
!).	-10.2512
▁prime	-10.2525
▁Con	-10.2536
▁snack	-10.2536
▁Awesome	-10.2546
▁knowledge	-10.2549
▁wines	-10.2553
▁surprisingly	-10.2562
ti	-10.257
▁balance	-10.2571
▁HUGE	-10.2596
▁mussels	-10.2599
▁Sushi	-10.2599
▁gentleman	-10.2604
▁occasions	-10.2605
▁smelled	-10.2611
▁keeping	-10.2615
▁Who	-10.2619
▁impression	-10.2655
▁knowing	-10.2665
▁delish	-10.2665
▁BYOB	-10.2668
▁fully	-10.2675
▁offerings	-10.2688
???	-10.2689
▁text	-10.2694
▁aware	-10.2714
▁Benedict	-10.2714
▁temperature	-10.2714
▁businesses	-10.2718
▁tickets	-10.2722
▁pressure	-10.2723
▁hell	-10.2727
▁Too	-10.2734
J	-10.2737
les	-10.2747
▁Drinks	-10.2753
▁dive	-10.2763
▁remind	-10.2763
▁Al	-10.2767
▁Mo	-10.2774
▁mo	-10.2789
▁cancel	-10.279
▁ALL	-10.2812
▁watched	-10.2815
▁freshly	-10.2831
▁jam	-10.2835
▁Perfect	-10.2836
ate	-10.2836
▁natural	-10.2847
even	-10.2854
▁strange	-10.2854
▁sliced	-10.2858
▁yogurt	-10.2859
▁crap	-10.2859
▁en	-10.2861
▁upscale	-10.2861
▁photo	-10.2866
▁Clean	-10.2871
▁heaven	-10.2873
▁San	-10.2875
vi	-10.2879
red	-10.2892
▁base	-10.2899
bo	-10.2903
▁pair	-10.2911
As	-10.2916
▁dont	-10.2917
LY	-10.2937
Nice	-10.295
ol	-10.2951
▁onto	-10.2962
▁leftovers	-10.2962
ki	-10.2974
▁dead	-10.2978
6	-10.2982
▁90	-10.2988
▁began	-10.301
▁thoroughly	-10.3011
▁compare	-10.3014
▁final	-10.3015
▁hype	-10.3015
▁Yum	-10.302
▁planning	-10.303
▁COVID	-10.3036
▁terrific	-10.3038
▁message	-10.304
▁treats	-10.305
▁NY	-10.3052
just	-10.3055
▁oyster	-10.3058
▁Chris	-10.3059
▁al	-10.307
▁sun	-10.3072
off	-10.3072
▁queso	-10.3082
▁security	-10.3087
▁access	-10.3088
▁train	-10.31
▁Old	-10.3103
▁tortilla	-10.3107
Delicious	-10.3112
▁relax	-10.3115
ger	-10.312
▁points	-10.3125
▁mozzarella	-10.3129
▁maintenance	-10.3131
free	-10.3131
▁control	-10.3134
▁vegetable	-10.3138
▁ball	-10.3143
▁practice	-10.3151
▁tires	-10.3152
▁discovered	-10.3152
ber	-10.3155
▁indoor	-10.3168
▁$7	-10.3169
▁$12	-10.3171
ring	-10.3173
well	-10.3174
star	-10.3178
▁managed	-10.3182
▁mild	-10.3186
▁ginger	-10.3197
▁apps	-10.3206
▁Bay	-10.3212
que	-10.3213
▁warranty	-10.3214
ard	-10.3224
▁brother	-10.3231
▁spices	-10.3231
▁ravioli	-10.3231
▁Needless	-10.3241
In	-10.3261
vo	-10.3262
▁Taco	-10.3274
▁policy	-10.3275
▁listed	-10.3277
by	-10.3296
▁ring	-10.3299
ru	-10.3303
▁became	-10.3303
▁Chef	-10.3307
▁match	-10.331
▁specifically	-10.331
▁caramel	-10.3319
cu	-10.3321
▁York	-10.3328
▁tips	-10.3329
▁example	-10.3334
▁beautifully	-10.3334
▁Beef	-10.3339
tic	-10.3341
▁computer	-10.3349
day	-10.3349
▁ranch	-10.3356
made	-10.3375
▁paint	-10.3377
▁BUT	-10.3379
con	-10.3379
▁ha	-10.3385
▁Over	-10.3388
▁bomb	-10.3395
▁V	-10.3408
▁sleep	-10.3411
▁Wow	-10.3419
▁nasty	-10.3428
▁Mr	-10.3429
▁brew	-10.3431
▁flowers	-10.3433
▁relatively	-10.3434
Our	-10.3442
▁quote	-10.3444
When	-10.3456
ating	-10.3459
▁shape	-10.3463
▁appeared	-10.3464
bi	-10.3466
There	-10.3466
ized	-10.3474
▁$30	-10.3478
▁Didn	-10.3482
▁Absolutely	-10.3493
▁social	-10.3501
▁k	-10.3502
▁d	-10.3504
▁proceeded	-10.3505
▁People	-10.3511
ff	-10.3515
▁draft	-10.3515
▁presented	-10.3523
▁pineapple	-10.3524
▁happens	-10.3531
▁numerous	-10.3533
▁broke	-10.3544
▁reminded	-10.3545
▁blown	-10.3546
ance	-10.3565
▁frequently	-10.3565
▁picking	-10.3567
▁excuse	-10.3568
▁continued	-10.3572
▁yum	-10.3579
▁regularly	-10.3587
▁estimate	-10.3593
▁fluffy	-10.3599
▁blend	-10.3602
che	-10.3606
j	-10.3607
▁arrival	-10.3608
▁Customer	-10.361
▁serves	-10.3611
▁tight	-10.3615
▁Blue	-10.3617
▁lo	-10.3617
▁threw	-10.3618
▁bags	-10.3624
▁shell	-10.3627
▁worry	-10.3628
▁describe	-10.3644
▁ignored	-10.365
▁timely	-10.3655
▁lounge	-10.3656
▁tortillas	-10.3662
▁YOU	-10.3671
▁Boise	-10.3684
Absolutely	-10.3688
▁Y	-10.3701
▁Honestly	-10.3706
▁bagels	-10.3709
5	-10.3713
▁y	-10.3719
▁liquor	-10.372
▁Groupon	-10.372
▁posted	-10.372
mon	-10.3721
ho	-10.3733
▁Being	-10.3734
No	-10.3736
▁Man	-10.3737
▁lacked	-10.374
▁Probably	-10.3746
▁cups	-10.3747
▁removed	-10.3752
▁Took	-10.3765
▁mask	-10.377
▁18	-10.3774
▁organized	-10.3781
▁Did	-10.3782
▁Pretty	-10.3783
▁skip	-10.38
▁starting	-10.3812
▁Keep	-10.3816
▁blow	-10.3816
▁Sweet	-10.3816
▁Beer	-10.3828
▁till	-10.3835
▁shake	-10.3836
▁Bourbon	-10.3843
▁Crab	-10.3849
ner	-10.3849
▁unit	-10.3853
▁EVER	-10.3864
▁fry	-10.3866
▁sum	-10.3868
▁payment	-10.3883
▁THIS	-10.3883
▁opportunity	-10.389
▁membership	-10.389
▁confused	-10.3901
▁crunch	-10.3904
▁pepperoni	-10.3906
▁winter	-10.3907
▁Dan	-10.391
▁Fish	-10.3922
▁intimate	-10.3937
▁cheesy	-10.3937
▁search	-10.3941
▁SB	-10.3946
▁giant	-10.3963
▁stopping	-10.3971
▁tired	-10.3974
▁machines	-10.3975
▁directly	-10.3976
▁famous	-10.3981
▁Caesar	-10.3989
▁accept	-10.3991
▁chunks	-10.3993
ow	-10.3996
▁bc	-10.4001
▁gonna	-10.4013
ga	-10.402
▁basket	-10.4021
▁Sometimes	-10.4035
▁result	-10.404
▁concerned	-10.4045
▁Wish	-10.4056
▁Garden	-10.4057
▁Ta	-10.4058
▁annoyed	-10.4058
▁Cajun	-10.4063
▁leaves	-10.4065
▁olive	-10.4068
▁program	-10.4079
over	-10.4085
▁costs	-10.409
▁f	-10.41
▁..	-10.4101
▁balls	-10.4106
▁dad	-10.4114
di	-10.4121
▁mile	-10.4122
po	-10.4126
▁advantage	-10.4143
▁cupcakes	-10.4158
▁southern	-10.417
▁boxes	-10.4172
▁legs	-10.4172
▁Ca	-10.418
▁wants	-10.4184
▁ya	-10.4186
▁originally	-10.4216
▁create	-10.4224
▁highlight	-10.4232
lin	-10.4239
▁details	-10.4243
▁neat	-10.4252
▁traffic	-10.4255
▁blocks	-10.4263
▁anniversary	-10.4272
▁stale	-10.4272
▁played	-10.4281
▁power	-10.4286
▁vi	-10.4291
▁Pat	-10.4292
▁Mike	-10.4292
▁alright	-10.4293
▁basil	-10.4299
▁enter	-10.4309
▁dim	-10.4314
▁handed	-10.4322
9	-10.4323
▁tourist	-10.4331
▁catfish	-10.4348
▁budget	-10.4364
▁snacks	-10.4366
▁shocked	-10.4373
▁hip	-10.4375
▁ro	-10.4378
▁meant	-10.4385
▁potential	-10.4402
bar	-10.4403
▁deals	-10.4403
▁casino	-10.4407
▁reasons	-10.4408
▁random	-10.4418
▁careful	-10.4423
▁Pro	-10.4424
▁tasteless	-10.4434
8	-10.4434
7	-10.4435
▁sucks	-10.4438
▁downside	-10.4449
▁pickup	-10.4449
ng	-10.4467
▁books	-10.4481
▁Your	-10.4491
ok	-10.4492
▁PA	-10.4492
Don	-10.45
Do	-10.4508
▁saved	-10.4511
▁floors	-10.452
▁cr	-10.4521
▁contract	-10.4523
▁valet	-10.4529
▁informative	-10.4529
▁downstairs	-10.454
▁named	-10.4547
▁changing	-10.455
▁LA	-10.4557
▁seasonal	-10.4563
▁rave	-10.4569
▁Fries	-10.4575
▁row	-10.4582
▁Ask	-10.4583
▁contacted	-10.4589
▁brewery	-10.459
very	-10.4591
end	-10.4594
▁falafel	-10.4595
▁cauliflower	-10.4607
▁Black	-10.461
▁$25	-10.4612
▁damage	-10.4614
▁rep	-10.4615
▁wax	-10.4623
▁clients	-10.4623
▁act	-10.4642
▁exact	-10.4646
▁nicer	-10.4654
▁workout	-10.4658
▁present	-10.467
▁tart	-10.4673
▁truffle	-10.4676
Oh	-10.4677
▁GREAT	-10.4678
▁Dur	-10.4682
▁memorable	-10.4685
▁$50	-10.4696
▁Manager	-10.4696
▁equally	-10.471
▁signature	-10.4714
ut	-10.4716
▁rarely	-10.4716
▁melt	-10.4716
▁win	-10.4719
▁studio	-10.4722
rr	-10.4733
▁communication	-10.4736
▁himself	-10.4748
▁waiters	-10.4767
▁towels	-10.4773
▁hospital	-10.4786
▁waitresses	-10.4787
▁kinds	-10.4791
▁May	-10.4793
▁promised	-10.4794
▁$9	-10.4795
▁ex	-10.4796
▁gyro	-10.4802
ver	-10.4806
hi	-10.4806
▁obvious	-10.4809
ay	-10.4817
▁common	-10.4827
old	-10.4828
▁Ok	-10.4829
▁IN	-10.4829
▁public	-10.4833
0	-10.4833
▁toilet	-10.4834
who	-10.4839
▁espresso	-10.4851
Was	-10.4853
▁im	-10.4857
▁quaint	-10.4861
▁terms	-10.4861
▁breast	-10.4867
▁sh	-10.4872
.95	-10.4875
ny	-10.4878
▁appointments	-10.4898
▁bonus	-10.4901
▁ensure	-10.4901
▁roof	-10.4902
▁topping	-10.4903
▁soups	-10.491
▁chop	-10.4915
▁hubby	-10.4919
▁correctly	-10.4931
▁report	-10.4948
▁sounds	-10.4954
▁bo	-10.4957
▁corporate	-10.497
ka	-10.4972
ey	-10.4981
▁shut	-10.4982
▁held	-10.4984
▁organic	-10.4995
ned	-10.5001
▁showing	-10.5007
▁cheddar	-10.5011
▁Price	-10.504
▁welcomed	-10.5043
▁complex	-10.5046
▁Na	-10.5049
▁dressed	-10.5053
▁drunk	-10.5057
▁jalape	-10.5064
▁mani	-10.5075
▁animals	-10.5075
▁Second	-10.5077
▁Breakfast	-10.5086
▁tag	-10.5088
▁sounded	-10.5094
▁ta	-10.5106
▁State	-10.5106
▁caring	-10.5112
▁chorizo	-10.5116
▁count	-10.5117
▁shit	-10.512
ft	-10.5121
▁poorly	-10.5135
▁Take	-10.5146
▁fianc	-10.5151
▁flavored	-10.5152
▁replacement	-10.5154
▁omelet	-10.5154
▁yeah	-10.5162
▁current	-10.5177
▁dried	-10.5179
▁caught	-10.5181
▁chat	-10.5183
town	-10.5184
▁court	-10.5185
▁Home	-10.519
▁Many	-10.519
▁hung	-10.5191
▁colors	-10.5198
▁East	-10.5214
ag	-10.5215
gu	-10.5217
style	-10.5218
▁buns	-10.5221
▁cabbage	-10.5223
▁adults	-10.5225
▁technician	-10.5226
▁blood	-10.5228
▁booths	-10.5228
▁didnt	-10.5231
▁hardly	-10.5236
▁everyday	-10.5253
▁fingers	-10.5255
▁holiday	-10.5256
▁celebrate	-10.5262
▁Apparently	-10.5267
lu	-10.5275
▁$100	-10.5279
▁thai	-10.5282
▁Long	-10.529
▁gelato	-10.5294
ding	-10.5296
▁cilantro	-10.5302
bu	-10.5308
▁GO	-10.5314
▁English	-10.5318
▁inspection	-10.5319
For	-10.5328
▁somehow	-10.5332
▁tad	-10.5339
▁Atmosphere	-10.5341
▁teeth	-10.5355
don	-10.5356
ping	-10.536
Ordered	-10.5368
ew	-10.5371
▁Fe	-10.5379
mer	-10.5379
▁repeat	-10.538
▁masks	-10.5384
▁inexpensive	-10.5384
▁1.	-10.5386
▁includes	-10.5391
▁hint	-10.5403
she	-10.5407
▁apology	-10.5409
▁custom	-10.5422
▁carpet	-10.5423
▁0	-10.5431
▁impossible	-10.5439
▁quesadilla	-10.5439
▁claim	-10.5442
▁More	-10.5455
▁pi	-10.5467
▁romantic	-10.5469
▁steamed	-10.547
ning	-10.5481
▁ketchup	-10.5481
oh	-10.5484
▁installed	-10.5485
▁dined	-10.5486
▁pointed	-10.5489
ang	-10.5497
▁track	-10.5501
king	-10.5507
▁Sorry	-10.5507
▁satisfying	-10.551
▁Pi	-10.5514
▁hurt	-10.5519
ise	-10.5523
▁initial	-10.5524
der	-10.5525
▁sticks	-10.5528
▁pack	-10.5535
ably	-10.5535
▁views	-10.5545
▁apologize	-10.5546
ina	-10.5547
▁age	-10.5547
▁display	-10.5552
▁Ba	-10.5554
▁sharing	-10.5555
▁yellow	-10.5555
▁required	-10.5563
ster	-10.5564
▁Roll	-10.5567
▁sticky	-10.557
▁energy	-10.5573
▁among	-10.5576
▁complained	-10.5579
▁scoop	-10.5589
▁16	-10.5592
▁philly	-10.5594
back	-10.5608
▁quarter	-10.5614
Service	-10.5618
med	-10.562
▁boba	-10.5636
tch	-10.5637
▁prepare	-10.5645
▁batter	-10.5647
▁Luckily	-10.5647
sta	-10.5648
▁NYC	-10.5649
▁awkward	-10.5654
Well	-10.5656
what	-10.5659
ped	-10.5663
▁g	-10.5663
▁Di	-10.5672
ip	-10.568
▁trendy	-10.5681
▁necessary	-10.5685
▁!!	-10.5687
▁improve	-10.5689
▁consistency	-10.5697
▁handled	-10.5701
▁pancake	-10.5707
▁cucumber	-10.5709
▁enchiladas	-10.5714
▁God	-10.5724
za	-10.5727
▁Bloody	-10.5729
▁remembered	-10.573
▁tells	-10.5734
▁AC	-10.5734
▁Free	-10.574
▁page	-10.5745
▁Especially	-10.5753
▁remove	-10.5758
▁burritos	-10.5763
▁smoothie	-10.5768
▁lit	-10.5779
▁build	-10.578
▁$	-10.5783
▁sampler	-10.5787
▁locally	-10.5791
▁Such	-10.5792
ue	-10.5803
▁nobody	-10.5807
▁ruined	-10.581
▁pound	-10.5815
▁familiar	-10.5816
▁GOOD	-10.5816
▁headed	-10.5825
▁written	-10.5839
▁Otherwise	-10.5848
ud	-10.5864
wood	-10.5867
▁pink	-10.5877
▁messed	-10.5878
▁comfy	-10.5879
▁Texas	-10.5893
▁dream	-10.5894
▁Sha	-10.5895
▁Hill	-10.59
▁IT	-10.5902
iness	-10.5903
▁comp	-10.5916
▁grabbed	-10.5918
chi	-10.5919
▁Pad	-10.5922
▁eventually	-10.5924
▁attempt	-10.5927
▁tempura	-10.5937
use	-10.5941
▁anytime	-10.5942
▁bourbon	-10.5943
▁keeps	-10.5952
▁period	-10.5956
▁twist	-10.5962
▁Ho	-10.5967
▁nervous	-10.5969
▁hotels	-10.597
▁adding	-10.5973
▁Indianapolis	-10.5975
▁fridge	-10.5982
▁container	-10.5984
▁Fast	-10.5986
▁mail	-10.5987
▁hearing	-10.6004
▁stage	-10.6004
▁standards	-10.6005
▁repairs	-10.6011
▁grouper	-10.6012
▁Ave	-10.6019
▁charges	-10.6021
▁cheeseburger	-10.6023
▁pickled	-10.6028
ery	-10.6033
▁surgery	-10.6033
qui	-10.6036
tro	-10.6039
▁updated	-10.6039
▁charming	-10.6045
▁liking	-10.6046
▁cuts	-10.6047
▁beverage	-10.6048
▁PM	-10.6049
▁pastry	-10.605
▁Grill	-10.605
▁selling	-10.6056
▁protein	-10.6059
▁overwhelming	-10.6061
fish	-10.6066
▁feed	-10.6071
▁focus	-10.6073
▁deserves	-10.6075
▁Covid	-10.6085
good	-10.6088
▁Star	-10.6089
▁Hotel	-10.6093
▁mis	-10.6094
▁assured	-10.6095
▁alternative	-10.6097
▁happier	-10.6097
▁suppose	-10.6102
▁pandemic	-10.6118
▁secret	-10.6119
▁concerns	-10.6125
▁Room	-10.6131
▁families	-10.6136
ight	-10.6143
▁pies	-10.6144
▁tub	-10.6149
▁pour	-10.6153
▁crepe	-10.6153
▁signed	-10.6159
▁Its	-10.616
▁understanding	-10.6161
▁gr	-10.6168
▁undercooked	-10.617
▁fans	-10.6171
▁greet	-10.6171
▁exam	-10.6171
▁tenders	-10.6179
▁assume	-10.618
▁Small	-10.6182
▁du	-10.6189
▁law	-10.6199
▁ceiling	-10.62
▁signs	-10.6202
▁switch	-10.6211
▁adult	-10.6216
▁sp	-10.6217
ig	-10.622
▁shredded	-10.6236
▁thrilled	-10.6236
▁beds	-10.6243
▁previously	-10.6243
▁Sam	-10.6245
ded	-10.6247
ris	-10.6248
▁king	-10.6248
▁easier	-10.6248
▁samples	-10.6248
▁grease	-10.6254
▁smoking	-10.6254
▁Chocolate	-10.6276
▁currently	-10.6281
▁neither	-10.6281
▁diners	-10.6283
▁bang	-10.6293
▁Bread	-10.6295
▁tooth	-10.6297
▁lose	-10.6297
25	-10.6299
▁snow	-10.6299
▁mu	-10.6304
▁hasn	-10.6306
▁explaining	-10.6314
▁lie	-10.6317
▁interest	-10.6317
▁traveling	-10.6318
Always	-10.6318
▁patty	-10.6321
▁completed	-10.633
▁exception	-10.6344
▁hurry	-10.6347
▁proper	-10.6349
den	-10.6354
▁boat	-10.6366
▁client	-10.6387
▁di	-10.6388
▁pesto	-10.6394
▁hire	-10.64
▁Special	-10.6403
▁rain	-10.6413
some	-10.6415
▁da	-10.6421
▁minor	-10.6422
▁popcorn	-10.6434
▁desired	-10.6436
▁massive	-10.6444
▁Mar	-10.6448
▁pretzel	-10.6462
▁60	-10.6466
▁cornbread	-10.6468
▁cupcake	-10.6469
▁promise	-10.6479
▁beverages	-10.6485
▁staple	-10.6489
▁names	-10.649
down	-10.6505
▁stellar	-10.6508
▁Seem	-10.6508
▁Dog	-10.651
▁preferred	-10.6529
ect	-10.6531
see	-10.6544
▁Despite	-10.6546
eat	-10.6548
▁parm	-10.655
▁human	-10.6552
▁Looking	-10.6558
▁tax	-10.6561
▁info	-10.6567
ins	-10.6568
▁Plenty	-10.6575
▁plentiful	-10.6575
▁naan	-10.6576
Been	-10.6582
▁challenge	-10.6582
▁vodka	-10.6582
▁deserve	-10.6591
ler	-10.6592
▁mark	-10.6595
▁napkins	-10.6597
▁Give	-10.6598
▁delight	-10.6598
ja	-10.6601
▁14	-10.6609
▁failed	-10.661
pi	-10.6614
▁leg	-10.662
▁jewelry	-10.6623
▁paired	-10.6626
uff	-10.6632
▁ample	-10.6648
▁char	-10.6651
▁blast	-10.6654
▁condition	-10.6665
▁candy	-10.6665
▁individual	-10.667
▁chopped	-10.6685
▁medical	-10.6686
▁US	-10.6689
▁asparagus	-10.6692
▁$40	-10.6698
▁cap	-10.67
▁tots	-10.6704
▁tomorrow	-10.6706
▁weekly	-10.6715
▁suggestion	-10.6719
▁risotto	-10.6733
▁waitstaff	-10.6735
▁river	-10.674
▁Perhaps	-10.6742
ai	-10.6748
▁Ga	-10.675
▁noisy	-10.6754
▁code	-10.6758
▁soy	-10.676
▁restroom	-10.6761
▁Pa	-10.6761
▁layout	-10.6768
▁Tea	-10.6769
▁Vi	-10.6769
▁Sat	-10.6779
em	-10.6779
top	-10.6784
ative	-10.6789
let	-10.6792
▁classy	-10.6795
▁fountain	-10.6795
▁vinegar	-10.6795
▁ca	-10.6799
▁Before	-10.6801
▁hipster	-10.6803
▁receptionist	-10.6803
▁TVs	-10.6803
▁Having	-10.6806
▁Tried	-10.6807
▁rolled	-10.6808
▁students	-10.6822
▁boys	-10.6822
▁Worth	-10.6827
▁dealing	-10.6828
▁IPA	-10.6832
▁flatbread	-10.6838
▁hopefully	-10.6843
▁blueberry	-10.6845
▁flavorless	-10.6851
▁companies	-10.6851
ino	-10.6855
ana	-10.6861
▁buttery	-10.6864
▁wise	-10.6864
right	-10.6864
▁olives	-10.6866
▁skills	-10.6866
▁form	-10.6868
▁convenience	-10.6874
oz	-10.6874
▁Order	-10.6876
light	-10.6881
▁depending	-10.6884
▁initially	-10.6886
food	-10.6886
ice	-10.6893
▁bisque	-10.6893
▁smells	-10.6907
▁Won	-10.6914
▁coleslaw	-10.6914
▁mad	-10.6928
sp	-10.6934
▁female	-10.6935
ap	-10.6937
▁spaghetti	-10.6943
there	-10.6947
ear	-10.6951
▁gotta	-10.6959
▁responded	-10.6967
ita	-10.6974
▁Bell	-10.698
▁unlike	-10.6983
▁clothing	-10.6989
▁lemonade	-10.7007
▁entered	-10.7007
▁Out	-10.7012
▁beignets	-10.7022
▁cutting	-10.7024
▁Li	-10.7026
ten	-10.704
▁sangria	-10.7042
▁deck	-10.7043
▁Tom	-10.7046
▁reach	-10.7051
▁industry	-10.707
▁weekday	-10.707
▁bubble	-10.7073
fa	-10.7078
▁stumbled	-10.708
▁stocked	-10.7083
▁chowder	-10.7085
0.00	-10.7085
▁Square	-10.7099
▁Bo	-10.71
▁:	-10.7102
▁ease	-10.7116
▁heading	-10.7122
▁grand	-10.7124
▁worried	-10.7128
▁sweetness	-10.7132
▁Inn	-10.714
▁speed	-10.7142
▁calm	-10.7143
▁hospitality	-10.715
▁chefs	-10.7157
▁Though	-10.7157
▁auto	-10.7158
▁Spanish	-10.7164
rk	-10.7166
▁finger	-10.7167
▁Ar	-10.7167
▁upgrade	-10.7169
▁tattoo	-10.7176
▁boring	-10.7179
▁cares	-10.7184
▁complaining	-10.7184
▁3.5	-10.7187
ER	-10.7188
▁bloody	-10.7201
▁tv	-10.7213
▁personality	-10.7216
▁speaking	-10.7244
ep	-10.7248
▁voice	-10.725
▁shuttle	-10.7251
▁scratch	-10.7251
▁carrots	-10.7255
▁besides	-10.7257
▁Th	-10.7258
▁Soup	-10.7258
▁whipped	-10.7258
▁fav	-10.7261
▁Sandwich	-10.7277
▁whiskey	-10.7287
▁IS	-10.7288
▁meh	-10.7288
RE	-10.7291
ator	-10.7291
▁west	-10.7293
▁Jack	-10.7294
▁Called	-10.7299
▁cherry	-10.7302
▁rough	-10.7308
▁quoted	-10.7309
▁pumpkin	-10.731
▁honor	-10.7312
▁adorable	-10.7316
▁worker	-10.7328
▁concern	-10.7328
▁judge	-10.7344
fe	-10.7345
LE	-10.7352
▁Fun	-10.7356
▁flag	-10.7365
low	-10.7366
▁starts	-10.7368
▁Three	-10.7375
▁regulars	-10.7375
▁planned	-10.7376
▁weak	-10.7379
▁salted	-10.7385
▁Apple	-10.7393
75	-10.7399
▁lease	-10.7405
▁fees	-10.7408
▁Cha	-10.7408
▁sink	-10.7409
▁closest	-10.7409
▁god	-10.7414
ron	-10.7416
▁resort	-10.742
ette	-10.7423
▁genuinely	-10.7424
uick	-10.7428
▁concert	-10.7456
▁gnocchi	-10.7456
▁charm	-10.7458
Worst	-10.7459
▁)	-10.7463
▁research	-10.7467
▁dresses	-10.7472
board	-10.7475
▁charging	-10.7486
▁attached	-10.7488
▁teas	-10.7489
▁diet	-10.7489
▁Ben	-10.7492
▁described	-10.7493
▁cleanliness	-10.7501
▁noon	-10.7503
▁arm	-10.7505
▁Jersey	-10.7516
▁barbecue	-10.7516
▁80	-10.7526
▁octopus	-10.7531
▁blackened	-10.7532
ence	-10.7548
▁Du	-10.7552
▁mint	-10.7552
▁sliders	-10.7553
uck	-10.7558
car	-10.7561
▁Cons	-10.7562
▁Main	-10.7564
▁Taste	-10.7568
▁aside	-10.757
▁wild	-10.7576
40	-10.7579
gg	-10.758
yes	-10.7582
▁creme	-10.7583
▁Ka	-10.7585
▁encountered	-10.7589
▁install	-10.7592
▁safety	-10.7593
IN	-10.7595
▁Wine	-10.7598
▁lives	-10.76
▁jambalaya	-10.7606
▁listened	-10.7607
▁square	-10.7614
▁push	-10.7615
▁OMG	-10.7616
▁rack	-10.763
▁martini	-10.7632
▁knowledgable	-10.7636
▁courses	-10.7641
fi	-10.7645
om	-10.7649
▁seconds	-10.7656
▁wrote	-10.7659
ging	-10.7667
▁unable	-10.7675
▁Usually	-10.7688
▁grateful	-10.7689
gi	-10.7696
ked	-10.7707
cha	-10.771
ps	-10.7712
▁North	-10.7723
▁21	-10.7724
boy	-10.7728
▁Hour	-10.7738
▁White	-10.7738
▁bell	-10.7741
▁13	-10.7746
ize	-10.7747
ub	-10.7748
▁Clearwater	-10.775
▁father	-10.7751
▁entertainment	-10.7758
▁north	-10.7764
▁impeccable	-10.7773
▁root	-10.7778
▁r	-10.7786
▁cell	-10.779
▁pedi	-10.7795
▁respond	-10.7796
▁saving	-10.7797
▁hill	-10.7801
EN	-10.7806
▁emergency	-10.7806
▁punch	-10.7809
▁shots	-10.7809
10	-10.7811
▁crack	-10.7811
▁stone	-10.7812
au	-10.782
▁lock	-10.7823
▁record	-10.7824
▁Sure	-10.7825
▁Hope	-10.7825
▁collection	-10.7829
▁Save	-10.7831
▁Little	-10.7832
ab	-10.7834
▁turns	-10.7834
▁wing	-10.7835
▁pride	-10.7836
ction	-10.7838
▁cross	-10.7844
▁miso	-10.7848
▁almond	-10.7849
▁passing	-10.7849
▁edible	-10.785
▁importantly	-10.785
▁veal	-10.7851
▁Salmon	-10.7858
▁created	-10.7864
▁path	-10.7865
▁ends	-10.7868
▁warned	-10.7871
▁yoga	-10.7874
▁Bi	-10.7878
▁:(	-10.7882
▁July	-10.7885
▁regarding	-10.7893
▁Pie	-10.7897
▁Made	-10.7898
▁hassle	-10.7907
▁bothered	-10.7914
▁sooo	-10.7928
▁mushy	-10.793
▁prescription	-10.7936
▁searching	-10.7937
▁leak	-10.794
▁hopes	-10.7947
▁em	-10.7951
▁lazy	-10.7952
zz	-10.7952
▁About	-10.7955
▁cab	-10.7962
▁explanation	-10.7967
▁ga	-10.7969
▁Spicy	-10.797
▁Stay	-10.7974
rt	-10.7976
▁runs	-10.7976
▁Cool	-10.7976
▁video	-10.7982
▁minimum	-10.799
▁sadly	-10.7995
hot	-10.7997
▁pit	-10.8
▁croissant	-10.8006
▁German	-10.8007
▁sight	-10.801
OR	-10.8017
iest	-10.8022
ze	-10.8029
▁facial	-10.803
▁requests	-10.8033
▁Sa	-10.8036
nk	-10.8044
▁bitter	-10.8045
▁Beach	-10.8046
par	-10.8053
▁Look	-10.806
room	-10.8061
▁Southern	-10.8061
AN	-10.8068
▁hey	-10.8068
▁ma	-10.8071
▁handful	-10.8079
▁afterwards	-10.808
▁dental	-10.8085
▁overwhelmed	-10.8087
try	-10.8095
▁poke	-10.8098
▁entering	-10.8101
▁Hopefully	-10.8109
▁Uber	-10.8117
ville	-10.812
▁balanced	-10.8123
▁STL	-10.8128
▁nuts	-10.813
▁artist	-10.813
AL	-10.8133
▁student	-10.8134
▁gal	-10.8139
▁Cake	-10.8142
▁se	-10.8149
her	-10.8152
▁microwave	-10.8157
▁risk	-10.8164
▁fake	-10.8166
▁clam	-10.8168
▁jerk	-10.8173
▁east	-10.818
▁appropriate	-10.8183
men	-10.8186
▁lover	-10.819
▁Wait	-10.8209
▁fork	-10.8212
▁grew	-10.8212
▁Tacos	-10.8213
▁hoagie	-10.8215
▁35	-10.8215
▁soul	-10.8216
▁frustrating	-10.822
▁sesame	-10.8236
▁mimosas	-10.8238
lly	-10.8248
▁Shop	-10.8249
▁built	-10.8252
▁internet	-10.8252
▁winner	-10.8253
▁brick	-10.8253
▁Mediterranean	-10.8262
▁Beautiful	-10.8275
▁purchasing	-10.8276
▁wifi	-10.8293
▁recall	-10.8293
cing	-10.8293
▁thrown	-10.8298
▁10/10	-10.8311
▁weight	-10.8316
▁lightly	-10.8318
▁professionalism	-10.8318
▁deposit	-10.8318
▁afraid	-10.8325
▁happily	-10.8325
▁appears	-10.8329
▁parked	-10.8334
▁ho	-10.8336
▁arriving	-10.8349
▁theme	-10.8351
▁destination	-10.8357
▁FOR	-10.8358
mb	-10.8366
▁messy	-10.8373
▁Rice	-10.8376
▁jazz	-10.8376
▁Ne	-10.8381
▁Menu	-10.8383
▁print	-10.8398
▁REALLY	-10.8398
▁guac	-10.8399
▁comments	-10.8403
▁settled	-10.8406
▁sc	-10.841
▁stress	-10.8413
▁soooo	-10.8427
▁paperwork	-10.8431
▁rocks	-10.8433
▁approach	-10.8434
▁happening	-10.8437
▁!!!	-10.8439
▁character	-10.8439
▁unacceptable	-10.8439
▁Sadly	-10.8448
▁kale	-10.8449
▁oily	-10.8454
▁stupid	-10.8455
▁dancing	-10.8455
▁inedible	-10.8455
▁slight	-10.8458
▁lead	-10.8468
▁Where	-10.8472
Dr	-10.8477
▁champagne	-10.848
Let	-10.8482
▁iron	-10.8487
▁cheesesteaks	-10.8494
▁Kitchen	-10.8496
▁cramped	-10.8496
▁explore	-10.8496
▁knock	-10.8506
▁Five	-10.8513
▁fellow	-10.8514
▁brings	-10.8514
▁Right	-10.8514
cho	-10.8519
▁Enjoy	-10.8521
▁sashimi	-10.8521
▁background	-10.8527
▁Parmesan	-10.8529
▁silverware	-10.8538
bb	-10.8544
▁patients	-10.8552
▁Un	-10.8554
▁gourmet	-10.8558
▁brews	-10.8569
▁Da	-10.857
▁Chipotle	-10.8579
▁AM	-10.8579
▁hall	-10.8585
▁doctors	-10.8586
tra	-10.859
▁shortly	-10.8595
▁cancelled	-10.8596
▁manage	-10.8597
▁legit	-10.8599
▁reviewers	-10.8599
ible	-10.8604
great	-10.8604
▁ONE	-10.8605
▁Eggs	-10.8607
Ok	-10.8611
▁hibachi	-10.8612
▁hamburger	-10.8613
▁browns	-10.8614
▁starving	-10.8615
▁crepes	-10.8624
▁hearty	-10.8625
TE	-10.8635
▁steakhouse	-10.8637
especially	-10.8638
ble	-10.8641
▁tapas	-10.8641
▁chipotle	-10.8654
PM	-10.8672
▁reserved	-10.8672
▁2)	-10.8673
00	-10.8673
ea	-10.8674
▁Franklin	-10.868
su	-10.8686
▁trade	-10.8687
▁High	-10.8688
▁Lobster	-10.8688
▁comparison	-10.8688
▁ONLY	-10.8688
▁garbage	-10.8696
▁gate	-10.8698
▁considered	-10.8702
kin	-10.8709
▁oz	-10.8711
▁yard	-10.8712
▁breaded	-10.8714
▁model	-10.8726
▁barber	-10.8734
▁bath	-10.8738
▁Club	-10.8738
▁ME	-10.8738
Horrible	-10.8739
▁former	-10.8744
▁fajitas	-10.8745
▁providing	-10.8747
▁shirt	-10.8748
15	-10.8754
tz	-10.8759
▁herself	-10.876
▁cooks	-10.8767
▁MY	-10.8768
▁clams	-10.8769
▁dude	-10.8776
▁Boy	-10.8777
▁WOW	-10.8779
▁construction	-10.8781
▁tab	-10.8786
▁Irish	-10.8789
▁mainly	-10.8792
▁fashion	-10.8803
▁rip	-10.8811
▁Mom	-10.8812
▁See	-10.882
▁project	-10.8827
▁improved	-10.8827
▁asada	-10.8829
▁farm	-10.883
▁unusual	-10.883
aw	-10.8832
▁limit	-10.8837
more	-10.8837
▁THAT	-10.884
▁battery	-10.8841
▁advertised	-10.8849
▁sa	-10.8854
▁$11	-10.8858
▁stew	-10.8858
▁screw	-10.8863
▁salesman	-10.8869
OK	-10.8873
Super	-10.8876
▁opt	-10.8876
▁carrot	-10.8878
▁coworkers	-10.8882
▁tho	-10.8884
ions	-10.889
▁Ri	-10.8892
▁quantity	-10.8909
▁replied	-10.8909
▁coupons	-10.8911
▁Server	-10.8916
▁clue	-10.8917
......	-10.8922
▁action	-10.8925
▁pace	-10.8936
ever	-10.8941
▁HERE	-10.8944
▁temp	-10.8947
▁shift	-10.8952
▁involved	-10.8955
▁Waitress	-10.896
▁neck	-10.8969
▁cart	-10.8974
ld	-10.8983
▁plants	-10.8984
▁meatball	-10.8986
▁acceptable	-10.8988
▁Easy	-10.8992
▁tank	-10.8993
▁DJ	-10.8996
▁....	-10.9002
▁penny	-10.9004
▁Bu	-10.9008
▁courtyard	-10.9012
▁tall	-10.9016
▁pickle	-10.9016
gra	-10.9021
▁Sauce	-10.9023
▁wraps	-10.9027
▁description	-10.9027
uring	-10.9027
▁David	-10.903
▁su	-10.9043
▁lasagna	-10.9047
▁covid	-10.9048
ada	-10.9049
law	-10.9055
▁procedure	-10.9062
▁exciting	-10.9073
ya	-10.9076
▁tree	-10.908
▁dealer	-10.9081
▁reliable	-10.9082
ach	-10.9084
▁earth	-10.9089
▁assortment	-10.9091
AM	-10.9092
▁license	-10.9099
▁filthy	-10.9109
Fantastic	-10.911
▁$14	-10.9127
▁Gra	-10.9134
▁confirm	-10.9137
io	-10.9141
▁afford	-10.9142
▁x	-10.9143
▁wasted	-10.9143
▁reception	-10.9152
▁River	-10.9152
▁forced	-10.9154
▁buck	-10.9163
friendly	-10.9164
ph	-10.9166
▁Dinner	-10.9167
▁ways	-10.9169
▁accident	-10.9172
▁Owner	-10.9175
▁improvement	-10.9179
▁grow	-10.9179
▁golf	-10.9181
▁1)	-10.9182
sha	-10.9193
▁Sea	-10.9208
▁attended	-10.9214
▁DELICIOUS	-10.9226
▁Michael	-10.9234
ving	-10.9236
▁kill	-10.9238
▁responsive	-10.924
▁sl	-10.9244
▁joints	-10.9246
▁Edmonton	-10.9249
maybe	-10.9252
▁Way	-10.9256
▁metal	-10.9258
▁pocket	-10.9258
▁mar	-10.9259
▁fatty	-10.926
fully	-10.9266
roll	-10.9266
To	-10.9267
bs	-10.9271
▁pile	-10.9277
▁entertaining	-10.9279
▁Better	-10.9281
▁Gu	-10.9282
▁rated	-10.9286
lic	-10.9294
ade	-10.9298
▁pump	-10.9301
▁football	-10.9303
▁semi	-10.9307
▁Mu	-10.9307
▁wheat	-10.9312
▁expert	-10.9314
▁carne	-10.9315
gar	-10.9318
▁crappy	-10.9321
▁acknowledged	-10.9325
▁Bowl	-10.9325
▁rum	-10.9327
▁General	-10.9327
▁practically	-10.933
▁MUST	-10.9338
ks	-10.9341
▁levels	-10.9342
SS	-10.9343
▁trips	-10.935
▁Huge	-10.9355
LL	-10.9358
after	-10.9359
▁tray	-10.9363
▁Been	-10.9363
▁feta	-10.9366
▁recipe	-10.9367
▁Large	-10.9371
▁confusing	-10.9374
get	-10.9381
Loved	-10.9381
▁Su	-10.9382
▁kidding	-10.9402
▁McDonald	-10.9404
▁plans	-10.9405
▁watery	-10.9407
▁talented	-10.9407
▁icing	-10.9408
▁tail	-10.9409
▁error	-10.941
▁hesitate	-10.941
▁smart	-10.9411
▁Tony	-10.9413
▁Lastly	-10.9415
▁stories	-10.9419
▁volume	-10.9419
▁AT	-10.942
▁confirmed	-10.9422
▁crowds	-10.9427
▁Grand	-10.9428
▁loose	-10.9431
cent	-10.9436
▁strips	-10.9439
port	-10.9439
▁provides	-10.944
▁acted	-10.9456
eg	-10.9456
▁falling	-10.9457
▁Hi	-10.946
▁tourists	-10.946
▁bi	-10.9463
▁Mon	-10.9464
▁Wonderful	-10.9467
▁growing	-10.9477
▁magic	-10.948
000	-10.9481
▁yelling	-10.9481
▁Bad	-10.9481
ious	-10.9482
▁appetite	-10.9483
▁j	-10.9483
▁cared	-10.9485
▁zoo	-10.9486
▁Bottom	-10.9486
▁boiled	-10.9487
▁peas	-10.9488
▁steps	-10.9491
▁chatting	-10.9494
▁booking	-10.9501
▁ricotta	-10.9501
▁stairs	-10.9501
▁minimal	-10.9503
These	-10.9503
▁custard	-10.951
▁Bacon	-10.952
ug	-10.9524
▁exterior	-10.9529
▁faster	-10.9531
▁express	-10.9531
▁entirely	-10.9536
▁OF	-10.9538
nic	-10.9539
hu	-10.9539
cheese	-10.9542
▁reached	-10.9543
▁Cu	-10.9545
▁hooked	-10.9547
▁picnic	-10.9547
▁inconvenience	-10.9551
▁trained	-10.9551
▁artichoke	-10.9551
although	-10.9553
▁rid	-10.9559
▁2-3	-10.9559
▁Whole	-10.9559
▁RE	-10.956
▁couch	-10.9563
▁Rock	-10.9564
▁ridiculously	-10.9573
▁jar	-10.9582
▁appear	-10.9586
▁breading	-10.959
▁sip	-10.9591
▁divine	-10.9593
▁basis	-10.9593
▁bay	-10.9597
▁Any	-10.9599
▁maintained	-10.9605
▁amazingly	-10.9605
▁appt	-10.961
▁bf	-10.9613
▁juices	-10.9619
▁receiving	-10.962
Re	-10.9621
owner	-10.9626
▁sake	-10.963
ak	-10.9632
▁Los	-10.9633
▁advised	-10.9634
▁burn	-10.9644
IT	-10.9644
▁poboy	-10.9644
▁Art	-10.9646
▁Mother	-10.9649
ren	-10.965
▁pup	-10.9651
▁strawberries	-10.9657
▁Ice	-10.9661
▁Top	-10.9662
▁highlights	-10.9664
▁eyebrows	-10.9665
▁loyal	-10.9666
▁fly	-10.9669
▁neighbors	-10.9675
▁stir	-10.9677
▁Either	-10.9685
▁aioli	-10.9685
▁Char	-10.9687
ky	-10.9694
▁forgotten	-10.9695
▁entr	-10.97
Me	-10.9702
▁Totally	-10.9706
▁vs	-10.9706
▁ear	-10.971
▁elevator	-10.971
▁sand	-10.9724
▁coast	-10.9726
▁Jo	-10.9727
gan	-10.973
▁suit	-10.9735
▁eater	-10.9736
▁powder	-10.9739
▁$13	-10.9739
▁steep	-10.9741
▁exchange	-10.9741
▁smoothies	-10.9741
▁shoulder	-10.9742
rate	-10.9744
▁salons	-10.9744
▁wished	-10.9747
▁parmesan	-10.975
▁mechanic	-10.975
▁downhill	-10.9752
▁blame	-10.9754
▁Spa	-10.9757
▁lovers	-10.9762
ces	-10.9767
▁Add	-10.9772
▁veg	-10.9772
ero	-10.9776
▁frame	-10.978
▁chi	-10.9782
▁understood	-10.9797
▁layer	-10.9798
AR	-10.9805
▁balcony	-10.9806
▁finishing	-10.9809
ations	-10.9812
▁Lol	-10.9814
▁squash	-10.9816
▁stretch	-10.9816
Ma	-10.9816
▁vendors	-10.9819
▁tone	-10.982
▁tu	-10.9822
▁Must	-10.9823
▁mexican	-10.9825
ick	-10.9835
cor	-10.9837
▁laugh	-10.9838
▁genuine	-10.9838
▁blonde	-10.984
▁session	-10.9843
▁tucked	-10.9844
Have	-10.9849
▁spoon	-10.9852
▁stands	-10.9858
▁spiced	-10.9865
▁Fa	-10.987
▁apologetic	-10.9872
▁eats	-10.9873
▁confident	-10.9882
▁pa	-10.9887
▁fear	-10.9892
▁trees	-10.9894
▁Glad	-10.9895
▁wanna	-10.9901
ory	-10.9902
▁peach	-10.9909
▁ratio	-10.9911
▁starter	-10.9911
▁el	-10.9922
▁washed	-10.9925
▁Family	-10.9926
▁l	-10.9926
▁cleaner	-10.9929
▁animal	-10.9929
▁indeed	-10.993
▁referred	-10.993
▁stating	-10.9932
▁nowhere	-10.9933
▁grown	-10.9944
▁competition	-10.9948
▁ribeye	-10.9949
▁gold	-10.9956
▁purpose	-10.9956
▁monthly	-10.9956
▁buds	-10.9957
▁eager	-10.9958
▁drain	-10.9958
▁select	-10.9959
▁;)	-10.996
▁cooler	-10.9965
▁End	-10.9969
▁insisted	-10.9972
▁muffin	-10.9975
▁v	-10.9976
▁si	-10.9977
▁snob	-10.998
▁shoot	-10.9985
hr	-10.9985
▁rules	-10.9985
▁darn	-10.9987
▁retail	-10.9987
▁majority	-10.9988
▁length	-11.0008
▁Lunch	-11.0013
▁pig	-11.0014
▁amazed	-11.0029
On	-11.0031
▁beware	-11.0033
45	-11.0037
▁approached	-11.0039
ko	-11.0043
▁rub	-11.0045
▁BLT	-11.005
▁Sp	-11.0054
▁sampled	-11.0056
▁younger	-11.0063
▁benefit	-11.0065
▁raved	-11.0072
▁Wings	-11.0073
▁helps	-11.0074
▁skeptical	-11.0074
▁subpar	-11.0074
▁Buffalo	-11.0075
▁Grilled	-11.0079
▁inch	-11.0081
ters	-11.0082
▁amenities	-11.0083
▁caused	-11.009
▁burned	-11.0095
▁dirt	-11.0095
▁ship	-11.0096
▁shade	-11.0097
▁Tonight	-11.0111
▁Seafood	-11.0112
▁peak	-11.0113
▁Se	-11.0116
▁introduced	-11.0118
▁listening	-11.0121
▁compliment	-11.0121
▁Toast	-11.0122
▁exceeded	-11.0126
▁coat	-11.0126
▁escape	-11.0131
▁dryer	-11.0132
▁Fi	-11.0135
ial	-11.0137
▁boot	-11.0139
tu	-11.014
▁satisfy	-11.0147
▁direction	-11.0148
▁Those	-11.0151
▁popped	-11.0162
▁warning	-11.0167
▁factor	-11.0167
Can	-11.017
lan	-11.0171
▁August	-11.0172
▁AWESOME	-11.0173
▁exit	-11.0174
▁raised	-11.0176
!),	-11.018
▁suite	-11.0184
▁greatest	-11.0187
bor	-11.0188
▁operation	-11.0189
▁assumed	-11.0192
▁refuse	-11.0194
▁17	-11.0195
▁poured	-11.0198
▁cider	-11.0199
row	-11.0199
▁Note	-11.0203
▁Ja	-11.0204
▁fri	-11.0204
▁BE	-11.0204
Pretty	-11.0206
▁repaired	-11.0209
▁comparable	-11.0209
▁shout	-11.0219
▁nicest	-11.0222
▁ceviche	-11.0229
ale	-11.0231
▁acknowledge	-11.0233
▁combinations	-11.0239
ged	-11.0248
▁Call	-11.0248
---	-11.0248
▁diverse	-11.0249
▁van	-11.0253
▁Portions	-11.0262
▁flour	-11.0267
▁County	-11.0268
▁wondering	-11.0275
▁suck	-11.0277
▁blew	-11.0278
▁Could	-11.0282
ball	-11.0283
▁Waited	-11.0284
▁choosing	-11.0288
▁Okay	-11.0298
▁Hu	-11.0299
▁wallet	-11.0303
▁teriyaki	-11.0307
▁million	-11.0309
▁ON	-11.0309
▁fiance	-11.0312
▁ID	-11.0314
/5	-11.0316
▁bucket	-11.032
oon	-11.0321
▁Chi	-11.0321
▁designed	-11.0326
▁cone	-11.0327
/10	-11.0332
gy	-11.0335
▁clinic	-11.0337
Terrible	-11.0345
▁meaning	-11.0345
▁supplies	-11.0357
▁tequila	-11.0357
▁Horrible	-11.0366
oli	-11.0367
air	-11.0368
▁Line	-11.0369
▁accurate	-11.0371
▁Steve	-11.0373
▁haha	-11.0377
▁crave	-11.0377
ass	-11.0382
Co	-11.0385
▁fight	-11.0386
▁conference	-11.0387
▁tri	-11.0389
▁male	-11.039
▁nose	-11.0401
▁managers	-11.0403
▁groupon	-11.0405
▁edge	-11.0405
▁bedroom	-11.0408
▁seared	-11.0409
ado	-11.0413
▁pants	-11.0418
▁dairy	-11.0422
▁FOOD	-11.0427
▁blah	-11.0435
▁culture	-11.044
▁na	-11.0443
▁master	-11.0453
▁greeting	-11.0454
▁Yeah	-11.0455
▁checkout	-11.0455
▁unpleasant	-11.0457
▁nightmare	-11.0457
ata	-11.0458
▁firm	-11.0464
▁celebration	-11.0467
▁answering	-11.0467
▁agent	-11.0469
▁piping	-11.0477
nce	-11.048
▁canned	-11.0481
▁killer	-11.0486
▁selected	-11.0489
▁starters	-11.0491
▁Eat	-11.0494
ship	-11.0497
IC	-11.0498
▁draw	-11.0501
▁surrounding	-11.0507
▁cousin	-11.0507
▁keys	-11.0508
▁CA	-11.0509
▁trim	-11.0509
▁holding	-11.0512
▁spray	-11.0516
All	-11.0519
cut	-11.0524
▁Island	-11.0524
▁preference	-11.0526
▁installation	-11.0529
▁heads	-11.0533
▁freaking	-11.0533
▁field	-11.0534
▁jump	-11.0534
▁joy	-11.0535
▁eclectic	-11.0537
▁smiling	-11.0537
▁Walmart	-11.0537
▁Duck	-11.0539
▁setup	-11.0539
wi	-11.054
▁behavior	-11.0547
▁poached	-11.0547
▁vintage	-11.0547
▁states	-11.0554
▁worthy	-11.0557
▁stepped	-11.0558
▁accompanied	-11.0566
ES	-11.0567
▁Chinatown	-11.0568
▁Butter	-11.0568
▁provolone	-11.0578
▁refilled	-11.0585
where	-11.0587
▁Are	-11.059
▁plant	-11.0591
▁Paul	-11.0592
pro	-11.0597
▁forth	-11.0605
▁pear	-11.0605
▁marinara	-11.0608
gen	-11.061
illa	-11.0616
▁soap	-11.0621
▁ideal	-11.0626
While	-11.0628
ns	-11.0628
ix	-11.063
▁shakes	-11.063
ran	-11.0631
▁dig	-11.0638
cooked	-11.064
▁Matt	-11.064
q	-11.064
ide	-11.0642
ments	-11.0647
▁Chili	-11.065
▁WAS	-11.0652
▁Update	-11.0652
▁associate	-11.0654
uality	-11.0657
▁underwhelming	-11.0659
▁route	-11.066
▁cheeses	-11.0671
▁whatsoever	-11.068
▁Tuna	-11.068
ock	-11.0689
▁raspberry	-11.069
▁puppy	-11.07
▁inter	-11.0701
▁Open	-11.0707
▁America	-11.0707
▁features	-11.0708
fried	-11.0712
Got	-11.0713
ries	-11.0717
▁rudely	-11.0717
zy	-11.0719
▁br	-11.0722
▁hoped	-11.0723
▁Bob	-11.0725
▁trick	-11.0733
ple	-11.0735
▁hello	-11.0744
▁Side	-11.0744
▁fo	-11.0745
▁adequate	-11.0746
▁detailed	-11.0748
▁allows	-11.0751
▁frustrated	-11.0752
▁movies	-11.0755
▁$35	-11.076
ite	-11.0763
▁sucked	-11.0764
▁Back	-11.0772
▁swear	-11.0773
▁file	-11.0782
qu	-11.0783
▁unhappy	-11.0783
Everything	-11.0793
▁angry	-11.0793
lar	-11.0793
▁pecan	-11.0795
key	-11.0797
▁led	-11.08
shi	-11.08
Wonderful	-11.0803
▁Terrible	-11.0805
cr	-11.0807
▁locked	-11.0809
://	-11.0815
▁Jim	-11.0817
▁Hard	-11.0819
▁competitive	-11.0824
rn	-11.0833
▁load	-11.0836
rated	-11.0841
▁Lu	-11.0842
▁trail	-11.0843
▁claimed	-11.0844
ile	-11.0848
ney	-11.085
▁$200	-11.0852
ON	-11.0853
▁ra	-11.0854
▁70	-11.0861
www	-11.0862
▁feature	-11.0864
▁solution	-11.0866
though	-11.0875
▁:-)	-11.0876
nny	-11.0877
▁chew	-11.0879
night	-11.0879
▁fitness	-11.088
▁bikes	-11.0896
▁knife	-11.0897
▁chic	-11.0898
▁Tu	-11.0902
▁empanadas	-11.0903
▁pushed	-11.0903
▁gloves	-11.0905
ical	-11.0906
ient	-11.091
▁emails	-11.0911
▁alligator	-11.0918
▁tangy	-11.0921
▁CO	-11.0924
▁vibes	-11.0929
▁steal	-11.0938
▁pets	-11.0939
nder	-11.0941
▁jack	-11.0948
▁damaged	-11.0957
▁pretzels	-11.0958
▁unbelievable	-11.096
ric	-11.0963
▁opposite	-11.0971
▁marinated	-11.0971
▁hi	-11.0972
▁Cream	-11.0975
▁watered	-11.0976
▁June	-11.0982
▁beet	-11.0983
water	-11.0993
▁sometime	-11.0993
▁Hands	-11.0995
▁carnitas	-11.1002
11	-11.1014
▁respectful	-11.102
▁scrambled	-11.1021
▁bananas	-11.1023
▁emailed	-11.103
ward	-11.1032
▁loving	-11.1035
▁pressed	-11.1039
▁Decent	-11.1041
▁bra	-11.1044
▁content	-11.1046
▁lu	-11.1046
▁ability	-11.1047
▁Music	-11.1056
▁appealing	-11.1066
▁routine	-11.1066
▁varieties	-11.1066
▁Garlic	-11.1066
ure	-11.1066
pp	-11.1071
▁Time	-11.1073
zo	-11.1073
only	-11.1073
▁mattress	-11.1074
▁pic	-11.1076
▁Someone	-11.1081
▁milkshake	-11.1082
▁LOT	-11.1085
▁Inside	-11.1088
▁arugula	-11.1088
▁cents	-11.1089
▁thumbs	-11.109
▁sooner	-11.1094
▁Fantastic	-11.1096
▁regardless	-11.1099
▁wa	-11.1099
▁instantly	-11.1101
▁grass	-11.1101
▁artists	-11.1107
▁shoe	-11.1108
▁pure	-11.1112
▁LOVED	-11.1124
▁Tip	-11.1126
▁painted	-11.1126
▁dealt	-11.1131
▁WAY	-11.1133
ria	-11.1136
▁adds	-11.1141
▁surprising	-11.1146
▁Meat	-11.1147
ities	-11.115
hy	-11.115
▁NJ	-11.1153
▁Egg	-11.116
▁meatloaf	-11.1163
▁terribly	-11.1163
▁Olive	-11.1163
▁sets	-11.1165
uch	-11.1173
▁hesitant	-11.1173
▁ripped	-11.1174
▁maple	-11.1175
▁thankful	-11.1181
jo	-11.1185
▁Pet	-11.1187
too	-11.1193
▁catering	-11.1195
▁macaroni	-11.1195
▁chains	-11.1199
ella	-11.1205
die	-11.1208
▁shirts	-11.1211
▁chai	-11.1217
▁assistant	-11.1217
▁brownie	-11.1217
▁interaction	-11.122
▁compliments	-11.1225
▁$18	-11.1227
▁clerk	-11.1227
▁James	-11.1229
▁advise	-11.1231
Go	-11.1234
▁sharp	-11.1238
mic	-11.1239
▁Something	-11.1239
▁3-4	-11.1243
▁Sc	-11.1244
▁pics	-11.1245
▁Kim	-11.1245
▁pushy	-11.1248
service	-11.1251
▁throwing	-11.1256
▁inform	-11.1259
pper	-11.126
when	-11.1262
ano	-11.1263
▁spin	-11.1268
▁according	-11.1268
La	-11.1271
▁spare	-11.1272
▁dinners	-11.1281
▁fl	-11.1282
▁Ramen	-11.1293
▁Am	-11.1294
▁Pe	-11.1296
19	-11.1297
▁Almost	-11.1304
▁Half	-11.1304
▁bugs	-11.1304
▁passion	-11.1307
▁funky	-11.1308
▁steam	-11.1313
ake	-11.1314
▁Dave	-11.1315
▁Brandon	-11.1315
▁tossed	-11.1317
▁Valentine	-11.1325
▁assistance	-11.1326
▁encourage	-11.1332
▁letter	-11.1334
▁mimosa	-11.1334
▁Spring	-11.1335
▁Brussels	-11.134
▁fool	-11.1343
▁staffed	-11.135
▁everybody	-11.135
▁needing	-11.1352
▁Mark	-11.1353
▁smoky	-11.1358
▁Much	-11.1362
vid	-11.1366
▁pharmacy	-11.1369
▁Bro	-11.1372
▁condiments	-11.1374
▁Lamb	-11.1378
▁consisted	-11.138
▁massages	-11.1388
▁bottled	-11.139
▁Additionally	-11.1391
▁preparation	-11.1391
▁trap	-11.1394
▁attempted	-11.14
▁adjust	-11.1401
▁patience	-11.1402
▁button	-11.1407
how	-11.1411
tion	-11.1412
▁Worst	-11.142
99	-11.142
▁dump	-11.1424
▁attend	-11.1424
▁Thankfully	-11.1426
py	-11.1432
▁flaky	-11.1435
▁ver	-11.1437
▁Wi	-11.1439
▁pe	-11.1447
▁calories	-11.1447
▁chops	-11.1448
▁guarantee	-11.1454
▁bands	-11.1457
▁balsamic	-11.1457
▁Saint	-11.1457
▁plantains	-11.1458
▁Water	-11.1459
▁Mall	-11.1463
▁Several	-11.1468
▁Per	-11.1469
▁panini	-11.148
val	-11.1484
▁conveniently	-11.1486
▁bin	-11.149
▁attendant	-11.1491
ain	-11.1495
▁earned	-11.1501
▁nurse	-11.1502
▁historic	-11.1503
▁seven	-11.1503
▁restrooms	-11.1504
▁PO	-11.1505
▁wonderfully	-11.1505
▁pint	-11.1506
▁lively	-11.1511
▁benedict	-11.1513
▁lump	-11.1514
▁sending	-11.152
▁Honey	-11.1524
▁answers	-11.1529
▁Brunch	-11.153
▁puppies	-11.1535
ray	-11.1536
ign	-11.1542
▁adventure	-11.1546
▁breeze	-11.1546
▁vinaigrette	-11.1546
▁chinese	-11.1546
▁gifts	-11.1548
60	-11.1553
▁$16	-11.1554
unt	-11.1554
▁success	-11.1557
▁police	-11.1558
▁lukewarm	-11.1558
▁($1	-11.1564
▁mignon	-11.1569
▁gooey	-11.1569
▁Dessert	-11.157
▁patron	-11.1574
Such	-11.1575
▁score	-11.1576
▁rear	-11.1578
▁containers	-11.1578
▁establishments	-11.1579
▁coworker	-11.1593
▁scam	-11.1609
▁consist	-11.1613
▁Bill	-11.1614
▁reply	-11.1614
▁Deli	-11.1622
▁April	-11.1625
ini	-11.1626
▁hired	-11.1628
▁pretentious	-11.1628
▁essentially	-11.1628
▁port	-11.1633
▁SERVICE	-11.1636
▁elegant	-11.1636
▁tan	-11.1642
▁Louisiana	-11.1648
▁vehicles	-11.1651
▁bear	-11.1652
▁incorrect	-11.1664
▁Pan	-11.1664
▁fed	-11.1664
ole	-11.1665
▁Besides	-11.167
▁drank	-11.167
▁sunset	-11.167
▁Scott	-11.1671
▁Recommend	-11.1674
▁knots	-11.1681
▁Basically	-11.1682
CE	-11.1685
▁grounds	-11.169
▁ALWAYS	-11.1693
▁palate	-11.1694
▁Sun	-11.1694
ung	-11.1696
▁unfortunate	-11.1698
ppy	-11.1699
▁gun	-11.17
▁entry	-11.1702
▁unlimited	-11.1704
▁proud	-11.1705
An	-11.1711
▁Same	-11.1717
▁ownership	-11.1719
ically	-11.1724
▁liquid	-11.1727
▁tenderloin	-11.1727
▁strongly	-11.1734
was	-11.1735
▁Wild	-11.1737
place	-11.174
▁1.5	-11.174
ties	-11.1742
▁memories	-11.175
▁checks	-11.1756
▁heck	-11.1757
▁ages	-11.1761
▁exhibit	-11.1765
▁Gras	-11.1767
▁alot	-11.1773
pedi	-11.1776
▁politely	-11.1781
▁visitors	-11.1781
▁mistakes	-11.1783
▁Charles	-11.1784
pping	-11.1797
▁Hubby	-11.1801
▁desire	-11.1804
▁culinary	-11.1807
▁study	-11.1809
▁None	-11.1815
▁freshness	-11.1821
▁gladly	-11.1826
▁fired	-11.1826
work	-11.183
▁2.5	-11.184
▁Diner	-11.1842
▁skillet	-11.1843
ons	-11.1844
▁toward	-11.1849
▁toddler	-11.1853
Tried	-11.1857
▁fail	-11.1859
▁bowling	-11.1861
▁cats	-11.1864
▁Pre	-11.1865
▁Nick	-11.1868
▁March	-11.1869
▁flow	-11.1874
▁Pasta	-11.188
▁prosciutto	-11.1888
qua	-11.189
▁---	-11.1891
▁freezer	-11.1891
ern	-11.1892
rio	-11.1895
▁rose	-11.1896
▁cater	-11.1897
because	-11.1904
▁insane	-11.1906
▁Chips	-11.191
▁heated	-11.1912
▁herbs	-11.1915
▁direct	-11.1916
▁companion	-11.1918
▁shelf	-11.192
▁towel	-11.1921
▁treasure	-11.1922
▁heavenly	-11.1925
read	-11.1934
▁til	-11.1937
▁switched	-11.1943
▁boutique	-11.1946
▁array	-11.1946
▁appearance	-11.1946
▁Located	-11.1948
▁wont	-11.1955
including	-11.1962
point	-11.1969
▁dense	-11.1969
▁ruin	-11.1969
▁hook	-11.197
▁Light	-11.197
▁theatre	-11.1971
▁cleared	-11.1973
▁Ko	-11.1975
▁Ju	-11.1976
▁Marriott	-11.198
▁hop	-11.1992
▁worn	-11.1992
▁join	-11.1993
▁assist	-11.1994
▁Tri	-11.1999
▁cons	-11.2
ches	-11.2
Their	-11.2012
▁brands	-11.2012
▁mass	-11.2013
▁nature	-11.2016
unk	-11.2024
▁engine	-11.2026
▁muffins	-11.2027
▁sloppy	-11.2027
▁accessible	-11.2028
▁decorations	-11.2029
▁Obviously	-11.203
.5	-11.2031
▁utensils	-11.2036
▁Four	-11.2036
wn	-11.2039
▁velvet	-11.2039
▁wipe	-11.2041
vin	-11.2042
▁Ki	-11.2043
▁goodies	-11.2044
▁pitcher	-11.2049
▁ocean	-11.2051
▁masala	-11.2051
▁laughed	-11.2054
!!!!!!	-11.206
elle	-11.2062
▁thus	-11.2063
app	-11.2065
▁h	-11.2067
▁breath	-11.2074
▁adventurous	-11.2074
▁au	-11.2084
▁swing	-11.2085
▁refrigerator	-11.2086
▁wander	-11.2087
bed	-11.2087
▁$60	-11.209
▁supporting	-11.2094
▁church	-11.2098
▁sodas	-11.21
▁alley	-11.2102
▁Live	-11.2106
▁yelled	-11.2107
▁cannoli	-11.211
.......	-11.2111
▁drivers	-11.2112
▁shipping	-11.2122
▁YOUR	-11.2128
▁straw	-11.2131
▁lately	-11.2133
part	-11.2134
▁cho	-11.2135
▁unfriendly	-11.2135
▁Location	-11.2142
▁feedback	-11.2146
ack	-11.2148
▁chile	-11.2148
▁gracious	-11.2151
▁scallop	-11.2154
▁language	-11.2157
▁fave	-11.216
▁lighter	-11.2161
▁Up	-11.2161
Be	-11.2166
▁superior	-11.2169
▁grace	-11.2169
▁coke	-11.2171
▁puff	-11.2171
▁wheel	-11.2173
New	-11.2176
▁Bring	-11.218
▁understaffed	-11.2181
▁Gi	-11.2185
▁delicate	-11.2193
▁appeal	-11.2193
▁recommending	-11.2201
▁hits	-11.2201
▁rented	-11.2203
▁slide	-11.2215
art	-11.2218
▁scared	-11.2218
▁ST	-11.2219
▁ba	-11.2222
▁golden	-11.2222
▁collect	-11.2226
▁75	-11.2226
▁faces	-11.2227
▁cafeteria	-11.2229
▁foodie	-11.2232
▁lied	-11.224
pot	-11.2246
▁Kind	-11.2253
▁island	-11.2256
▁Extremely	-11.2257
▁occasionally	-11.2258
▁reviewed	-11.226
rry	-11.2262
▁facilities	-11.2265
▁Curry	-11.2265
▁delay	-11.2265
▁Onion	-11.2266
▁laughing	-11.2268
▁declined	-11.227
▁th	-11.2278
▁colorful	-11.2278
▁franchise	-11.2289
▁6:30	-11.229
▁whim	-11.229
▁Alex	-11.2293
▁song	-11.2296
head	-11.2299
▁reputation	-11.2301
▁HAVE	-11.2301
▁Broadway	-11.2301
▁Salon	-11.2302
▁painful	-11.2309
▁phones	-11.2312
▁related	-11.2313
▁Management	-11.2313
▁activities	-11.2313
▁necessarily	-11.2313
▁premium	-11.2313
▁7:30	-11.2314
mar	-11.2317
af	-11.2317
▁Should	-11.2318
▁grape	-11.2325
▁jelly	-11.2325
▁suspect	-11.2325
▁Italy	-11.2326
av	-11.2327
check	-11.2329
ui	-11.2336
▁ill	-11.2353
nna	-11.2358
▁tiramisu	-11.2361
▁rooftop	-11.2362
▁Brown	-11.2362
▁spoiled	-11.2365
▁daughters	-11.2366
▁Ed	-11.237
new	-11.2372
▁Anyways	-11.2383
▁deciding	-11.2386
▁hu	-11.2386
▁Found	-11.2389
▁land	-11.2389
▁Couldn	-11.239
▁shaved	-11.2392
▁Stop	-11.2395
ong	-11.2397
▁sheets	-11.2399
wa	-11.2409
▁Hilton	-11.241
▁Pros	-11.2415
iti	-11.2417
▁bargain	-11.2422
▁YUM	-11.2422
▁upper	-11.2423
lie	-11.2425
▁incident	-11.2428
pan	-11.2431
ua	-11.2431
SH	-11.2433
▁clientele	-11.2434
▁pricy	-11.2434
▁bird	-11.2436
17	-11.2439
▁drinker	-11.2442
▁Brian	-11.2444
▁trucks	-11.2446
▁PLACE	-11.2447
▁bruschetta	-11.2447
▁calzone	-11.2447
▁mixture	-11.2447
▁Crispy	-11.2448
▁Nola	-11.2449
St	-11.2451
ose	-11.2451
take	-11.2454
▁Local	-11.2455
lla	-11.246
▁rubbery	-11.2463
▁mold	-11.2465
▁Han	-11.2474
Ca	-11.2476
▁featured	-11.2476
▁prevent	-11.2483
▁10-15	-11.2484
▁fe	-11.2487
▁leather	-11.2496
▁fashioned	-11.2496
▁thoughtful	-11.25
▁http	-11.2503
▁meaty	-11.2504
▁Guess	-11.2508
ered	-11.251
ual	-11.251
▁$10.	-11.2514
▁4.5	-11.2517
▁vacuum	-11.2521
▁rustic	-11.2527
▁frosting	-11.2533
▁timing	-11.2533
▁bridge	-11.2533
▁Carmel	-11.2533
▁aspect	-11.2537
▁bass	-11.2541
▁Avoid	-11.2544
▁World	-11.2548
▁skimp	-11.2551
▁dr	-11.2551
rri	-11.2552
▁THEY	-11.2562
uite	-11.2563
▁Oysters	-11.2566
De	-11.2567
▁impress	-11.2577
▁Wife	-11.2577
▁statement	-11.2581
▁Turkey	-11.2582
▁duty	-11.2583
CK	-11.2583
▁enchilada	-11.2585
Visited	-11.2591
▁soaked	-11.2592
▁ignore	-11.2592
▁WILL	-11.2594
▁dates	-11.2595
▁Store	-11.2607
▁decadent	-11.2607
year	-11.2608
▁learning	-11.2614
▁Rose	-11.2615
Hands	-11.2615
▁wind	-11.2617
▁rotation	-11.2619
▁status	-11.2619
▁tongue	-11.262
▁sweat	-11.2622
▁pillows	-11.2623
mark	-11.2625
cy	-11.2628
▁resist	-11.2633
▁continues	-11.2636
ware	-11.2638
▁Table	-11.264
▁embarrassed	-11.2645
▁accommodated	-11.2652
▁Indiana	-11.2652
▁branch	-11.2654
▁disappoints	-11.2661
tter	-11.2664
lb	-11.2665
▁FL	-11.2667
▁require	-11.2671
▁wave	-11.2672
▁Foods	-11.2674
bit	-11.2674
from	-11.2678
▁Real	-11.2681
▁dust	-11.2682
▁campus	-11.2682
▁horse	-11.2683
▁labor	-11.2684
▁sidewalk	-11.2684
ken	-11.2686
ugh	-11.2687
▁corned	-11.269
▁eight	-11.2696
▁warmer	-11.2699
Every	-11.2705
pr	-11.2711
▁cole	-11.2715
▁degrees	-11.2727
▁Auto	-11.2729
▁accessories	-11.2732
▁transaction	-11.2732
MA	-11.2734
▁Poor	-11.2742
▁watering	-11.2744
▁que	-11.276
▁barista	-11.2763
mel	-11.2763
▁Fu	-11.2764
▁marked	-11.2766
ola	-11.2769
run	-11.2782
▁Costco	-11.2783
▁tipped	-11.2785
▁5-	-11.2786
▁unexpected	-11.2789
book	-11.2794
▁December	-11.2795
▁wooden	-11.2799
▁toys	-11.2801
▁Need	-11.2801
▁significant	-11.2802
▁kindly	-11.2803
ified	-11.2805
▁gentle	-11.2807
▁attending	-11.2808
-19	-11.2809
▁sw	-11.2809
table	-11.281
▁Ever	-11.2818
gging	-11.2819
mmm	-11.282
▁Facebook	-11.282
▁layers	-11.2824
izing	-11.2826
▁italian	-11.2834
ou	-11.2834
▁convention	-11.2846
▁press	-11.2846
▁Valley	-11.2846
▁mocha	-11.2846
▁DE	-11.2853
14	-11.2853
▁Hall	-11.2858
▁Ni	-11.2859
▁driven	-11.2863
▁acrylic	-11.2871
▁aggressive	-11.2871
▁performance	-11.2872
▁badly	-11.2872
▁moves	-11.2872
▁3)	-11.288
▁substitute	-11.2882
▁venture	-11.2882
▁October	-11.2884
▁beauty	-11.2884
▁representative	-11.2884
▁sunny	-11.2885
▁endless	-11.2886
▁screaming	-11.2892
▁ATM	-11.2899
▁Cor	-11.2899
▁flying	-11.29
▁allergies	-11.291
▁8:30	-11.291
have	-11.2912
▁chow	-11.2913
ism	-11.2913
ez	-11.2914
oc	-11.2918
are	-11.292
▁accepted	-11.2925
du	-11.2926
He	-11.2927
LA	-11.293
late	-11.2932
▁dated	-11.2934
▁scheduling	-11.2935
▁LOL	-11.2938
ied	-11.2943
▁basement	-11.295
▁Ken	-11.2953
Yes	-11.2953
▁memory	-11.2961
tan	-11.2964
▁combined	-11.2968
▁scale	-11.297
ane	-11.2974
▁laptop	-11.2974
▁Watch	-11.2974
▁focused	-11.2975
▁squeezed	-11.2975
▁slowly	-11.2976
▁Ya	-11.2977
▁stations	-11.2984
▁Company	-11.2987
▁terminal	-11.2987
▁waxing	-11.2987
▁Fire	-11.2989
▁jacket	-11.299
▁overpowering	-11.299
ily	-11.2992
▁Literally	-11.2999
▁dropping	-11.3001
▁pin	-11.3003
cia	-11.3006
▁hat	-11.3007
▁narrow	-11.3013
▁storage	-11.3013
▁drunken	-11.3015
▁tries	-11.3016
▁carefully	-11.3019
▁fusion	-11.3023
od	-11.3024
wise	-11.3026
site	-11.3027
▁boss	-11.303
▁Com	-11.303
▁disappeared	-11.3032
▁Ale	-11.3036
▁unnecessary	-11.3039
▁Thanksgiving	-11.3039
▁midnight	-11.3039
▁tater	-11.3043
▁fig	-11.3043
▁holidays	-11.3043
▁repeatedly	-11.3043
▁FYI	-11.3044
▁surely	-11.3053
▁ja	-11.3056
▁therapist	-11.3061
▁pastrami	-11.3065
▁Ashley	-11.3065
▁mahi	-11.3065
▁fence	-11.3065
ik	-11.3067
▁5:30	-11.3067
▁Chick	-11.3069
bby	-11.307
▁AGAIN	-11.3078
▁guard	-11.3078
▁Actually	-11.3083
▁flights	-11.3086
▁Yummy	-11.3086
How	-11.3087
▁eatery	-11.3088
sorry	-11.3089
fresh	-11.309
▁braised	-11.3091
▁buddy	-11.3091
▁Par	-11.3094
▁rates	-11.3097
used	-11.3101
▁lesson	-11.3103
order	-11.3108
▁cracked	-11.311
▁turning	-11.311
▁ingredient	-11.3114
▁zucchini	-11.3117
▁bits	-11.3117
▁challenging	-11.313
▁varied	-11.313
▁filter	-11.3131
▁native	-11.3132
▁Penn	-11.3134
ST	-11.3136
▁Pepper	-11.3139
▁Stars	-11.3148
▁En	-11.3151
▁disrespectful	-11.3152
mal	-11.3153
▁instructor	-11.3154
▁festival	-11.3156
▁twenty	-11.3156
▁Air	-11.3159
▁pedicures	-11.3162
▁prep	-11.3163
▁convinced	-11.3164
▁fruits	-11.3166
▁condescending	-11.3169
▁delectable	-11.3169
▁Broad	-11.317
▁dipped	-11.3172
had	-11.3172
▁handling	-11.3177
DO	-11.3177
sweet	-11.318
▁mary	-11.3181
▁gear	-11.3185
AT	-11.3186
rus	-11.3189
long	-11.3193
▁Vegas	-11.3196
▁caramelized	-11.3196
▁Sundays	-11.32
▁asks	-11.32
▁Village	-11.3203
ju	-11.3205
▁ti	-11.3206
fl	-11.3207
▁swimming	-11.3209
▁cruise	-11.3209
LI	-11.3211
Some	-11.3218
▁conversations	-11.322
▁film	-11.3225
▁instructions	-11.3227
▁term	-11.323
chicken	-11.3233
▁exceptionally	-11.3237
▁(2	-11.3238
▁Whatever	-11.3238
▁tours	-11.3239
▁movers	-11.3241
▁Ac	-11.3247
▁brussel	-11.3248
▁shady	-11.3248
Took	-11.3249
▁uneven	-11.3252
▁edges	-11.3253
▁extended	-11.3254
your	-11.326
ched	-11.3264
▁washer	-11.327
▁Alfredo	-11.3275
▁organization	-11.3275
sized	-11.3277
▁Luke	-11.3277
▁styles	-11.3277
▁le	-11.3278
▁Eve	-11.328
▁Road	-11.3289
▁notes	-11.3292
▁reviewer	-11.33
▁pen	-11.3303
act	-11.3305
▁wedge	-11.3305
▁Husband	-11.3307
▁Jen	-11.3307
ET	-11.3308
▁wonton	-11.3314
▁becoming	-11.3315
▁inconsistent	-11.3315
▁pistachio	-11.3315
▁storm	-11.3315
▁raving	-11.3318
▁Total	-11.3323
▁wi	-11.3329
▁PS	-11.3335
▁fitting	-11.3335
▁latest	-11.3343
cer	-11.3344
▁plane	-11.3345
▁shown	-11.3347
▁nut	-11.3354
stone	-11.3355
NO	-11.3364
▁Gumbo	-11.3368
▁Banana	-11.3369
▁neighbor	-11.3371
▁anybody	-11.3373
▁deliciousness	-11.3374
▁Think	-11.3375
▁earn	-11.3378
▁pastor	-11.3379
▁Waffle	-11.3382
▁idiot	-11.3382
▁fixing	-11.3388
▁engaging	-11.3395
▁Jeff	-11.3397
▁pissed	-11.3401
▁assuming	-11.3401
▁fishy	-11.3401
▁Wood	-11.3406
▁measure	-11.3407
▁mojito	-11.3409
▁approximately	-11.3409
▁cheerful	-11.342
▁squeeze	-11.3421
▁dedicated	-11.3422
▁occupied	-11.3422
▁puts	-11.3428
▁touched	-11.3443
lit	-11.3448
▁courtesy	-11.3449
▁grub	-11.345
▁tra	-11.3455
▁Ti	-11.3457
▁link	-11.3458
▁com	-11.3459
▁cheapest	-11.3461
gue	-11.3462
ici	-11.3463
▁Mc	-11.3465
▁race	-11.3465
▁Har	-11.3466
▁pico	-11.3469
▁walks	-11.3474
des	-11.3475
▁Whether	-11.3476
▁satisfaction	-11.3476
▁curious	-11.3476
▁gl	-11.3477
bra	-11.3481
▁Frank	-11.3482
▁sorts	-11.3483
▁packages	-11.3483
▁executed	-11.3483
▁Cap	-11.3488
▁rule	-11.3493
▁airy	-11.3494
▁Geno	-11.3495
ened	-11.3496
▁slot	-11.3497
ox	-11.3497
▁collard	-11.3498
▁medication	-11.3504
▁noted	-11.3506
ash	-11.3516
▁boil	-11.3516
▁edamame	-11.3517
SE	-11.3517
▁apples	-11.3517
about	-11.352
▁Fri	-11.3531
▁profile	-11.3531
▁Hawaiian	-11.3532
▁bride	-11.3532
▁Sad	-11.3532
▁sofa	-11.3533
ook	-11.3534
ker	-11.3539
▁certificate	-11.3544
▁creole	-11.3544
▁horseradish	-11.3544
▁sundae	-11.3544
▁Express	-11.3545
pers	-11.3554
▁inspired	-11.3556
▁rec	-11.3556
▁distancing	-11.3558
▁placing	-11.3558
▁vent	-11.3559
OMG	-11.3561
ration	-11.3562
Pa	-11.3564
▁sing	-11.3568
▁raise	-11.3571
▁plaza	-11.3572
▁spaces	-11.3573
▁peaceful	-11.3574
az	-11.3584
▁Lemon	-11.3586
hole	-11.3588
▁stack	-11.3602
▁uses	-11.3602
▁corrected	-11.3603
▁gu	-11.3604
ec	-11.3604
both	-11.3604
tip	-11.361
▁Tim	-11.3611
▁definite	-11.3614
▁Corn	-11.3614
▁techs	-11.3615
▁Fair	-11.3615
▁lil	-11.3616
▁Shi	-11.3618
▁Boo	-11.3624
▁shine	-11.3624
▁Mexico	-11.3627
▁mein	-11.3632
▁groomer	-11.3632
▁saut	-11.3634
▁washing	-11.3638
▁glaze	-11.3639
▁whom	-11.3641
▁China	-11.3641
▁reflect	-11.3641
▁holes	-11.3642
nch	-11.3652
▁GM	-11.3655
▁rainy	-11.3655
▁reserve	-11.3657
▁ounce	-11.3663
Okay	-11.3664
bon	-11.3668
▁January	-11.3668
▁allergy	-11.3668
▁Brazilian	-11.3668
UR	-11.3669
fu	-11.3669
▁ratings	-11.3676
▁Avenue	-11.3682
▁citrus	-11.3682
▁miserable	-11.3682
▁headache	-11.3683
ica	-11.3686
▁cha	-11.3688
▁waters	-11.369
▁somebody	-11.3691
best	-11.3696
▁songs	-11.3699
its	-11.3708
▁disaster	-11.371
▁mill	-11.3712
▁screens	-11.3721
▁University	-11.3723
▁celebrating	-11.3723
▁cappuccino	-11.3724
▁glazed	-11.3725
▁painting	-11.3725
▁flower	-11.3728
▁hangout	-11.373
▁tools	-11.3733
▁apply	-11.3735
person	-11.3737
▁enormous	-11.3737
▁9:30	-11.3738
▁industrial	-11.374
ets	-11.3741
▁Ke	-11.3743
▁Bra	-11.3743
Bo	-11.3746
▁Nope	-11.3748
▁jobs	-11.375
▁Depot	-11.3752
▁boneless	-11.3754
▁Kevin	-11.3756
▁loss	-11.3756
▁belt	-11.3757
▁blind	-11.3765
▁tamales	-11.3766
▁string	-11.3772
Un	-11.3773
other	-11.3778
▁candle	-11.3786
vy	-11.379
▁scrumptious	-11.3793
▁death	-11.3793
▁patties	-11.3793
▁2016	-11.3795
▁instructors	-11.3795
burger	-11.3798
▁smiles	-11.3798
come	-11.3808
ham	-11.3808
▁praise	-11.3813
▁truth	-11.3816
▁aged	-11.3816
▁Gyro	-11.3821
▁laundry	-11.3821
Definitely	-11.3822
TER	-11.3822
▁runny	-11.3825
▁addressed	-11.383
▁Wal	-11.384
▁squid	-11.3849
ggy	-11.3851
▁stops	-11.3858
▁connected	-11.3858
▁hoagies	-11.3858
▁advertise	-11.3859
▁str	-11.386
▁jeans	-11.3863
▁Recently	-11.3868
▁Yelpers	-11.3874
▁effect	-11.3877
▁inventory	-11.3878
▁military	-11.3878
▁Aside	-11.3889
▁protect	-11.3891
▁shampoo	-11.3892
▁supply	-11.3892
▁healthier	-11.3893
▁homey	-11.3898
zi	-11.3902
elli	-11.3904
▁battered	-11.3904
▁Bistro	-11.3906
▁Decor	-11.3908
▁Cr	-11.391
▁Anthony	-11.391
▁jalapeno	-11.3917
▁Central	-11.392
▁Boston	-11.392
▁confirmation	-11.3922
EL	-11.3924
▁doughnuts	-11.3925
Mo	-11.3928
▁accidentally	-11.3935
▁grade	-11.3936
workers	-11.3941
▁Margarita	-11.3943
▁karaoke	-11.3948
▁smothered	-11.395
▁ordinary	-11.3952
▁Target	-11.3963
▁incompetent	-11.3963
▁charred	-11.3963
▁Sal	-11.3966
▁Prime	-11.397
▁Started	-11.3971
Thank	-11.3973
▁supervisor	-11.3977
▁shells	-11.3978
▁screwed	-11.3982
▁trio	-11.3983
pre	-11.3983
▁GF	-11.3985
▁exhibits	-11.3986
▁generic	-11.3991
▁shelves	-11.3991
ens	-11.3991
iving	-11.3993
uc	-11.3994
ctor	-11.4
mate	-11.4003
▁Si	-11.4004
▁greatly	-11.4005
▁turtle	-11.4005
▁HIGHLY	-11.4005
▁dying	-11.4006
▁piano	-11.4006
▁5/5	-11.4013
▁Coast	-11.402
▁Kids	-11.4028
▁newer	-11.4029
▁Area	-11.4029
▁Trust	-11.4035
▁vast	-11.4036
?!?	-11.4038
▁Shake	-11.404
ENT	-11.4046
▁anyways	-11.4046
gs	-11.4051
▁brows	-11.4052
▁stunning	-11.4063
▁pulling	-11.4063
▁15-20	-11.4064
▁fu	-11.4067
▁Ex	-11.4068
mins	-11.4078
▁ideas	-11.4085
▁whose	-11.4092
▁Waiter	-11.4093
▁smokey	-11.4094
▁tradition	-11.4096
▁cow	-11.4098
▁tile	-11.4098
▁pipe	-11.4099
▁lean	-11.41
▁Normally	-11.4101
▁exercise	-11.4106
Beautiful	-11.4108
▁hundreds	-11.4108
▁Full	-11.4111
▁lasted	-11.4116
▁mountain	-11.412
▁quiche	-11.4121
▁discuss	-11.4124
AS	-11.4125
▁knocked	-11.4126
▁highest	-11.4129
▁Hospital	-11.4135
▁watermelon	-11.4135
▁award	-11.4137
▁Lee	-11.4141
▁commercial	-11.4149
ddle	-11.4155
▁Burgers	-11.4159
▁res	-11.4164
▁warehouse	-11.4164
▁luckily	-11.4164
▁subtle	-11.4164
▁rewards	-11.4165
special	-11.4166
▁Josh	-11.4166
ture	-11.4167
▁chick	-11.4171
▁central	-11.4173
▁piercing	-11.4179
▁attractive	-11.4185
cco	-11.4187
▁fra	-11.4188
▁hunt	-11.4192
▁merchandise	-11.4193
▁Lake	-11.4197
▁runner	-11.4198
▁physical	-11.4202
▁bat	-11.4202
▁Mind	-11.4207
▁locker	-11.4217
▁cities	-11.4223
home	-11.4232
▁booze	-11.4238
Never	-11.424
▁stains	-11.4243
▁Bun	-11.4247
▁argue	-11.4251
▁guessing	-11.4254
▁Col	-11.4254
▁couples	-11.4256
aking	-11.4256
▁makeup	-11.4258
cl	-11.426
▁deter	-11.4264
meat	-11.4265
▁Museum	-11.4266
▁groceries	-11.4266
▁Robert	-11.4267
▁22	-11.4267
▁Night	-11.4268
▁hush	-11.4269
▁residents	-11.427
▁increase	-11.4281
▁kimchi	-11.4281
▁Rib	-11.4282
▁Donuts	-11.4286
▁Ambiance	-11.4286
▁Guys	-11.4291
▁Show	-11.4299
▁$17	-11.4304
▁yell	-11.4304
Ba	-11.4305
aka	-11.4309
▁Kudos	-11.431
▁November	-11.431
▁windshield	-11.431
▁Burrito	-11.431
▁arcade	-11.431
▁competent	-11.431
▁renovated	-11.4312
▁position	-11.4312
▁ski	-11.4312
▁WORST	-11.4317
yo	-11.4317
▁outrageous	-11.4319
▁zone	-11.4322
▁restrictions	-11.4324
press	-11.4328
▁flash	-11.4328
▁Vegan	-11.4333
▁commented	-11.4337
▁san	-11.4345
▁MO	-11.4345
▁smoothly	-11.4348
▁2018	-11.4353
▁packaged	-11.4353
▁favourite	-11.4354
▁obnoxious	-11.4354
▁underwhelmed	-11.4355
▁drug	-11.4355
▁frankly	-11.4356
▁kicked	-11.4357
▁inches	-11.4358
▁subs	-11.4364
▁claims	-11.4369
▁mirror	-11.437
any	-11.4378
ush	-11.4381
▁ANY	-11.4387
▁Royal	-11.4388
cra	-11.4389
ctic	-11.4392
▁Has	-11.4396
▁Mer	-11.4399
▁priority	-11.4402
▁resolved	-11.4413
▁bare	-11.4414
▁dinning	-11.4414
▁Def	-11.4416
▁bottomless	-11.4417
▁buzz	-11.4419
▁insanely	-11.4421
lot	-11.4426
▁dash	-11.4427
▁Truly	-11.4428
▁War	-11.4429
▁processed	-11.4431
▁complimented	-11.4432
▁Tex	-11.4433
▁Fortunately	-11.4444
▁therefore	-11.4444
▁Cherry	-11.4444
▁socks	-11.4446
▁brush	-11.4449
▁Flavor	-11.4455
▁?	-11.4456
priced	-11.4459
▁loaf	-11.4459
▁fireplace	-11.4459
▁Haven	-11.447
▁aesthetic	-11.4473
▁directed	-11.4474
oe	-11.4476
▁wasnt	-11.4479
▁treatments	-11.4484
▁navigate	-11.4489
▁blowing	-11.4493
ford	-11.4494
▁heater	-11.4496
▁minus	-11.4497
▁fond	-11.4505
▁frills	-11.4514
▁EVERYTHING	-11.4519
▁circle	-11.4519
▁flies	-11.452
▁Cat	-11.452
CH	-11.4523
▁scary	-11.4523
▁va	-11.4528
▁asian	-11.4531
▁Mushroom	-11.4534
▁Cheesesteak	-11.4534
▁OR	-11.4535
▁2017	-11.4536
▁sells	-11.454
▁Pu	-11.4541
ium	-11.4542
▁map	-11.4544
▁Between	-11.4549
▁married	-11.4549
▁mousse	-11.4549
▁task	-11.455
▁ahi	-11.455
lf	-11.4553
▁bones	-11.4555
▁intended	-11.4556
Bu	-11.4557
▁curly	-11.4558
▁vision	-11.4561
▁2019	-11.4562
▁clip	-11.4566
▁flavour	-11.4569
sti	-11.457
ef	-11.4574
▁opposed	-11.4579
▁goal	-11.4586
▁Rich	-11.4589
▁overnight	-11.4594
▁Granted	-11.4599
▁constant	-11.4603
▁Based	-11.4606
▁cajun	-11.4609
▁matters	-11.461
▁amongst	-11.4612
▁ARE	-11.4612
▁fro	-11.4613
pin	-11.4615
▁maintain	-11.4617
05	-11.4623
▁died	-11.4623
▁batch	-11.4624
▁Te	-11.4626
▁woke	-11.4629
▁hood	-11.4631
▁Servers	-11.4632
▁grain	-11.4633
▁soak	-11.4636
▁proof	-11.4636
▁gratuity	-11.464
▁FREE	-11.464
▁bummer	-11.464
cker	-11.4641
▁colored	-11.4642
pl	-11.4642
ition	-11.4644
▁hallway	-11.4645
▁skill	-11.4647
▁Nails	-11.465
▁Tasty	-11.4652
▁allowing	-11.4653
▁messages	-11.4653
▁milkshakes	-11.4662
rie	-11.4667
thru	-11.4668
▁kinks	-11.467
hhh	-11.467
▁billing	-11.4684
▁Publix	-11.4686
wait	-11.4686
▁lying	-11.4688
▁Cash	-11.4688
▁settle	-11.4689
Friendly	-11.469
▁ceilings	-11.469
based	-11.4691
▁devoured	-11.4692
▁lay	-11.4694
▁Oyster	-11.4695
▁stylists	-11.4697
▁Washington	-11.4701
▁upgraded	-11.4702
▁fuss	-11.4703
▁camera	-11.4704
lent	-11.4706
▁breads	-11.4711
▁quesadillas	-11.4715
▁multi	-11.4716
▁stadium	-11.4716
▁stressful	-11.4718
love	-11.472
▁Drink	-11.4723
hoo	-11.4724
▁wh	-11.4726
▁nuggets	-11.4728
▁recipes	-11.4729
▁Potato	-11.4729
▁Jimmy	-11.4733
▁junk	-11.4734
▁encounter	-11.4735
ask	-11.4736
▁arrangement	-11.4737
▁servings	-11.4738
van	-11.4741
▁carte	-11.4742
▁heavily	-11.4747
▁lackluster	-11.4747
▁Veggie	-11.4747
▁annual	-11.4748
iz	-11.475
▁HOT	-11.475
list	-11.4754
▁practices	-11.4755
▁breaking	-11.4759
▁charcuterie	-11.4762
▁voicemail	-11.4763
▁Cute	-11.4765
Da	-11.4768
▁media	-11.4773
Ha	-11.4774
form	-11.4774
ux	-11.4776
▁discover	-11.4779
▁purse	-11.4779
▁2015	-11.4782
▁passionate	-11.4794
▁dislike	-11.4795
really	-11.4798
bread	-11.4799
rma	-11.4802
ob	-11.4802
▁Pay	-11.4814
▁cigar	-11.4815
▁degree	-11.4815
▁invited	-11.4815
▁es	-11.4819
ather	-11.4821
▁ultimately	-11.4828
Mi	-11.4829
▁hide	-11.483
▁salsas	-11.4839
▁grandmother	-11.484
▁Toyota	-11.484
▁grabbing	-11.4841
▁gras	-11.4847
▁tops	-11.4851
ama	-11.4851
lish	-11.4852
▁September	-11.4855
▁surrounded	-11.4859
▁records	-11.4859
▁Reading	-11.4863
▁dangerous	-11.4871
▁district	-11.4871
▁couches	-11.4875
▁copy	-11.4875
▁kindness	-11.4875
field	-11.4876
restaurant	-11.4876
Finally	-11.4876
▁mole	-11.488
▁Head	-11.4881
ough	-11.4882
mber	-11.4882
cal	-11.4883
▁google	-11.4887
▁Jason	-11.4887
▁Wh	-11.489
tte	-11.4894
▁numbers	-11.4897
▁delighted	-11.4898
▁gripe	-11.49
▁singing	-11.49
win	-11.49
▁BR	-11.4902
▁oatmeal	-11.4902
▁banh	-11.4903
Fi	-11.4906
▁everytime	-11.4908
▁platters	-11.4912
▁conditioning	-11.4913
ently	-11.4914
lock	-11.4914
▁baklava	-11.4918
▁Front	-11.4918
▁sensitive	-11.4924
nie	-11.4926
UT	-11.493
▁joined	-11.4933
▁removal	-11.4933
▁Bakery	-11.4934
▁Point	-11.4934
▁Brew	-11.4939
▁porch	-11.4939
▁WHAT	-11.4939
▁Farm	-11.4942
▁bills	-11.4943
▁ending	-11.4944
ME	-11.4945
▁ur	-11.4949
▁exquisite	-11.4949
▁nerve	-11.495
▁Mardi	-11.495
▁Personally	-11.4951
▁EVERY	-11.4952
▁ri	-11.4952
▁Walking	-11.4958
▁Brisket	-11.4965
▁breweries	-11.4965
?).	-11.4966
zing	-11.4968
▁sooooo	-11.4968
▁butcher	-11.4976
▁Lowe	-11.4979
▁Wa	-11.498
▁responsibility	-11.4981
▁sampling	-11.4981
▁communicate	-11.4982
▁lashes	-11.4982
cked	-11.4983
▁cuz	-11.4985
ji	-11.499
▁Bon	-11.4994
▁vegetarians	-11.5003
▁Che	-11.5005
▁shock	-11.5005
▁Buy	-11.5007
Whenever	-11.501
▁lane	-11.5012
▁Factory	-11.5012
▁seaweed	-11.5012
▁Cal	-11.5013
shed	-11.5019
▁Port	-11.5025
▁refer	-11.5029
▁chatted	-11.503
aki	-11.5036
▁wore	-11.504
▁label	-11.504
▁Mass	-11.504
▁lift	-11.5043
▁Lucky	-11.5044
▁Things	-11.5044
▁artwork	-11.5045
▁Fl	-11.5045
▁tie	-11.5047
cap	-11.5051
ND	-11.5051
▁successful	-11.5055
fer	-11.5058
▁Delaware	-11.506
▁Regardless	-11.506
▁TIME	-11.506
▁Ryan	-11.506
▁pairing	-11.506
▁promotion	-11.506
????	-11.5065
Why	-11.5067
▁canceled	-11.5068
▁secure	-11.5069
▁clock	-11.5072
▁flexible	-11.5076
▁pregnant	-11.5076
▁trout	-11.5076
▁resolve	-11.5077
▁Coke	-11.5079
▁humor	-11.5083
▁Care	-11.5088
gie	-11.509
▁Reuben	-11.5092
▁Sausage	-11.5092
▁glance	-11.5092
▁11:30	-11.5092
▁Roast	-11.5096
▁float	-11.5096
shop	-11.5097
▁bu	-11.51
▁wasabi	-11.5101
ique	-11.511
▁Pub	-11.5116
under	-11.5121
▁scrub	-11.5124
▁verde	-11.5127
▁upbeat	-11.5129
rse	-11.513
▁rolling	-11.5133
And	-11.5136
▁adore	-11.5137
▁plug	-11.5139
▁outlets	-11.514
▁browse	-11.5143
▁equal	-11.5144
▁$300	-11.5146
▁gin	-11.5148
▁Je	-11.515
▁bump	-11.5155
▁App	-11.5156
▁Ribs	-11.5157
▁Tire	-11.517
▁aroma	-11.5171
▁SUPER	-11.5172
▁outdated	-11.5172
▁Cheesecake	-11.5172
▁indulge	-11.5174
▁perform	-11.518
▁halfway	-11.5186
▁Tavern	-11.5188
▁appetizing	-11.5188
▁presence	-11.5188
▁relationship	-11.5188
▁concoction	-11.5188
▁mon	-11.5188
raw	-11.5194
▁scan	-11.5199
▁February	-11.5204
▁tikka	-11.5204
▁Panera	-11.5204
▁foster	-11.5204
▁alcoholic	-11.5205
▁contractor	-11.521
▁mission	-11.5211
▁Ver	-11.5216
pped	-11.5234
▁Walked	-11.5236
▁understandable	-11.5238
▁trend	-11.5245
▁camp	-11.5247
iv	-11.5248
▁bull	-11.5251
▁iPhone	-11.5252
▁nonetheless	-11.5252
▁Downtown	-11.5252
▁benches	-11.5255
▁Pot	-11.5256
ill	-11.5259
ena	-11.5262
▁Skip	-11.5265
cle	-11.5267
▁dang	-11.5268
▁losing	-11.5269
▁apartments	-11.5273
▁touristy	-11.5273
also	-11.5278
lay	-11.528
around	-11.5281
▁soo	-11.5282
▁(3	-11.5284
len	-11.5285
ari	-11.5287
▁thicker	-11.5291
▁war	-11.5292
▁beaten	-11.5292
done	-11.5302
▁Short	-11.5303
▁supermarket	-11.5303
▁mash	-11.5308
manager	-11.5308
▁force	-11.5312
▁fits	-11.5314
▁Miss	-11.5316
▁quinoa	-11.5317
▁accent	-11.5317
▁rangoon	-11.5317
▁Adam	-11.5318
rge	-11.5323
▁sheet	-11.5324
▁grooming	-11.5324
▁printed	-11.5324
nice	-11.5328
mas	-11.5329
▁CH	-11.5329
▁bro	-11.533
▁refunded	-11.5332
▁10:30	-11.5336
▁Wasn	-11.5344
▁decently	-11.5344
▁Bartender	-11.5347
▁comped	-11.5348
▁obsessed	-11.535
▁facing	-11.535
▁torn	-11.5352
▁Simple	-11.5356
▁dumb	-11.5357
▁sucker	-11.5359
▁Del	-11.5363
▁hundred	-11.5364
-7	-11.5367
▁vary	-11.5368
bus	-11.5372
▁extreme	-11.5377
▁snapper	-11.5383
Man	-11.5385
▁Bl	-11.5387
▁Cold	-11.5389
▁Talk	-11.5391
nut	-11.5399
▁Rittenhouse	-11.5399
▁nigiri	-11.5399
▁BIG	-11.54
PA	-11.5401
▁pur	-11.5404
▁brewed	-11.5405
away	-11.5405
▁Looks	-11.5414
▁Tap	-11.5414
▁chilly	-11.5415
▁Arizona	-11.5416
▁applied	-11.5416
▁bridal	-11.5416
berry	-11.5417
▁covering	-11.5424
ueen	-11.5426
real	-11.5431
▁Google	-11.5432
▁Honda	-11.5432
▁District	-11.5432
▁antique	-11.5432
▁Jackson	-11.5433
▁ka	-11.5435
▁shaped	-11.5442
▁frustration	-11.5448
▁hollandaise	-11.5448
▁splurge	-11.5448
▁ghost	-11.5449
▁chargrilled	-11.5449
box	-11.5452
▁legal	-11.5456
▁bug	-11.5461
▁hitting	-11.5464
▁causing	-11.5465
▁flip	-11.5465
▁creating	-11.5465
▁source	-11.5467
▁sketchy	-11.5467
▁transfer	-11.5467
▁deviled	-11.5468
▁imp	-11.5471
▁skewers	-11.5471
▁(1	-11.5472
By	-11.5474
VE	-11.5479
hop	-11.5485
Stay	-11.549
▁Las	-11.549
▁thankfully	-11.5492
▁cases	-11.5493
▁exp	-11.5494
▁cent	-11.5501
▁BO	-11.5501
▁Pop	-11.5504
▁leftover	-11.5511
▁progress	-11.5512
ati	-11.5514
▁Terminal	-11.5515
▁steer	-11.552
▁pushing	-11.5523
▁electric	-11.5524
▁national	-11.5528
lon	-11.5529
▁Francisco	-11.5532
▁Lisa	-11.5532
▁scent	-11.5533
AY	-11.5534
▁ears	-11.5541
ara	-11.5542
▁housekeeping	-11.5548
▁denied	-11.5548
gr	-11.555
▁Oak	-11.5553
▁Delivery	-11.5553
▁recognize	-11.5554
ute	-11.5558
cc	-11.5559
▁sourdough	-11.5565
▁rye	-11.5565
80	-11.5566
▁Told	-11.5571
▁paste	-11.5572
▁Run	-11.5575
▁Close	-11.5576
▁brain	-11.5578
▁Land	-11.5581
▁responsible	-11.5581
▁attack	-11.5583
▁yo	-11.5584
▁girlfriends	-11.5584
▁MA	-11.5589
minute	-11.5591
vis	-11.5591
▁performed	-11.5594
▁Dar	-11.5595
▁sur	-11.5598
▁warmed	-11.5598
▁warn	-11.5598
▁harder	-11.5598
log	-11.5599
▁shipped	-11.5599
care	-11.5604
view	-11.5605
▁200	-11.5605
▁beets	-11.5606
▁enthusiastic	-11.5607
CA	-11.5613
▁1/4	-11.5615
Ho	-11.5615
▁okra	-11.5619
▁Turns	-11.562
▁blended	-11.562
▁discounts	-11.563
▁pricier	-11.5632
▁Mango	-11.5636
▁Sch	-11.564
▁warrant	-11.5642
▁displayed	-11.5647
▁(4	-11.5648
▁rabbit	-11.5649
rent	-11.5654
▁Classic	-11.5656
hour	-11.5656
▁Pass	-11.5656
fire	-11.5657
train	-11.5657
ito	-11.5659
▁BYO	-11.566
▁Drive	-11.5661
ound	-11.5662
▁pouring	-11.5663
▁Within	-11.5664
▁baguette	-11.5666
▁guitar	-11.5666
▁library	-11.5666
▁succulent	-11.5666
▁hookah	-11.5666
nge	-11.5666
▁2014	-11.5668
▁Eric	-11.5673
▁buildings	-11.5673
▁pee	-11.5674
▁Salt	-11.568
▁bummed	-11.5683
▁crafted	-11.5685
▁county	-11.5686
▁rushing	-11.5688
ther	-11.5689
▁4/5	-11.569
tti	-11.5693
ology	-11.5694
▁seeds	-11.5697
ache	-11.5698
▁fudge	-11.5699
Ro	-11.57
▁sticking	-11.5701
▁WE	-11.5705
cca	-11.5711
▁delivers	-11.5716
▁Fat	-11.5717
▁Left	-11.5717
▁Palm	-11.5718
▁customize	-11.5719
▁berry	-11.5724
▁ppl	-11.5728
gri	-11.5729
▁slammed	-11.5733
▁pretend	-11.5735
▁Unless	-11.5735
▁Clearly	-11.5735
▁remaining	-11.5744
▁doughy	-11.5746
▁hrs	-11.5746
▁spotless	-11.5749
▁preparing	-11.575
mail	-11.5759
bl	-11.5766
▁extraordinary	-11.5768
gle	-11.5778
▁highway	-11.5781
▁eaters	-11.5782
▁rotating	-11.5784
▁arrives	-11.5788
▁Noodles	-11.5789
▁Creole	-11.5789
▁technicians	-11.5791
▁cast	-11.58
▁Country	-11.5801
▁confidence	-11.5801
▁luggage	-11.5801
▁replacing	-11.5801
▁admission	-11.5802
▁pat	-11.5802
▁playground	-11.5802
ban	-11.5803
▁debit	-11.5803
▁crown	-11.581
Today	-11.5812
▁Town	-11.5816
35	-11.5816
▁tent	-11.5817
▁Eagle	-11.5819
▁Manhattan	-11.5819
▁habit	-11.5819
▁occasional	-11.582
▁poisoning	-11.5821
▁queen	-11.5822
▁excuses	-11.5826
thing	-11.5828
▁mat	-11.5829
▁loan	-11.5832
▁newly	-11.5834
rays	-11.5835
▁lavender	-11.5836
▁Expect	-11.5836
▁fabric	-11.5836
▁interact	-11.5836
▁Springs	-11.5839
▁Going	-11.584
▁Perfectly	-11.584
tle	-11.5842
▁bake	-11.5846
▁poutine	-11.5853
▁reference	-11.5854
▁Unlike	-11.5854
dis	-11.5864
▁Max	-11.5866
han	-11.5867
▁activity	-11.587
▁Subway	-11.5871
▁depth	-11.5871
▁skipped	-11.5871
▁disgusted	-11.5873
▁loudly	-11.5874
▁grandma	-11.5874
notch	-11.5875
▁gf	-11.588
▁ER	-11.5882
▁lab	-11.5885
▁Tennessee	-11.5887
▁diamond	-11.5887
▁magazine	-11.5887
▁bulk	-11.5887
▁patiently	-11.5888
▁bored	-11.5889
:)	-11.5893
umb	-11.5894
rab	-11.5897
▁HORRIBLE	-11.5899
▁Beware	-11.5902
▁whoever	-11.5904
▁Rangoon	-11.5905
▁motel	-11.5905
net	-11.5906
▁anticipated	-11.5909
▁Dunkin	-11.591
▁arrangements	-11.5916
▁infused	-11.5922
▁visible	-11.5922
▁breadsticks	-11.5922
▁reported	-11.5922
▁complicated	-11.5925
US	-11.593
now	-11.5931
▁hike	-11.5931
ans	-11.5933
▁quit	-11.5934
istic	-11.5938
▁Neither	-11.5939
▁seemingly	-11.5941
▁stroll	-11.5942
▁leche	-11.5946
ening	-11.5947
▁traveled	-11.5952
▁efficiently	-11.5955
▁sirloin	-11.5957
▁Double	-11.5961
era	-11.5969
pu	-11.597
OUS	-11.5971
▁chances	-11.5971
illo	-11.5973
▁marg	-11.5973
▁freezing	-11.5978
▁Ru	-11.5981
▁4-5	-11.5983
▁Latin	-11.5984
thy	-11.5984
Another	-11.5985
bird	-11.5986
▁li	-11.5988
▁comforting	-11.5989
▁George	-11.5991
▁pleasing	-11.5991
▁exist	-11.5992
tail	-11.5993
▁uber	-11.5993
▁outdoors	-11.5993
▁2020	-11.6
▁BF	-11.6
▁tends	-11.6002
▁updates	-11.6006
▁drag	-11.6007
▁celery	-11.6009
▁Lou	-11.6013
▁Down	-11.6014
▁fills	-11.6022
▁caesar	-11.6026
▁VIP	-11.6026
▁reschedule	-11.6029
▁provider	-11.6031
▁Ford	-11.6036
▁Ranch	-11.6038
▁brief	-11.604
dent	-11.6043
▁Due	-11.6044
-1	-11.6046
▁frames	-11.6047
▁moments	-11.6047
▁dumpling	-11.6052
▁repeated	-11.6054
▁flawless	-11.6062
12	-11.6063
▁bench	-11.6065
nu	-11.6066
▁Hand	-11.6069
▁trusted	-11.6077
▁freshest	-11.6078
▁planet	-11.6078
▁underneath	-11.6079
70	-11.6082
▁nu	-11.6091
▁apologies	-11.6097
▁born	-11.6098
▁Mine	-11.6103
Gr	-11.6105
▁demand	-11.6109
ept	-11.6113
▁trivia	-11.6114
▁European	-11.6118
▁reviewing	-11.6118
▁stays	-11.6121
▁covers	-11.6123
▁separately	-11.6126
▁supposedly	-11.613
▁Instagram	-11.6132
▁gentlemen	-11.6132
▁gator	-11.6133
▁wasting	-11.6147
▁MI	-11.615
▁knee	-11.615
▁silly	-11.615
▁brakes	-11.6153
▁Tour	-11.6157
▁Shame	-11.6157
THE	-11.6158
again	-11.6164
ering	-11.6165
▁ju	-11.6166
put	-11.6167
▁perk	-11.6167
▁disorganized	-11.6167
▁consultation	-11.6168
wall	-11.6171
▁gathering	-11.6172
▁reheated	-11.6173
▁talent	-11.6174
▁lacks	-11.6175
▁maker	-11.6176
Update	-11.6179
▁immediate	-11.6179
▁Trader	-11.6185
▁associates	-11.6186
▁alarm	-11.6187
▁designer	-11.6187
cial	-11.6193
high	-11.6198
▁skilled	-11.6199
▁OUT	-11.62
▁Tomato	-11.6201
▁confusion	-11.6203
▁tow	-11.6205
oooo	-11.6207
▁Wouldn	-11.6208
▁Jazz	-11.6214
Cute	-11.6217
NS	-11.6218
▁WITH	-11.6221
▁friendliest	-11.6221
tive	-11.6226
▁jo	-11.6226
▁dime	-11.6229
pic	-11.6231
oy	-11.6232
▁trails	-11.6232
▁Cheap	-11.6233
▁hated	-11.6233
claim	-11.6233
OO	-11.6236
▁Fitness	-11.6239
▁carried	-11.6239
▁Wendy	-11.6239
▁solely	-11.6239
▁wound	-11.624
▁cashiers	-11.6248
▁desperate	-11.6251
most	-11.6252
▁McDonalds	-11.6252
▁3-	-11.6253
bble	-11.6254
▁plumbing	-11.6257
▁slip	-11.6257
▁Orange	-11.6257
▁appliances	-11.626
▁indicated	-11.6266
▁reality	-11.6267
▁directions	-11.6269
▁Year	-11.6271
▁crackers	-11.6271
▁wiped	-11.6273
▁unbelievably	-11.6274
▁niece	-11.6274
▁Silver	-11.6275
▁Hop	-11.6275
▁micro	-11.6275
▁Bri	-11.6279
think	-11.6281
▁candles	-11.6283
▁cigarette	-11.6285
▁Bern	-11.6287
bel	-11.6289
▁thousands	-11.6289
▁historical	-11.629
▁Acme	-11.6293
worker	-11.6304
self	-11.6306
ule	-11.6308
▁delayed	-11.631
▁z	-11.631
bie	-11.631
▁surface	-11.631
▁Mid	-11.6321
FF	-11.6321
▁drip	-11.6322
-10	-11.6322
ich	-11.6322
sure	-11.6325
▁adjacent	-11.6328
▁execution	-11.6328
▁houses	-11.6331
▁matched	-11.6335
▁marks	-11.6338
▁magical	-11.6344
▁fi	-11.6346
▁instance	-11.6346
▁bold	-11.6349
▁Mill	-11.6349
▁spoken	-11.6351
▁triple	-11.6358
Decent	-11.6359
▁Tso	-11.636
▁specialize	-11.6361
▁exposed	-11.6364
▁television	-11.6365
▁Wawa	-11.6365
ima	-11.6367
▁Mad	-11.6367
▁fruity	-11.6371
▁beforehand	-11.6372
ese	-11.6375
▁purchases	-11.6377
▁senior	-11.6383
▁pinch	-11.6384
ura	-11.6385
▁belong	-11.6396
▁Served	-11.6401
▁channel	-11.6401
▁Johnny	-11.6402
ink	-11.6406
▁cucumbers	-11.6407
something	-11.6414
▁ASAP	-11.6419
▁Mahi	-11.642
▁connection	-11.6422
HO	-11.6423
rick	-11.6423
▁rides	-11.6424
spect	-11.6425
▁Sub	-11.6429
week	-11.6433
▁ale	-11.6433
igh	-11.6433
▁Hub	-11.6437
▁(5	-11.6444
▁PI	-11.6445
▁Sw	-11.6447
nnie	-11.6449
5.00	-11.645
▁wake	-11.6451
▁Enjoyed	-11.6452
▁prove	-11.6454
▁croissants	-11.6455
▁electronic	-11.6455
Di	-11.646
▁kit	-11.6465
▁lawn	-11.6467
▁Ray	-11.6467
▁mug	-11.6468
Fun	-11.6472
▁dan	-11.6472
▁elderly	-11.6474
▁Filet	-11.6475
▁unsure	-11.6475
▁Dis	-11.648
▁pale	-11.6486
ced	-11.6488
▁peace	-11.649
"...	-11.6491
▁capacity	-11.6492
▁$150	-11.6494
▁foam	-11.6494
▁pastas	-11.6496
▁lunchtime	-11.6501
pack	-11.6501
Po	-11.6503
▁Paris	-11.6504
▁apparent	-11.6504
Overall	-11.6506
▁Holy	-11.6508
▁patch	-11.6509
▁rescue	-11.651
small	-11.6512
steak	-11.6516
ib	-11.6518
lk	-11.6521
ured	-11.6523
▁$45	-11.6523
▁resident	-11.6524
except	-11.6527
▁speedy	-11.6528
▁proximity	-11.6529
▁target	-11.6529
▁Employees	-11.6529
▁dripping	-11.6529
▁Yet	-11.6535
▁fa	-11.654
▁discounted	-11.6541
▁roughly	-11.6544
▁Ce	-11.6546
▁Stone	-11.6546
▁Ybor	-11.6548
▁Cheers	-11.6549
▁finest	-11.6552
▁delivering	-11.6557
▁profit	-11.6558
▁para	-11.6562
▁NOTHING	-11.6566
▁Win	-11.6566
▁Rude	-11.6566
▁reaction	-11.6566
coming	-11.6569
▁drizzled	-11.6579
▁stole	-11.6582
▁dare	-11.6584
▁Michelle	-11.6584
▁deserved	-11.6588
▁distinct	-11.659
▁complement	-11.6591
ify	-11.6593
▁pu	-11.6599
▁title	-11.6603
▁relief	-11.6603
▁Maria	-11.6604
▁crusted	-11.6606
▁streets	-11.6607
▁Sparks	-11.661
▁significantly	-11.6611
▁DC	-11.6612
▁bouncer	-11.6613
▁piled	-11.6616
▁seek	-11.6617
▁napkin	-11.6618
▁Va	-11.6618
▁chosen	-11.6618
yr	-11.6631
▁oriented	-11.6632
ato	-11.6635
▁arms	-11.6636
▁toes	-11.6639
▁advertising	-11.664
▁Jessica	-11.664
▁Charlie	-11.664
▁liver	-11.6641
▁log	-11.6643
amp	-11.6644
▁rang	-11.6647
▁cu	-11.6656
▁Yo	-11.6658
▁jumbo	-11.6658
▁leaf	-11.6659
▁image	-11.6661
fin	-11.6667
▁herb	-11.6674
▁compete	-11.6677
▁DID	-11.6677
▁intention	-11.6677
▁automatically	-11.6677
▁reward	-11.6678
▁dietary	-11.6678
tta	-11.6686
▁mobile	-11.6686
going	-11.6693
▁Son	-11.6693
▁Gold	-11.6695
▁Calamari	-11.6696
▁babies	-11.6696
▁riding	-11.6701
▁burning	-11.6701
serv	-11.6702
▁honesty	-11.6704
rian	-11.6705
▁overdone	-11.6708
▁remain	-11.6708
▁carb	-11.6709
Hi	-11.671
▁drenched	-11.6716
PE	-11.672
▁birds	-11.672
▁Diego	-11.6733
▁hilarious	-11.6733
hand	-11.6736
▁Rolls	-11.6738
▁american	-11.6738
▁colleagues	-11.6738
▁lets	-11.6743
▁shorter	-11.6744
cream	-11.6745
store	-11.6746
▁expectation	-11.6747
seasoned	-11.6752
▁allergic	-11.6752
▁brioche	-11.6752
cted	-11.6753
▁laser	-11.6753
▁stools	-11.6753
▁Katie	-11.6754
▁Part	-11.6754
▁linger	-11.6756
▁Book	-11.6756
▁tailor	-11.6757
▁naturally	-11.6757
▁sleeping	-11.6758
▁stuffing	-11.6758
▁wo	-11.6761
ification	-11.6764
▁max	-11.6766
mos	-11.6766
▁serviced	-11.6768
ral	-11.6769
▁casserole	-11.6771
▁availability	-11.6771
▁Might	-11.6773
▁lattes	-11.6774
▁sprinkled	-11.6781
ability	-11.6783
▁$70	-11.6785
wl	-11.6788
print	-11.6788
▁tamale	-11.6789
▁tissue	-11.679
▁Seating	-11.6794
▁backed	-11.6796
fil	-11.6802
nn	-11.6803
spicy	-11.6805
▁combos	-11.6805
bou	-11.6806
▁Key	-11.6806
▁substantial	-11.6809
▁overlooking	-11.681
▁witnessed	-11.6814
pass	-11.6819
▁Justin	-11.6822
▁sauteed	-11.6828
▁Kelly	-11.6828
▁Milk	-11.6828
▁lap	-11.6829
Li	-11.6832
▁Fil	-11.6834
▁notified	-11.6835
▁Cali	-11.6837
▁baristas	-11.6838
▁Amy	-11.6839
hood	-11.6844
DE	-11.6844
▁friendliness	-11.6847
▁horrendous	-11.6847
▁Girl	-11.6847
bag	-11.685
▁freak	-11.6851
dr	-11.6856
▁rim	-11.6858
▁overbearing	-11.6866
▁strike	-11.6866
▁WiFi	-11.6866
▁engagement	-11.6866
▁baseball	-11.6866
▁Third	-11.6871
cat	-11.6874
▁staring	-11.6876
zu	-11.6877
DA	-11.6878
still	-11.6878
▁snap	-11.6884
▁pathetic	-11.6885
▁assigned	-11.6885
▁drawback	-11.6885
▁professionally	-11.6886
▁Fla	-11.6891
▁outfit	-11.6892
▁roommate	-11.6892
▁cal	-11.6893
▁$80	-11.6893
▁Ron	-11.69
▁attempts	-11.6901
▁lentil	-11.6904
▁decade	-11.6905
rg	-11.6905
▁Simply	-11.6905
▁tower	-11.6907
TS	-11.6909
▁lake	-11.6911
did	-11.6918
▁bud	-11.6923
▁Beyond	-11.6927
rew	-11.6933
LO	-11.6939
-5	-11.694
▁cloth	-11.6942
▁bistro	-11.6942
▁Until	-11.6942
▁rotate	-11.6944
▁Golden	-11.6948
ERO	-11.6953
▁patronize	-11.6953
▁shi	-11.6956
▁aisles	-11.6956
▁intense	-11.6962
▁rug	-11.6963
▁martinis	-11.6973
ttle	-11.6973
▁standout	-11.6973
▁essential	-11.6974
▁backyard	-11.6977
▁Swiss	-11.6981
▁Chester	-11.6981
▁sparkling	-11.6981
▁surf	-11.6981
▁largest	-11.6983
ffe	-11.6987
▁spirits	-11.6988
▁ko	-11.699
UN	-11.699
▁closet	-11.6991
▁inquired	-11.6993
▁boots	-11.6995
▁questioned	-11.6996
green	-11.6997
▁justify	-11.6997
eh	-11.7
▁BTW	-11.7
▁anxious	-11.7
▁Nutella	-11.7
▁Bagel	-11.7
gn	-11.7009
pay	-11.701
▁tint	-11.7017
▁worries	-11.7019
▁Ci	-11.702
▁salesperson	-11.702
▁teacher	-11.7027
RY	-11.7029
▁melts	-11.7029
ula	-11.7032
▁fur	-11.7033
▁matcha	-11.7034
▁Salsa	-11.7039
clean	-11.7041
▁refried	-11.7041
Lo	-11.7045
ku	-11.7048
mid	-11.7055
▁Chang	-11.7055
▁structure	-11.7058
▁method	-11.7058
▁feast	-11.7058
▁randomly	-11.7059
▁DON	-11.7062
▁clo	-11.7065
egg	-11.7067
▁leaking	-11.7067
front	-11.7067
▁overlooked	-11.7069
▁carts	-11.7075
▁deliciously	-11.7075
▁Birthday	-11.7077
▁brulee	-11.7077
▁frites	-11.7077
▁bachelorette	-11.7077
▁cuban	-11.7077
▁expertise	-11.7078
▁tear	-11.708
▁contained	-11.7084
▁flan	-11.7085
▁Given	-11.7086
▁Buffet	-11.7097
▁primarily	-11.7097
▁sorbet	-11.7097
▁finance	-11.7097
▁MUCH	-11.7097
▁device	-11.7097
▁chipped	-11.7098
fo	-11.7099
▁sections	-11.7104
▁tricky	-11.711
▁scream	-11.7113
▁Hol	-11.7113
pick	-11.7114
▁Magazine	-11.7116
▁catered	-11.7117
▁falls	-11.7117
▁basics	-11.7119
▁Ann	-11.7128
▁23	-11.7129
▁stink	-11.7129
▁Roasted	-11.713
▁TH	-11.7133
Probably	-11.7133
▁canal	-11.7135
▁purple	-11.7136
▁plumber	-11.7136
▁web	-11.7136
▁dock	-11.7136
▁Br	-11.7136
▁sal	-11.7137
▁Nor	-11.7138
▁Fin	-11.714
▁procedures	-11.7141
▁active	-11.7143
▁stressed	-11.7144
vine	-11.7148
▁Um	-11.715
▁appropriately	-11.715
▁crabs	-11.7152
RA	-11.7153
▁HO	-11.7155
▁kiosk	-11.7155
▁spilled	-11.7162
cio	-11.7165
▁accordingly	-11.7166
▁remodeled	-11.7166
wan	-11.717
▁operated	-11.717
▁discussed	-11.7171
▁Coming	-11.7173
Last	-11.7174
▁YES	-11.7175
▁2013	-11.7177
▁sits	-11.7177
▁solo	-11.7179
▁teach	-11.7179
▁thousand	-11.7179
▁struggle	-11.718
mmmm	-11.7181
▁coating	-11.7182
▁gi	-11.7182
▁hostesses	-11.7184
rb	-11.7187
▁Med	-11.7187
TO	-11.7191
▁crusty	-11.7193
▁contrast	-11.7194
▁expense	-11.7194
▁sessions	-11.7197
▁Stick	-11.7199
▁expressed	-11.72
▁deserts	-11.7203
▁Later	-11.7204
▁fortunate	-11.7208
ught	-11.7211
▁factory	-11.7212
ature	-11.7215
thank	-11.7219
▁arranged	-11.722
non	-11.7225
▁radio	-11.723
▁TWO	-11.7234
▁GET	-11.7235
▁pros	-11.7236
▁depends	-11.7236
LOVE	-11.7237
▁killed	-11.724
90	-11.7242
then	-11.7243
▁crying	-11.7245
je	-11.7246
▁mornings	-11.7248
▁fourth	-11.7252
▁HI	-11.7255
▁cur	-11.7258
▁lunches	-11.7259
▁drawn	-11.726
▁bao	-11.726
▁BS	-11.7262
▁spit	-11.7267
set	-11.7272
Found	-11.7273
▁hurricane	-11.7273
Ja	-11.7275
▁cardboard	-11.7277
▁aisle	-11.7279
▁attitudes	-11.7279
TA	-11.7281
ively	-11.7285
▁$500	-11.7285
▁units	-11.729
▁Guy	-11.7297
▁indoors	-11.7303
ili	-11.731
Honestly	-11.7311
▁chunk	-11.7312
▁slab	-11.7314
▁revisit	-11.7314
▁luxury	-11.7317
▁signage	-11.7321
!!!!!!!!	-11.7328
pol	-11.7329
▁survive	-11.7333
▁Favorite	-11.7333
▁HAD	-11.7334
gun	-11.7334
▁cod	-11.7336
▁Tin	-11.7339
▁scoops	-11.7343
▁sweeter	-11.7344
▁height	-11.7351
Where	-11.7351
▁exotic	-11.7353
▁medicine	-11.7353
serve	-11.7353
▁irritated	-11.7355
▁institution	-11.7355
▁lanes	-11.7358
▁fritters	-11.7358
▁ne	-11.7359
▁operate	-11.736
▁pea	-11.7364
nne	-11.7364
▁displays	-11.7366
perfect	-11.7371
▁breaks	-11.7372
▁Nevada	-11.7373
▁polenta	-11.7373
▁strength	-11.7373
▁Doctor	-11.7374
▁chilled	-11.7378
ison	-11.7379
iate	-11.7382
gh	-11.7384
Boy	-11.7387
▁tears	-11.7388
▁sneak	-11.7391
▁Applebee	-11.7393
▁childhood	-11.7393
▁epic	-11.7395
▁connect	-11.7396
▁guaranteed	-11.74
▁Cla	-11.7401
▁fryer	-11.7402
▁attract	-11.7403
▁treating	-11.7407
▁Post	-11.7409
rant	-11.7409
stop	-11.741
▁silver	-11.7413
▁Halloween	-11.7413
▁peanuts	-11.7414
▁whip	-11.7414
▁Considering	-11.7416
▁whiz	-11.7419
Yum	-11.742
▁eh	-11.7421
▁lifetime	-11.7421
▁SA	-11.7426
▁norm	-11.7426
▁Beans	-11.743
ington	-11.7431
ek	-11.7432
▁decades	-11.7432
▁cancellation	-11.7433
▁trek	-11.7433
▁countless	-11.7436
load	-11.7437
▁tape	-11.7438
their	-11.7442
▁staples	-11.7448
▁Chu	-11.7451
▁dreams	-11.7452
▁exploring	-11.7453
▁injury	-11.7453
NA	-11.7458
stick	-11.7463
▁holds	-11.7464
▁skimpy	-11.7465
pose	-11.7466
That	-11.7469
▁rat	-11.7472
ddy	-11.7473
▁tin	-11.7474
▁Sarah	-11.7476
▁rag	-11.7477
▁hotdog	-11.7478
▁Walk	-11.7479
aid	-11.7483
▁!!!!	-11.7486
look	-11.7486
▁Sl	-11.7487
From	-11.7493
▁lame	-11.7493
delicious	-11.7493
▁concession	-11.7494
▁shawarma	-11.7494
▁Petersburg	-11.7494
▁Palace	-11.7494
▁scramble	-11.7499
▁elevators	-11.75
▁gyros	-11.7501
▁4-	-11.7508
range	-11.751
pen	-11.7512
▁volunteer	-11.7514
▁Nachos	-11.7514
▁Reasonable	-11.7514
▁del	-11.7515
▁Under	-11.7523
Le	-11.7527
ards	-11.7529
▁ranging	-11.7529
▁curl	-11.7531
▁independent	-11.7534
▁jumped	-11.7538
▁painless	-11.754
▁Baked	-11.7542
keep	-11.7544
hhhh	-11.7548
▁tartare	-11.7548
wow	-11.7549
east	-11.7549
▁Eye	-11.7551
▁1:	-11.7553
▁Amazon	-11.7555
▁category	-11.7555
▁chimichanga	-11.7555
▁hockey	-11.7555
▁Style	-11.7555
▁btw	-11.7556
▁drum	-11.7556
▁cry	-11.7556
):	-11.7558
▁amounts	-11.7564
ender	-11.7571
▁formal	-11.7573
regular	-11.7574
ani	-11.7575
▁chalk	-11.7575
▁application	-11.7575
▁curbside	-11.7576
▁broad	-11.7576
nothing	-11.7576
▁acting	-11.7577
yum	-11.7577
TH	-11.7583
▁Lovely	-11.7584
uh	-11.7584
ico	-11.7588
▁Daniel	-11.7595
▁cable	-11.7596
▁condo	-11.7597
▁Mai	-11.7598
▁Week	-11.7602
▁Yu	-11.7604
▁albeit	-11.7606
▁te	-11.7609
▁filed	-11.7611
▁Mama	-11.7614
▁passenger	-11.7616
)...	-11.7621
▁drizzle	-11.7622
CO	-11.7623
▁stout	-11.7623
▁Station	-11.7629
▁microwaved	-11.7634
Place	-11.7636
▁tempted	-11.7638
▁shall	-11.764
▁4:30	-11.764
▁weeknight	-11.7643
▁Summer	-11.7658
▁unassuming	-11.7658
VI	-11.7672
▁Iron	-11.7677
▁updating	-11.7678
▁AWAY	-11.768
open	-11.7683
zzy	-11.7683
▁inattentive	-11.7687
▁Rick	-11.7689
▁Interesting	-11.7691
▁remodel	-11.7696
With	-11.7698
▁Grove	-11.7699
▁touches	-11.7707
▁Ser	-11.7708
);	-11.7708
?!?!	-11.7711
▁owe	-11.7712
▁admitted	-11.7717
dinner	-11.7719
▁concrete	-11.7719
▁hospitable	-11.7719
▁relleno	-11.7719
sauce	-11.772
looking	-11.772
▁warmly	-11.7721
▁stain	-11.7721
▁Box	-11.7724
▁signing	-11.7725
▁overlook	-11.7728
▁Put	-11.773
▁remained	-11.7732
▁requires	-11.7734
▁Review	-11.7737
▁Brad	-11.7737
..."	-11.7742
▁sandwhich	-11.7743
▁walnut	-11.7752
▁Sh	-11.7757
▁slower	-11.776
▁region	-11.776
▁JUST	-11.7761
hh	-11.7763
▁suddenly	-11.7765
▁Camp	-11.7766
▁differently	-11.7767
▁stickers	-11.7768
▁ke	-11.7768
▁sch	-11.777
▁Felt	-11.777
▁homeless	-11.777
▁UPS	-11.7772
▁ci	-11.7776
Cool	-11.7776
▁Bru	-11.778
del	-11.7781
▁sparse	-11.7782
▁skinny	-11.7784
▁Angeles	-11.7784
▁smelling	-11.7793
▁material	-11.7794
▁Brussel	-11.7794
RR	-11.7795
▁Hut	-11.7796
▁Cost	-11.78
▁paneer	-11.7802
▁peel	-11.7809
▁speaks	-11.7813
▁cardio	-11.7814
▁spirit	-11.7817
▁beats	-11.7817
▁Buck	-11.7819
▁Jam	-11.7822
▁Prince	-11.7823
▁cranberry	-11.7823
▁kebab	-11.7823
▁player	-11.7831
▁pier	-11.7837
▁doughnut	-11.7837
▁Authentic	-11.784
graph	-11.7843
▁evident	-11.7844
probably	-11.7845
▁partial	-11.7845
Although	-11.7845
▁berries	-11.7845
▁expired	-11.785
ami	-11.785
▁sons	-11.7851
bal	-11.7851
▁nine	-11.7853
type	-11.7861
duc	-11.7863
ups	-11.7863
▁Julie	-11.7866
Pizza	-11.7866
▁Poke	-11.7868
Who	-11.7874
▁coated	-11.7874
▁Years	-11.7875
▁Barrel	-11.7876
▁dent	-11.7877
▁vendor	-11.7879
▁suffer	-11.7884
▁charbroiled	-11.7886
why	-11.7889
▁Tra	-11.7894
▁fla	-11.7897
▁op	-11.79
gio	-11.79
▁renovation	-11.7901
▁Van	-11.7901
▁tune	-11.7901
▁pillow	-11.7901
▁Turn	-11.7902
▁Spice	-11.7904
▁Crawfish	-11.7908
▁connoisseur	-11.7908
▁horribly	-11.7908
▁Eventually	-11.7908
▁Jeep	-11.7908
▁SH	-11.7909
!!!!!!!	-11.7912
▁mechanics	-11.7913
▁powdered	-11.7913
▁handmade	-11.7914
ching	-11.7924
▁Mor	-11.7925
▁cuticles	-11.7928
▁assisted	-11.7929
▁Ms	-11.7931
▁filler	-11.7931
own	-11.7934
▁5-10	-11.7935
▁dill	-11.7935
▁stare	-11.7935
▁4)	-11.7945
▁Cookie	-11.7945
▁guided	-11.7945
bell	-11.7946
gin	-11.7948
▁Bed	-11.7949
▁hesitation	-11.795
▁primary	-11.795
▁versus	-11.795
▁overrated	-11.795
▁carrying	-11.795
▁Bridge	-11.7951
▁embarrassing	-11.7953
▁Papa	-11.7956
▁eel	-11.7957
fit	-11.7962
▁Noodle	-11.7966
ev	-11.7969
▁wandering	-11.797
▁posting	-11.7971
▁Saw	-11.7971
▁journey	-11.7971
▁thrift	-11.7971
▁hence	-11.7972
Small	-11.7972
▁swim	-11.7975
▁searched	-11.7976
eur	-11.7976
▁Sum	-11.7978
▁UP	-11.7979
▁consumer	-11.7981
▁bla	-11.7982
▁upside	-11.7984
pho	-11.7986
▁alive	-11.799
▁PERFECT	-11.7992
▁STILL	-11.7992
▁greek	-11.7992
brunch	-11.7993
▁panel	-11.7995
quality	-11.8001
▁textures	-11.8002
▁ge	-11.8006
Wa	-11.8008
▁trays	-11.801
▁false	-11.8014
▁gesture	-11.8014
▁privacy	-11.8014
▁Outside	-11.8015
▁remains	-11.8016
▁severely	-11.802
▁Ven	-11.8021
▁Cup	-11.8022
▁conditions	-11.8022
▁handy	-11.8022
ending	-11.8023
dog	-11.8025
▁Sand	-11.8027
oke	-11.8032
▁alert	-11.8035
▁Living	-11.8036
▁Tan	-11.8045
▁Martin	-11.8048
▁sausages	-11.8051
▁REAL	-11.8051
▁Idaho	-11.8056
▁winning	-11.8057
▁passes	-11.8058
▁Angel	-11.8068
▁$$	-11.8069
▁instant	-11.8072
DI	-11.8077
CELLENT	-11.8078
▁uniform	-11.8078
Pe	-11.8078
▁Eastern	-11.8082
▁hosts	-11.8082
▁regards	-11.8088
▁alterations	-11.8091
▁curds	-11.8096
▁Metairie	-11.8099
▁expand	-11.8101
ional	-11.8104
▁PLEASE	-11.8106
▁severe	-11.8107
▁parade	-11.8108
▁jalapenos	-11.8108
▁specialist	-11.811
▁brie	-11.811
▁gen	-11.8113
▁effective	-11.8116
fun	-11.8116
▁AYCE	-11.8121
▁rosemary	-11.8121
▁Mongolian	-11.8121
▁Denny	-11.8122
▁guilty	-11.8124
▁torta	-11.8124
▁meets	-11.8126
state	-11.8127
▁buffets	-11.8128
/18	-11.8128
▁anti	-11.8137
▁cravings	-11.8138
▁loop	-11.814
two	-11.814
▁Belgian	-11.8143
▁THANK	-11.8143
▁pimento	-11.8143
▁ugly	-11.8143
▁skirt	-11.8143
▁complementary	-11.8143
-8	-11.8143
since	-11.8146
owned	-11.8147
▁shy	-11.8149
▁Fox	-11.8149
lea	-11.815
▁CAN	-11.8152
▁carries	-11.8153
inal	-11.8155
ense	-11.8161
▁lamp	-11.8163
▁hr	-11.8164
▁Rachel	-11.8164
▁Rob	-11.8166
▁pairs	-11.8167
▁fold	-11.8172
ello	-11.8172
▁Gave	-11.8173
kind	-11.8177
▁absurd	-11.8186
▁experiencing	-11.8186
▁lousy	-11.8186
▁souvenir	-11.8186
▁hustle	-11.8186
▁Bank	-11.8186
▁limp	-11.8187
▁upfront	-11.8188
▁costume	-11.819
OM	-11.8194
▁Smoked	-11.8198
▁gown	-11.8201
▁savor	-11.8201
served	-11.8204
▁praline	-11.8208
▁taught	-11.8208
▁meter	-11.8209
▁Life	-11.8211
▁haircuts	-11.8212
▁Cho	-11.8214
▁flu	-11.8215
▁crumbs	-11.8222
▁trailer	-11.8222
▁Gen	-11.8223
ridge	-11.8225
hard	-11.8228
▁Peter	-11.8229
▁granola	-11.8229
▁scenery	-11.8232
▁Doesn	-11.8233
▁function	-11.8234
▁pal	-11.8234
TY	-11.8236
16	-11.8236
▁garnish	-11.8237
▁touching	-11.8239
▁ob	-11.8247
▁renting	-11.8248
▁scallion	-11.8249
uro	-11.825
▁Pulled	-11.8251
▁salami	-11.8251
▁proportion	-11.8251
▁sky	-11.8252
shirt	-11.8252
lunch	-11.8256
▁addicted	-11.8257
eye	-11.8265
rage	-11.8265
nstru	-11.8266
▁seeking	-11.8266
▁beside	-11.8266
▁Work	-11.8267
BO	-11.8271
▁croutons	-11.8273
▁fluid	-11.8274
zer	-11.8274
▁evenings	-11.8276
▁Chop	-11.8276
▁renew	-11.8276
▁lid	-11.8277
▁Mel	-11.8282
▁fre	-11.8284
Car	-11.8293
dra	-11.8295
▁buyer	-11.8295
▁Strawberry	-11.8295
▁paella	-11.8295
course	-11.8297
▁cashew	-11.8298
okay	-11.8298
▁Nobody	-11.8298
eff	-11.8302
▁Margaritas	-11.8303
▁expanded	-11.8307
-6	-11.8307
make	-11.8307
gas	-11.8308
▁lined	-11.8309
▁dozens	-11.8313
▁National	-11.8317
▁boarding	-11.8317
▁Middle	-11.8318
▁SP	-11.8318
▁clueless	-11.8319
▁RV	-11.8323
▁cones	-11.8328
Al	-11.8328
Only	-11.8333
▁angel	-11.8335
▁quicker	-11.8336
▁rounds	-11.8338
▁Ripple	-11.8339
▁gigantic	-11.8339
▁Sierra	-11.8339
▁Ocean	-11.8339
▁towed	-11.834
▁Anyone	-11.8341
▁penne	-11.8342
▁hub	-11.8347
▁themed	-11.8347
▁voucher	-11.8352
▁pla	-11.8352
▁excessive	-11.8356
▁Solid	-11.8356
▁Pick	-11.8357
▁videos	-11.8361
▁Avocado	-11.8361
▁stream	-11.8361
▁classics	-11.8361
▁1:30	-11.8364
INE	-11.8366
▁thanked	-11.8371
elling	-11.8376
▁AFTER	-11.8383
▁energetic	-11.8383
▁monitor	-11.8383
▁eateries	-11.8385
oma	-11.839
▁Tons	-11.839
▁materials	-11.8392
▁Bud	-11.8393
▁BBB	-11.84
▁fillet	-11.8401
▁nurses	-11.8405
▁Brooklyn	-11.8405
▁permit	-11.8406
▁Harbor	-11.8406
▁pounds	-11.8407
▁hearts	-11.8409
$10	-11.8411
22	-11.8422
▁conditioner	-11.8425
▁RA	-11.8426
▁CVS	-11.8428
▁vibrant	-11.8428
▁splash	-11.8428
▁manicures	-11.8429
▁overheard	-11.843
▁aunt	-11.8431
card	-11.8435
▁requesting	-11.8439
▁props	-11.8441
▁era	-11.8443
▁taxi	-11.8448
▁Cab	-11.8449
▁FROM	-11.845
▁snag	-11.845
▁hiring	-11.8451
body	-11.8454
lia	-11.8461
▁decisions	-11.8462
rin	-11.8465
▁Em	-11.8466
▁Jay	-11.8467
dry	-11.8467
▁perspective	-11.8472
▁STAY	-11.8472
▁Wash	-11.8477
▁outlet	-11.8478
▁cru	-11.8479
▁physically	-11.8481
cook	-11.8489
AND	-11.8492
chon	-11.8493
▁aquarium	-11.8495
▁quirky	-11.8495
▁Gulf	-11.8495
Visiting	-11.8498
▁SE	-11.8498
▁catching	-11.85
▁suits	-11.8501
▁sweetest	-11.8505
▁insult	-11.8508
rest	-11.8509
▁raining	-11.8511
phone	-11.8513
▁qui	-11.8515
▁Makes	-11.8515
▁arguing	-11.8517
sign	-11.8517
Out	-11.8519
▁creepy	-11.8521
▁Ball	-11.8525
▁Low	-11.8527
▁motor	-11.854
13	-11.8542
▁crabmeat	-11.8542
▁Mal	-11.8543
▁Shack	-11.8545
▁fallen	-11.8546
▁Plan	-11.8547
49	-11.8549
▁Bear	-11.8552
▁carpets	-11.8558
▁nap	-11.8561
▁Taylor	-11.8562
▁financial	-11.8562
▁infection	-11.8562
▁straws	-11.8567
▁Social	-11.857
ude	-11.8571
mming	-11.8572
▁Door	-11.8573
▁shopped	-11.8574
count	-11.8575
▁acts	-11.858
▁Farmer	-11.858
▁preserve	-11.8581
▁Bella	-11.8581
▁installer	-11.8583
▁teachers	-11.8584
▁subject	-11.8585
▁WTF	-11.8585
nar	-11.8585
▁boards	-11.8588
bing	-11.8589
▁fuel	-11.859
▁consideration	-11.8593
▁avoided	-11.8596
▁tartar	-11.8596
▁precautions	-11.8601
ace	-11.8603
▁Phoenix	-11.8607
▁architecture	-11.8607
▁adjusted	-11.8609
rig	-11.8609
▁busier	-11.861
Please	-11.8611
▁fam	-11.8614
opped	-11.8614
NT	-11.8622
▁therapy	-11.8622
▁leads	-11.8624
MP	-11.8626
friend	-11.8627
▁caprese	-11.863
▁sufficient	-11.863
▁Plaza	-11.863
▁remarkable	-11.8631
char	-11.8632
▁tro	-11.8634
▁arch	-11.8635
rp	-11.864
▁engaged	-11.864
▁imagined	-11.8642
▁($2	-11.8643
▁ev	-11.8646
▁$22	-11.8648
▁affect	-11.8652
▁iPad	-11.8653
▁Business	-11.8653
▁United	-11.8653
his	-11.8654
▁hangover	-11.8655
must	-11.8658
▁lamps	-11.866
itter	-11.8662
▁ser	-11.8663
OL	-11.8663
▁dear	-11.8665
▁cobbler	-11.8676
erra	-11.8677
▁Cre	-11.8685
▁Ugh	-11.8688
WOW	-11.8688
▁stained	-11.8688
▁reminiscent	-11.8698
▁BACK	-11.8698
▁Cross	-11.87
Since	-11.8702
Two	-11.8702
▁eyebrow	-11.8703
amazing	-11.8703
▁scare	-11.8707
▁accompanying	-11.8709
-3	-11.871
▁cigars	-11.8712
OS	-11.8717
▁fooled	-11.8723
▁fajita	-11.8725
▁caf	-11.8727
▁circumstances	-11.8728
▁Dad	-11.8732
24	-11.8735
plan	-11.8735
▁wondered	-11.8739
▁smiled	-11.8743
▁Speaking	-11.8744
▁beard	-11.8744
▁Baby	-11.8748
▁scrap	-11.8751
▁fillings	-11.8751
▁raisin	-11.8752
CU	-11.8755
▁climb	-11.8756
UCK	-11.8757
ific	-11.8758
vegan	-11.8761
miss	-11.8767
▁Sangria	-11.8767
▁anxiety	-11.8767
▁bleu	-11.8767
▁Crust	-11.8767
▁candied	-11.8767
▁fondue	-11.8767
▁Jamaican	-11.8768
▁mush	-11.8768
▁plays	-11.8771
ora	-11.8772
55	-11.8777
▁Decided	-11.8778
VER	-11.8779
▁rubber	-11.8784
▁becomes	-11.8785
!!)	-11.8786
▁Pool	-11.8787
▁graduation	-11.879
▁spiciness	-11.879
▁USA	-11.8793
▁popping	-11.8794
▁Brie	-11.8798
meh	-11.8799
oodle	-11.8803
▁creativity	-11.8813
▁Holiday	-11.8813
▁Ethiopian	-11.8814
▁unorganized	-11.8814
▁sticker	-11.8815
▁Hair	-11.8817
▁ventured	-11.8817
▁Dry	-11.8819
▁attraction	-11.8819
▁latter	-11.8831
▁attempting	-11.8832
▁sugary	-11.8833
▁estimated	-11.8835
shell	-11.8835
▁struggling	-11.8836
▁properties	-11.8837
▁transferred	-11.8837
▁harsh	-11.8837
▁Met	-11.8837
Outstanding	-11.8841
▁Read	-11.8844
▁inquire	-11.8845
▁represent	-11.8847
▁Ham	-11.8848
turn	-11.8852
hold	-11.8857
0,000	-11.8857
▁shoulders	-11.8859
▁demeanor	-11.886
▁stamp	-11.886
▁Union	-11.8862
ates	-11.8862
▁Ruby	-11.8863
fix	-11.8864
▁renovations	-11.8867
▁TN	-11.8868
▁Jose	-11.887
▁Sour	-11.887
ingly	-11.8872
rite	-11.8873
▁Tru	-11.8873
▁India	-11.8879
▁pri	-11.8882
▁gut	-11.8882
▁inventive	-11.8883
▁yolk	-11.8883
▁belongings	-11.8883
▁capture	-11.8884
▁Monde	-11.8884
▁critical	-11.8886
pon	-11.8889
▁cob	-11.889
▁entertained	-11.889
▁determined	-11.8895
NE	-11.8897
aging	-11.8899
walk	-11.8905
▁CC	-11.8906
▁shank	-11.8906
▁African	-11.8907
▁Fo	-11.891
▁justice	-11.8911
▁Andrew	-11.8913
▁smallest	-11.8915
▁Dirty	-11.8915
▁quarters	-11.8919
MO	-11.8929
▁Secondly	-11.893
▁Gardens	-11.8932
▁someplace	-11.8937
▁Men	-11.8939
▁HE	-11.894
▁Tuesdays	-11.8943
need	-11.8944
18	-11.8947
▁border	-11.8949
gro	-11.8949
▁generously	-11.895
▁moon	-11.8954
▁Completely	-11.8956
Staff	-11.8958
▁Hell	-11.896
▁bur	-11.8962
▁spell	-11.8963
▁crawl	-11.8965
vision	-11.8973
rank	-11.8975
▁Coconut	-11.8976
▁reg	-11.8978
▁visitor	-11.8979
▁separated	-11.8982
xi	-11.8982
cher	-11.8985
▁Nail	-11.8988
▁wire	-11.899
▁tenants	-11.8996
Bar	-11.8997
▁Slow	-11.9
▁rainbow	-11.9
▁Oreo	-11.9
▁Airport	-11.9
▁ol	-11.9002
TED	-11.9005
▁lies	-11.9006
▁fucking	-11.9011
▁pitch	-11.9015
▁Want	-11.9017
▁shopper	-11.9018
▁browsing	-11.9019
UE	-11.9021
ool	-11.9022
▁dissatisfied	-11.9023
▁compassionate	-11.9024
▁blueberries	-11.9024
▁Carne	-11.9025
▁plated	-11.9036
ali	-11.9043
Je	-11.9044
▁meds	-11.9046
▁accompaniment	-11.9047
▁ethnic	-11.9047
▁turnover	-11.9051
aged	-11.9055
▁incorrectly	-11.906
▁cro	-11.9062
▁OH	-11.9063
▁hazelnut	-11.9071
▁integrity	-11.9071
▁sophisticated	-11.9071
▁vermicelli	-11.9071
▁Animal	-11.9071
▁veteran	-11.9071
▁Grouper	-11.9075
zzo	-11.9076
Solid	-11.9077
▁crushed	-11.9077
▁retro	-11.9077
OP	-11.9081
▁designs	-11.9086
▁existed	-11.9087
▁labeled	-11.9088
▁immaculate	-11.9095
▁boast	-11.9095
fast	-11.9103
▁chunky	-11.9103
▁Warm	-11.9104
▁useless	-11.9105
▁27	-11.9105
ulation	-11.9116
▁Caribbean	-11.9118
▁RUDE	-11.9118
▁William	-11.9118
▁$2.50	-11.9119
▁Plate	-11.9119
▁iceberg	-11.9121
▁downfall	-11.9123
▁Ten	-11.9124
▁disrespect	-11.9126
▁diagnosed	-11.9129
▁weights	-11.9133
▁Gri	-11.9135
▁Val	-11.9138
▁sites	-11.9142
▁redeem	-11.9142
▁influence	-11.9142
▁enforce	-11.9142
▁stove	-11.9142
▁buttermilk	-11.9143
▁Sky	-11.9147
PP	-11.9148
Would	-11.9148
▁tang	-11.9149
▁overcharged	-11.915
▁bento	-11.9151
▁agreement	-11.9152
▁approved	-11.9154
Con	-11.9156
▁tremendous	-11.916
▁RO	-11.9163
cious	-11.9165
▁dishwasher	-11.9166
▁Jan	-11.9166
pes	-11.9167
▁rabe	-11.9168
while	-11.9173
through	-11.9174
▁Hey	-11.9175
▁gallo	-11.9181
ote	-11.9181
▁Flo	-11.9183
▁Appetizers	-11.9183
lp	-11.9184
▁Caf	-11.9184
▁Cobb	-11.9185
▁hometown	-11.9189
▁alignment	-11.919
▁concierge	-11.919
▁Ginger	-11.919
▁achieve	-11.9191
▁shitty	-11.9193
▁thinly	-11.9196
▁dingy	-11.9196
▁Ruth	-11.9197
shirts	-11.9198
▁Robin	-11.9209
▁speaker	-11.9213
▁Meanwhile	-11.9214
▁joking	-11.9215
▁wontons	-11.9215
▁$75	-11.9216
▁humble	-11.9217
▁personnel	-11.9217
▁distracted	-11.9217
tel	-11.9217
taste	-11.9218
▁upcoming	-11.9218
▁verify	-11.9222
▁nacho	-11.9223
ann	-11.9225
Ex	-11.9232
▁payments	-11.9235
▁UPDATE	-11.9238
▁Pricing	-11.9238
▁fettuccine	-11.9238
▁aspects	-11.9238
▁stiff	-11.9239
▁basketball	-11.9239
▁Moo	-11.924
leg	-11.9242
▁encouraged	-11.9247
▁safely	-11.9247
oni	-11.925
▁Sit	-11.9253
▁Greg	-11.9255
▁farmers	-11.9262
▁Orlando	-11.9262
▁conclusion	-11.9262
▁Lauren	-11.9263
▁Japan	-11.9263
▁Dip	-11.9264
▁questionable	-11.9272
▁pours	-11.9273
▁technique	-11.9274
▁coin	-11.9279
▁strangers	-11.9282
▁stacked	-11.9283
▁muscles	-11.9283
▁Northern	-11.9287
▁shack	-11.9287
▁sunday	-11.9288
wash	-11.929
drink	-11.929
▁stolen	-11.9291
▁Andy	-11.9291
▁rail	-11.9292
▁parent	-11.9293
etta	-11.9295
▁creations	-11.931
▁munch	-11.9311
▁ceremony	-11.9311
▁nephew	-11.9311
▁luke	-11.9313
▁Fall	-11.9316
▁sever	-11.9321
▁Rooms	-11.9322
▁fuck	-11.9324
▁quotes	-11.9327
▁Grab	-11.9334
▁cereal	-11.9335
▁diagnostic	-11.9335
▁supreme	-11.9335
▁bothering	-11.9336
IGHT	-11.9336
▁outcome	-11.9336
▁regard	-11.9336
American	-11.9342
Gotta	-11.9345
▁introduce	-11.9345
touff	-11.9346
▁Yesterday	-11.9351
:30	-11.9355
▁Amanda	-11.936
▁Masala	-11.936
▁recognized	-11.936
▁FANTASTIC	-11.9363
▁Fred	-11.9377
▁floating	-11.9377
▁invest	-11.9378
tea	-11.938
▁Southwest	-11.9384
▁transmission	-11.9384
▁tostada	-11.9384
mores	-11.9388
AMA	-11.9389
▁gallon	-11.939
▁mistaken	-11.9391
▁yrs	-11.9392
▁hubs	-11.9393
▁har	-11.9396
▁insist	-11.9396
▁texted	-11.9397
▁weekdays	-11.9399
stars	-11.9403
▁Play	-11.9408
▁alas	-11.9408
▁Blvd	-11.9409
▁innovative	-11.9409
▁hefty	-11.9409
▁comfortably	-11.941
▁2012	-11.9412
▁Americanized	-11.9412
▁Earl	-11.9413
urs	-11.9414
cake	-11.9418
▁splitting	-11.9423
▁yelpers	-11.9425
▁cleaners	-11.9427
▁taps	-11.9427
▁ultimate	-11.9427
▁Nissan	-11.9433
▁halibut	-11.9433
▁qua	-11.9433
▁Spot	-11.9437
iff	-11.9447
sville	-11.9451
▁Arch	-11.9453
ech	-11.9457
▁international	-11.9458
▁racist	-11.9458
▁odor	-11.9458
▁ashamed	-11.9458
▁Office	-11.9458
▁thigh	-11.9458
stock	-11.9459
▁addictive	-11.946
▁lotion	-11.946
▁mentioning	-11.9461
will	-11.9462
▁Nu	-11.9462
▁officially	-11.9463
▁1/3	-11.9463
lton	-11.9473
▁99	-11.9477
▁Fine	-11.9478
▁sourced	-11.9481
▁fortune	-11.9483
▁skate	-11.9483
▁Bonus	-11.9484
▁Ahi	-11.9488
▁diced	-11.9489
▁educated	-11.949
▁electrical	-11.9492
Sorry	-11.9492
DS	-11.9493
heat	-11.9495
▁flavoring	-11.9496
Com	-11.9498
Th	-11.95
beer	-11.9504
▁uni	-11.9507
▁foie	-11.951
▁jokes	-11.951
▁individuals	-11.9516
▁Portion	-11.9524
▁tee	-11.9525
▁26	-11.9525
never	-11.9526
▁Spinach	-11.9532
▁spicier	-11.9532
▁utilize	-11.9532
loo	-11.9534
▁manger	-11.954
half	-11.9544
▁forgetting	-11.9545
▁disappear	-11.9545
▁cubes	-11.9547
▁paintings	-11.9548
▁Does	-11.9551
▁costumer	-11.9553
▁sin	-11.9554
▁Wo	-11.9557
▁artisan	-11.9557
▁genius	-11.9557
▁mural	-11.9557
▁Cochon	-11.9558
▁series	-11.9558
▁Dim	-11.9559
▁tests	-11.9559
▁cough	-11.956
▁tasteful	-11.956
▁heating	-11.9564
Meh	-11.9568
dle	-11.9569
▁omelets	-11.957
BB	-11.9571
▁seasonings	-11.9578
▁TR	-11.9579
▁bridesmaid	-11.9582
▁deluxe	-11.9582
▁marshmallow	-11.9582
▁soccer	-11.9582
▁500	-11.9583
▁Grits	-11.9583
▁Ridiculous	-11.9587
▁lessons	-11.9594
▁Pig	-11.9594
vie	-11.96
▁bizarre	-11.9607
▁chutney	-11.9607
▁sriracha	-11.9607
▁Goleta	-11.9607
▁Remember	-11.9607
▁12:30	-11.9608
▁winery	-11.961
▁bday	-11.961
▁subway	-11.9611
park	-11.9615
▁vets	-11.9616
rid	-11.9616
▁corners	-11.9618
▁Bus	-11.9619
▁bumper	-11.9625
Like	-11.963
▁meticulous	-11.9632
▁criticism	-11.9632
easy	-11.9635
hon	-11.9637
▁pond	-11.9638
Clean	-11.9641
▁Latte	-11.9641
beef	-11.9642
almost	-11.9643
▁exceed	-11.9645
▁theaters	-11.9646
▁behold	-11.9646
▁blanket	-11.965
▁Entrees	-11.9651
▁reminder	-11.9656
▁Nicole	-11.9658
ulous	-11.966
▁Naan	-11.9661
▁needless	-11.9661
▁Far	-11.9662
clu	-11.9663
first	-11.9666
▁stared	-11.9669
▁THEM	-11.9669
▁dente	-11.967
ously	-11.967
wear	-11.9671
▁stuffy	-11.9671
▁Arrived	-11.9671
▁racks	-11.9673
▁element	-11.9676
▁BA	-11.968
▁24/7	-11.9682
▁Jambalaya	-11.9682
▁Virginia	-11.9682
▁unhelpful	-11.9682
▁Canal	-11.9683
agon	-11.9683
▁Melt	-11.9685
▁considerate	-11.9685
wine	-11.9685
atory	-11.9688
-2	-11.9689
▁convince	-11.9693
▁heaters	-11.97
▁colleague	-11.97
▁crumble	-11.9703
▁packing	-11.9704
▁pizzeria	-11.9708
▁compensate	-11.9708
▁Lounge	-11.9708
▁wiz	-11.9713
▁2:30	-11.9715
▁($3	-11.9715
grilled	-11.9716
rush	-11.9722
▁Dec	-11.9725
▁28	-11.9726
▁rely	-11.9733
▁bouquet	-11.9733
▁disagree	-11.9733
▁excitement	-11.9733
▁grey	-11.9734
▁Sales	-11.9739
▁authenticity	-11.9744
hal	-11.9744
▁Phil	-11.975
▁holy	-11.9751
▁remote	-11.9752
Omg	-11.9756
▁alfredo	-11.9758
▁ignorant	-11.9758
▁thirty	-11.9758
▁flush	-11.9758
▁Basil	-11.9758
▁BAD	-11.9761
▁TERRIBLE	-11.9765
▁inappropriate	-11.9767
Fresh	-11.9768
▁chu	-11.9771
▁Pain	-11.9772
▁permanent	-11.9778
life	-11.9778
She	-11.9781
▁span	-11.9783
▁elbow	-11.9784
▁Moving	-11.9785
▁glue	-11.9785
▁Vet	-11.9787
▁indian	-11.9794
▁Along	-11.9798
▁Scallops	-11.9801
chu	-11.9803
▁Dunedin	-11.9809
▁abundance	-11.9809
▁caffeine	-11.9809
▁diagnosis	-11.9809
▁featuring	-11.9809
▁urgent	-11.981
▁Tree	-11.981
▁Iced	-11.9811
▁Bartenders	-11.9813
▁fighting	-11.9813
▁Friends	-11.9814
Here	-11.9818
▁walnuts	-11.982
▁prob	-11.9822
▁fails	-11.9823
▁Cocktails	-11.9828
▁consult	-11.9833
▁spotty	-11.9834
▁vomit	-11.9835
▁solve	-11.9844
▁companions	-11.9844
boys	-11.9845
▁release	-11.9846
▁1000	-11.9848
▁barrel	-11.9848
▁accompany	-11.9849
▁je	-11.9856
▁HH	-11.9857
▁reimburse	-11.986
▁virtually	-11.9862
▁$1.50	-11.9863
▁strictly	-11.9865
▁grad	-11.9876
▁meetings	-11.9877
▁Goat	-11.9877
▁Sean	-11.9883
▁omg	-11.9884
▁dread	-11.9886
▁horchata	-11.9886
▁scattered	-11.9886
▁tastebuds	-11.9886
▁photographer	-11.9888
rro	-11.9891
corn	-11.9891
school	-11.9896
95	-11.9898
▁Miller	-11.9901
▁brake	-11.9909
▁showers	-11.991
▁illegal	-11.9912
▁asleep	-11.9912
▁Patrick	-11.9912
▁growler	-11.9913
▁quieter	-11.9913
▁Ger	-11.9914
▁friendlier	-11.9914
rib	-11.9914
▁moderately	-11.9917
bri	-11.992
▁extensions	-11.9923
▁fade	-11.9927
ERS	-11.9928
▁Bull	-11.993
Get	-11.993
▁blank	-11.9937
▁Fountain	-11.9938
▁bulgogi	-11.9938
▁kudos	-11.9938
▁impact	-11.9938
▁argued	-11.9938
▁sensor	-11.9938
▁cloud	-11.9938
▁2021	-11.9939
▁dispenser	-11.9941
▁marketing	-11.9943
cie	-11.9945
▁yr	-11.9945
▁clubs	-11.9946
▁Sandwiches	-11.9947
medium	-11.9948
▁bound	-11.9949
▁dye	-11.996
▁fifteen	-11.9964
▁policies	-11.9964
▁confit	-11.9964
▁relish	-11.9966
▁lb	-11.9967
▁partially	-11.9971
white	-11.9974
▁NE	-11.9974
▁Ly	-11.9977
▁pep	-11.9977
▁driveway	-11.998
▁Outstanding	-11.9985
lum	-11.9987
war	-11.9988
▁nailed	-11.9989
▁Turkish	-11.999
▁hygienist	-11.999
▁tropical	-11.999
▁contemporary	-11.999
▁churros	-11.9992
▁discussion	-11.9994
Mar	-11.9999
▁cancer	-12.0002
▁conscious	-12.0003
▁Bur	-12.0006
-20	-12.0008
▁International	-12.0016
issa	-12.0016
▁billed	-12.0016
▁Seattle	-12.0016
▁flew	-12.0016
▁flair	-12.0017
▁loyalty	-12.0018
▁dragon	-12.0019
▁lox	-12.0021
▁hunger	-12.0022
▁transition	-12.0023
UM	-12.0025
▁rival	-12.0026
▁speakers	-12.0026
▁Tofu	-12.0027
▁sport	-12.0028
ention	-12.0028
warm	-12.0028
▁tube	-12.0031
▁pun	-12.0041
BC	-12.0042
▁brilliant	-12.0042
▁succeed	-12.0042
▁Caramel	-12.0042
▁urban	-12.0042
▁prize	-12.0042
▁Miami	-12.0042
▁8:00	-12.0043
▁newest	-12.0048
big	-12.0052
▁48	-12.0052
could	-12.0052
▁competitors	-12.0055
▁mode	-12.0057
cket	-12.0058
plain	-12.0061
▁Ku	-12.0062
▁Disappointed	-12.0062
▁apologizing	-12.0068
▁ignoring	-12.0068
▁BMW	-12.0068
▁eastern	-12.0068
▁urge	-12.007
▁butternut	-12.007
▁airline	-12.0073
▁assure	-12.0074
▁Convenient	-12.0079
▁reduced	-12.008
▁drafts	-12.0081
▁Anna	-12.0083
▁rounded	-12.0084
▁pains	-12.0087
Thanks	-12.0087
grade	-12.0087
▁recover	-12.0088
▁beloved	-12.0088
▁wherever	-12.0091
▁magnificent	-12.0094
▁increased	-12.0094
▁interactive	-12.0095
pha	-12.0097
▁Original	-12.0098
▁holder	-12.0101
ural	-12.0104
pork	-12.0107
▁boxed	-12.0109
chan	-12.0109
Ate	-12.0111
▁RECOMMEND	-12.012
▁biryani	-12.012
▁removing	-12.012
▁dumped	-12.0122
▁Father	-12.0123
▁realizing	-12.0124
▁hardware	-12.0127
▁desperately	-12.0129
Maybe	-12.0132
▁calming	-12.0136
SO	-12.0138
Holy	-12.0141
eb	-12.0142
▁humid	-12.0147
▁chaotic	-12.0147
▁puzzle	-12.0147
▁retrieve	-12.0147
▁rancheros	-12.0147
▁grapefruit	-12.0147
▁transportation	-12.0147
▁hopping	-12.0148
▁apt	-12.0151
▁sam	-12.0152
▁Lady	-12.0152
▁tipping	-12.0153
▁Chile	-12.0155
▁cheer	-12.0156
▁flooring	-12.0157
▁atop	-12.016
▁Moon	-12.016
▁proceed	-12.0161
antly	-12.0161
▁pest	-12.0171
▁Atlanta	-12.0173
▁occurred	-12.0174
▁Smoke	-12.0178
▁Shu	-12.0179
IST	-12.0181
▁roots	-12.0182
▁converted	-12.0182
▁creamed	-12.0183
Nothing	-12.0185
▁intend	-12.0186
▁$400	-12.0192
▁Austin	-12.02
▁3/4	-12.02
▁crystal	-12.02
▁Outback	-12.0201
tely	-12.0203
▁Except	-12.0204
▁Vegetarian	-12.0205
▁pressured	-12.0205
▁True	-12.0206
uk	-12.0207
▁role	-12.021
Being	-12.021
500	-12.0216
▁expertly	-12.0217
▁IMO	-12.022
▁jus	-12.0222
▁Jennifer	-12.0226
▁caution	-12.0226
▁marble	-12.0227
zen	-12.0227
▁Dining	-12.0228
▁explains	-12.0232
▁puree	-12.0234
▁collar	-12.0238
salad	-12.024
▁cleanest	-12.0247
▁Brand	-12.0248
▁Sides	-12.0251
▁frequented	-12.0253
▁arrogant	-12.0253
▁struck	-12.0254
▁chaos	-12.0254
▁jumping	-12.0257
▁stronger	-12.0257
▁shooting	-12.0258
bone	-12.026
Seriously	-12.0265
Chi	-12.0266
▁fixe	-12.0269
super	-12.0269
▁gum	-12.027
▁remark	-12.0273
▁contacting	-12.0276
▁assorted	-12.028
▁impatient	-12.028
▁Enough	-12.028
▁Recommended	-12.0281
▁balloon	-12.0281
▁coverage	-12.0285
GE	-12.0286
spir	-12.0287
TRA	-12.0288
Most	-12.0298
▁groom	-12.0301
▁Urban	-12.0307
▁huevos	-12.0307
▁studying	-12.0307
▁jukebox	-12.0307
▁Sugar	-12.0307
OW	-12.0308
▁shuck	-12.031
mont	-12.0312
ean	-12.0316
▁Awful	-12.0318
▁coolest	-12.0318
plus	-12.0322
door	-12.0322
bad	-12.0329
▁hamburgers	-12.0332
▁boudin	-12.0334
▁habanero	-12.0334
▁sweetheart	-12.0334
▁pray	-12.0335
▁dishonest	-12.0335
lio	-12.0335
▁seal	-12.0335
▁1-2	-12.0336
▁listing	-12.0339
▁lip	-12.034
ille	-12.034
▁TJ	-12.034
PO	-12.0341
▁stones	-12.0342
▁noticeable	-12.0346
▁Sur	-12.0347
▁contacts	-12.0347
▁Amber	-12.0347
than	-12.0348
rating	-12.0351
▁tails	-12.0353
▁loads	-12.0355
▁testing	-12.0357
▁Cut	-12.0357
▁Bomb	-12.0357
TREME	-12.036
▁oxtail	-12.036
▁kayak	-12.0361
▁Extra	-12.0361
chy	-12.0361
▁liar	-12.0362
▁sno	-12.0363
▁malt	-12.0363
▁gain	-12.0364
▁sir	-12.0368
▁Kinda	-12.037
Unfortunately	-12.0373
▁cage	-12.0376
add	-12.038
face	-12.0385
▁Heaven	-12.0388
▁Houston	-12.0388
▁Peruvian	-12.0388
▁Wilmington	-12.0388
▁tilapia	-12.0388
▁gulf	-12.0388
▁Outdoor	-12.0388
▁bulb	-12.0388
▁musicians	-12.0388
▁proceeds	-12.0389
▁$19	-12.0389
▁preferences	-12.0393
▁rudeness	-12.0395
▁redo	-12.0399
85	-12.0399
Perfect	-12.04
▁Yay	-12.0405
didn	-12.0408
▁cheat	-12.0409
nor	-12.0409
Over	-12.0411
▁versions	-12.0412
fine	-12.0413
▁landed	-12.0414
▁Szechuan	-12.0415
▁wheelchair	-12.0415
▁wilted	-12.0415
▁fixtures	-12.0415
▁spaced	-12.0416
Su	-12.0416
▁Yep	-12.0418
9.99	-12.042
pressed	-12.0421
▁Tables	-12.0423
▁tattoos	-12.0423
berg	-12.0424
▁Party	-12.0426
▁Rum	-12.0429
▁sprinkle	-12.0431
Big	-12.0433
cept	-12.0435
DR	-12.0436
MM	-12.0441
▁Beignet	-12.0442
▁situated	-12.0442
▁rotten	-12.0442
▁Domino	-12.0442
▁IHOP	-12.0442
▁packaging	-12.0442
name	-12.0443
▁refresh	-12.0447
▁Cooked	-12.0452
ride	-12.0454
yeah	-12.0455
▁$250	-12.0457
▁adjustments	-12.0458
▁buff	-12.046
UP	-12.0463
ular	-12.0464
▁pecans	-12.0465
▁CD	-12.0468
▁Stephanie	-12.0469
▁Eggplant	-12.0469
▁Hattie	-12.0469
▁Sicilian	-12.0469
▁Stuffed	-12.0469
▁oldest	-12.047
▁Incredible	-12.0472
▁THERE	-12.0478
▁shave	-12.0482
everything	-12.0482
▁Au	-12.0484
▁Easter	-12.0488
▁faith	-12.0488
▁$24	-12.0489
▁laying	-12.049
lip	-12.0493
▁England	-12.0496
▁smack	-12.0496
▁modest	-12.0498
▁trainer	-12.0499
▁USE	-12.0504
▁Heather	-12.0507
▁determine	-12.0509
ndi	-12.051
ION	-12.0512
usually	-12.0515
▁packs	-12.0515
ala	-12.0521
date	-12.0523
3.5	-12.0524
▁failure	-12.0524
▁estate	-12.0524
▁Wrap	-12.0525
▁Homemade	-12.0525
▁Rather	-12.0526
▁Class	-12.0527
▁Kat	-12.0527
▁tunes	-12.0533
mind	-12.0535
▁indicate	-12.0536
shrimp	-12.0537
▁demo	-12.054
▁Carol	-12.0542
▁hosted	-12.0546
▁experiment	-12.0551
▁Peanut	-12.0551
▁shiny	-12.0552
▁TIP	-12.0553
▁bow	-12.0554
▁curb	-12.0558
ien	-12.0559
pet	-12.0562
▁disc	-12.0565
teen	-12.0566
hur	-12.0566
clock	-12.0577
▁Gluten	-12.0579
▁glorious	-12.0579
▁atrocious	-12.0579
▁Carolina	-12.0579
▁Ritz	-12.0579
▁lenses	-12.058
▁Metro	-12.0582
▁thinner	-12.0583
▁MORE	-12.0591
▁Yard	-12.0591
▁slider	-12.0592
hey	-12.0593
ooooo	-12.0597
pub	-12.0605
▁precise	-12.0606
▁sanitizer	-12.0606
▁saturday	-12.0606
▁Emily	-12.0607
▁Russian	-12.0607
▁pollo	-12.0607
▁mental	-12.0607
▁Ch	-12.0609
▁Soft	-12.0609
▁rev	-12.0618
▁locate	-12.062
▁crossed	-12.0621
▁extend	-12.0623
SP	-12.0623
inated	-12.0624
imo	-12.0628
▁Game	-12.0632
▁counting	-12.0633
▁Enterprise	-12.0634
▁turf	-12.0634
▁Clayton	-12.0634
doba	-12.0635
▁Bean	-12.0638
▁sexy	-12.0639
▁almonds	-12.064
▁scones	-12.064
▁3:30	-12.0641
▁glowing	-12.0641
mart	-12.0643
▁tvs	-12.0643
UL	-12.0644
pend	-12.0648
SU	-12.0651
▁oddly	-12.0659
yard	-12.0661
▁Imagine	-12.0662
▁sizzling	-12.0662
▁vinyl	-12.0662
▁Kyle	-12.0662
▁garlicky	-12.0666
▁elements	-12.0669
▁SF	-12.0671
▁Mostly	-12.0672
▁Meal	-12.068
avi	-12.0683
▁Kar	-12.0683
EAR	-12.0683
gate	-12.0686
ouch	-12.0688
▁andouille	-12.069
▁object	-12.069
▁referral	-12.069
▁Christian	-12.069
▁Asada	-12.0699
▁boo	-12.0701
▁stall	-12.0702
price	-12.0702
yaki	-12.0703
▁HU	-12.0704
Yummy	-12.0705
▁Brough	-12.0708
▁pointing	-12.0714
▁Thought	-12.0715
▁Brentwood	-12.0718
▁Hurricane	-12.0718
▁appreciative	-12.0718
▁Circle	-12.0718
▁bustling	-12.0718
last	-12.072
ization	-12.072
eeee	-12.0721
▁Corner	-12.0721
ologist	-12.0722
▁elevated	-12.0722
▁overpowered	-12.0723
▁poop	-12.0724
▁Professional	-12.0725
lyn	-12.073
▁Ted	-12.0733
▁comic	-12.0735
luck	-12.0739
ONE	-12.0743
▁certified	-12.0746
▁gyoza	-12.0746
▁technology	-12.0746
▁Dental	-12.0746
▁improvements	-12.0749
call	-12.0751
▁Pancakes	-12.0753
▁gamble	-12.0753
▁Pra	-12.0754
▁Omg	-12.0756
nte	-12.0756
▁blamed	-12.0762
NOT	-12.0763
▁hats	-12.0765
▁spark	-12.0765
ooo	-12.0769
▁Chai	-12.0773
▁definately	-12.0774
▁resturant	-12.0774
▁trustworthy	-12.0774
▁defiant	-12.0775
▁mildly	-12.078
▁taro	-12.0781
▁daycare	-12.0788
Called	-12.0788
class	-12.0789
▁benefits	-12.0796
▁portioned	-12.0798
har	-12.08
▁gap	-12.0801
▁conduct	-12.0802
▁deduct	-12.0802
▁mystery	-12.0802
▁Mt	-12.0806
▁foil	-12.0806
▁Ram	-12.0807
▁rap	-12.0807
RT	-12.0813
pretty	-12.0817
GG	-12.0818
early	-12.082
-4	-12.082
▁Brewing	-12.0823
-9	-12.0823
▁rad	-12.0824
▁carbs	-12.0824
dale	-12.0827
29	-12.0829
▁automatic	-12.083
▁protocol	-12.083
▁Internet	-12.083
▁Western	-12.0831
▁unreal	-12.0833
▁Pinot	-12.0835
▁inspect	-12.0838
▁Surprisingly	-12.0843
▁combine	-12.0844
▁climbing	-12.0844
▁beg	-12.0845
▁por	-12.0845
Decided	-12.0845
Even	-12.0845
Ra	-12.0849
▁valid	-12.0855
▁Sounds	-12.0857
▁Bou	-12.0857
▁physician	-12.0859
▁plethora	-12.0859
▁Cesar	-12.0859
▁heartbeat	-12.0859
▁Carl	-12.0859
Now	-12.0859
▁Grille	-12.0867
▁descriptions	-12.0867
▁filing	-12.0868
lite	-12.087
▁overload	-12.0873
prepared	-12.0874
▁Tina	-12.0879
▁hectic	-12.0882
▁grind	-12.0885
▁flowing	-12.0887
▁mayonnaise	-12.0887
▁Brewery	-12.0887
rough	-12.0891
▁nonsense	-12.0896
gram	-12.0898
Having	-12.0903
▁warmth	-12.0908
▁yumm	-12.0908
Hey	-12.091
28	-12.0915
▁Manayunk	-12.0915
▁stingy	-12.0916
▁Heights	-12.0916
▁household	-12.0919
▁DD	-12.092
▁developed	-12.0925
▁Off	-12.0933
filled	-12.094
▁Gre	-12.0943
▁SI	-12.0943
▁tummy	-12.0944
▁hotter	-12.0944
▁Reasonably	-12.0944
▁tres	-12.0945
▁udon	-12.0946
hip	-12.0951
bro	-12.0952
watch	-12.0957
local	-12.0961
▁mixing	-12.0962
▁lengthy	-12.0965
▁attractions	-12.0966
esque	-12.0969
▁Gate	-12.097
▁Hummus	-12.0973
▁Pennsylvania	-12.0973
▁romaine	-12.0973
▁tavern	-12.0973
▁singer	-12.0974
▁Brick	-12.0976
▁esp	-12.0978
▁wheels	-12.0978
▁smashed	-12.0982
▁inconvenient	-12.0984
▁EAT	-12.0987
ona	-12.0988
Hot	-12.0991
AP	-12.0995
▁baba	-12.0995
▁western	-12.0998
▁appreciation	-12.1001
▁florist	-12.1001
▁preface	-12.1002
▁Said	-12.1005
/16	-12.1013
▁gardens	-12.1016
▁techniques	-12.1016
mouth	-12.1017
▁exists	-12.102
▁photograph	-12.1021
▁Used	-12.1026
charge	-12.1026
▁artificial	-12.103
▁shelter	-12.103
oil	-12.1031
▁wrapping	-12.1033
▁misleading	-12.1033
izz	-12.1035
▁worthwhile	-12.1036
thanks	-12.1039
▁accommodations	-12.1044
gal	-12.1044
▁fresher	-12.1045
Did	-12.1046
▁5-6	-12.1046
▁Mayo	-12.1054
▁individually	-12.1055
little	-12.1055
cci	-12.1056
▁Kroger	-12.1059
▁intrigued	-12.1059
▁valuable	-12.1059
▁palette	-12.106
▁Juice	-12.106
▁Richard	-12.1061
▁gray	-12.1063
▁biased	-12.1065
▁Ph	-12.1067
▁cracker	-12.1076
▁Disappointing	-12.1077
▁Works	-12.1084
Mediocre	-12.1088
▁Support	-12.1088
▁compelled	-12.1088
▁seamless	-12.1088
▁20-30	-12.1088
▁substitution	-12.1088
▁chase	-12.1091
▁soaking	-12.1094
▁storefront	-12.1095
▁capers	-12.1095
▁Burn	-12.1097
gling	-12.1098
rack	-12.1101
▁honored	-12.1105
▁nope	-12.111
▁feeding	-12.1113
▁Clam	-12.1115
▁communicated	-12.1115
▁Gar	-12.1116
▁coma	-12.1117
▁debris	-12.1117
▁barrier	-12.1118
▁Banh	-12.1118
▁Dutch	-12.1118
▁beginner	-12.1119
▁slimy	-12.1124
▁Dark	-12.1125
pie	-12.1129
Chicken	-12.1134
please	-12.1134
▁lash	-12.1139
aaaaa	-12.1142
▁Victoria	-12.1142
▁faced	-12.1144
▁Vegetable	-12.1146
▁parlor	-12.1146
▁steel	-12.1146
▁Jerk	-12.1147
▁lemongrass	-12.1147
▁etouffee	-12.1148
▁Chuck	-12.1148
▁fishing	-12.115
month	-12.1151
▁cave	-12.1156
01	-12.1157
▁getaway	-12.1158
▁adjustment	-12.1161
hill	-12.1163
▁Ate	-12.1167
ception	-12.1175
▁SUV	-12.1176
▁promising	-12.1176
▁understatement	-12.1176
size	-12.1176
▁Casino	-12.1176
burn	-12.1177
▁spotted	-12.1178
▁tacky	-12.1179
▁utterly	-12.118
▁NOW	-12.1182
▁observed	-12.1182
▁premises	-12.1185
▁Lime	-12.1185
▁waist	-12.1186
▁sporting	-12.1188
▁3/5	-12.1192
▁AAA	-12.1201
▁boats	-12.1204
▁YELP	-12.1205
▁peeve	-12.1205
cture	-12.1205
▁Word	-12.1206
▁coach	-12.1206
▁tiki	-12.1206
ordered	-12.1206
▁Kung	-12.1208
▁brag	-12.1219
lift	-12.1221
▁devour	-12.1223
ister	-12.1226
▁scar	-12.1234
▁masseuse	-12.1234
▁cutest	-12.1235
▁Audi	-12.1246
▁empanada	-12.1248
Awful	-12.1252
▁prop	-12.1256
▁$28	-12.1262
ICE	-12.1263
llen	-12.1264
▁equivalent	-12.1264
▁piss	-12.1264
▁slept	-12.1264
ccu	-12.1265
▁palm	-12.1273
▁pod	-12.1275
▁Bass	-12.1282
▁Pep	-12.1284
▁Boys	-12.1286
▁Desserts	-12.129
▁errands	-12.1293
▁substance	-12.1293
▁9:00	-12.1294
▁Baja	-12.1294
▁remake	-12.1296
Pro	-12.1297
▁slap	-12.1297
▁Cole	-12.1299
▁layered	-12.1301
▁Juan	-12.1301
▁relative	-12.1302
▁seller	-12.1303
▁taxes	-12.1304
▁darker	-12.1306
waitress	-12.1311
▁complemented	-12.1312
Enjoyed	-12.1314
aving	-12.1315
▁Mex	-12.1316
▁official	-12.1317
▁slim	-12.1318
▁science	-12.1323
▁throat	-12.1323
▁Creek	-12.1323
▁sipping	-12.1324
eller	-12.1325
▁Danny	-12.1325
▁production	-12.1326
peak	-12.1326
▁wit	-12.1331
▁zip	-12.1333
▁Dragon	-12.1335
▁condiment	-12.1338
itos	-12.134
▁BEWARE	-12.1341
▁($5	-12.1342
▁Rd	-12.1346
▁hum	-12.1346
▁sudden	-12.1347
▁CUSTOMER	-12.1353
▁cordial	-12.1353
▁Jane	-12.1353
▁tidy	-12.1354
▁Glen	-12.1354
▁difficulty	-12.1358
▁trial	-12.1358
▁viewing	-12.1361
iling	-12.1364
▁comedy	-12.1364
▁Casa	-12.1371
Fast	-12.1371
Mart	-12.1374
▁Tiffany	-12.1383
▁expansive	-12.1383
▁Vanilla	-12.1383
▁Albert	-12.1383
▁drill	-12.1383
▁sauna	-12.1383
▁Giant	-12.1384
▁Potatoes	-12.1388
Na	-12.1388
▁Bal	-12.1389
AH	-12.139
▁Mart	-12.1391
▁acoustics	-12.1393
▁ringing	-12.1393
▁associated	-12.1396
Walked	-12.1401
famous	-12.1401
always	-12.1401
▁Hills	-12.1406
HA	-12.1408
▁occur	-12.1412
▁gallery	-12.1413
▁ORDER	-12.1413
▁lips	-12.1413
▁interview	-12.1413
▁detect	-12.1413
▁article	-12.1413
▁commitment	-12.1414
▁remotely	-12.142
▁coloring	-12.1424
▁afterward	-12.1426
▁kabob	-12.1429
▁truffles	-12.143
would	-12.1431
▁samosas	-12.1433
fri	-12.1433
staff	-12.1434
▁proved	-12.1437
▁HOWEVER	-12.1443
▁escargot	-12.1443
▁tzatziki	-12.1443
▁Smith	-12.1443
▁Remind	-12.1443
▁unload	-12.1445
ABLE	-12.1447
▁capable	-12.1448
▁bubbles	-12.146
Jo	-12.1461
▁pate	-12.1465
▁Heart	-12.147
ease	-12.1473
hen	-12.1473
▁horror	-12.1473
▁unimpressed	-12.1473
▁Disney	-12.1473
▁trimmed	-12.1474
▁southwest	-12.1475
▁bid	-12.1475
▁Sign	-12.1478
RU	-12.1486
olo	-12.1488
▁resemble	-12.1488
▁drying	-12.1498
▁tied	-12.1499
▁commit	-12.1501
grass	-12.1501
▁$$$	-12.1501
▁identify	-12.1503
▁appalled	-12.1503
▁invoice	-12.1503
▁$3.50	-12.1503
ime	-12.1504
▁urine	-12.1504
▁steaming	-12.1504
/15	-12.1506
▁hoo	-12.1507
▁drawer	-12.1507
▁Bravo	-12.1516
▁twin	-12.1517
▁appointed	-12.1517
▁Bor	-12.152
▁swamp	-12.1522
▁Miso	-12.1522
▁interacted	-12.1524
full	-12.1526
fries	-12.1527
pop	-12.1529
▁Pier	-12.1531
▁PRO	-12.1531
ffle	-12.1531
▁logo	-12.1532
▁Walgreens	-12.1533
▁flakes	-12.1533
▁NEW	-12.1535
▁Mini	-12.1537
Mex	-12.1537
▁threatened	-12.1538
▁STARS	-12.1538
aver	-12.1541
▁bri	-12.1542
Wait	-12.1544
▁quest	-12.1544
▁consumed	-12.1545
▁pitchers	-12.1545
▁celebrated	-12.1548
▁faves	-12.155
mission	-12.1553
Everyone	-12.1554
?????	-12.1555
▁education	-12.1557
ground	-12.1564
▁satisfactory	-12.1564
▁shabby	-12.1564
▁steady	-12.1564
▁fluke	-12.1564
▁Strip	-12.1566
04	-12.1567
ency	-12.1567
horn	-12.1572
lee	-12.1577
▁wowed	-12.1581
▁lowest	-12.1582
▁gro	-12.1584
▁teenagers	-12.1586
▁hallways	-12.1586
rice	-12.159
▁Hawaii	-12.1592
▁France	-12.1594
▁gratin	-12.1594
▁tastier	-12.1594
▁instrument	-12.1594
▁Ab	-12.1594
▁Brothers	-12.1595
▁blackberry	-12.1596
▁waxed	-12.1597
▁Steakhouse	-12.1598
▁Card	-12.16
▁bursting	-12.1604
▁sca	-12.1604
▁Mak	-12.1608
▁peeling	-12.1612
nel	-12.1612
definitely	-12.1614
▁yea	-12.1614
▁plum	-12.1619
▁treadmill	-12.1625
▁Gross	-12.1625
▁Nonetheless	-12.1625
▁dispute	-12.1625
▁caliber	-12.1625
▁Anything	-12.1625
▁baking	-12.1627
▁Wayne	-12.1627
▁strict	-12.163
OLD	-12.1632
▁brownies	-12.1641
▁careless	-12.1641
▁loo	-12.1643
lol	-12.1643
Extremely	-12.1644
▁refilling	-12.1645
▁Health	-12.1648
▁blocked	-12.1655
▁participate	-12.1655
▁granted	-12.1656
▁meantime	-12.1664
ipped	-12.1672
▁projects	-12.1672
erate	-12.1673
▁$90	-12.1674
▁exhaust	-12.1675
▁Ordering	-12.1675
▁Cannot	-12.168
without	-12.1683
▁Certainly	-12.1686
▁Crazy	-12.1686
▁Sprouts	-12.1686
▁styrofoam	-12.1686
▁kiddos	-12.1686
▁curries	-12.1686
▁operating	-12.1687
▁Maple	-12.1687
▁crash	-12.1687
▁Massage	-12.1687
balls	-12.1688
▁Master	-12.1688
ARD	-12.1691
▁Visit	-12.1693
▁biggie	-12.1694
▁uncle	-12.1696
▁BU	-12.1698
▁avoiding	-12.17
pul	-12.1704
vegetarian	-12.1706
Recently	-12.1706
▁amaze	-12.1708
▁discussing	-12.1711
▁overhead	-12.1713
▁Comp	-12.1713
▁Court	-12.1717
▁Cracker	-12.1717
▁Follow	-12.1717
▁floral	-12.1717
▁jersey	-12.1717
▁disease	-12.1717
pad	-12.1718
▁bookstore	-12.1718
▁kiss	-12.1719
▁swiss	-12.1719
▁peruse	-12.172
▁DAY	-12.172
EST	-12.172
Sh	-12.1721
▁regional	-12.1723
▁surroundings	-12.1723
▁lbs	-12.1724
eva	-12.1726
▁Forget	-12.1728
▁produced	-12.173
▁slop	-12.1737
coffee	-12.1737
27	-12.1738
▁spite	-12.1742
oooooo	-12.1743
▁Steven	-12.1744
▁Chestnut	-12.1748
Absolut	-12.1748
▁Bobby	-12.175
▁ramp	-12.175
▁ripe	-12.1752
▁Len	-12.1755
▁inspected	-12.1761
▁boom	-12.1763
▁mugs	-12.1764
▁upsell	-12.1765
▁document	-12.1769
Ju	-12.1771
ela	-12.1771
▁Meh	-12.1772
▁polished	-12.1777
▁KFC	-12.1779
▁Mimosa	-12.1779
▁audience	-12.1779
▁chickpea	-12.1779
▁domestic	-12.1779
▁residential	-12.1779
AIL	-12.1782
▁OJ	-12.1785
▁greets	-12.1785
▁damp	-12.1786
▁Flat	-12.1787
EE	-12.1791
▁artichokes	-12.1795
eli	-12.1799
ome	-12.1802
▁Pickle	-12.1806
Made	-12.1807
▁byob	-12.1808
▁Famous	-12.181
▁Whiskey	-12.181
▁Yellow	-12.181
▁bolognese	-12.181
▁financing	-12.181
▁guidance	-12.181
▁clump	-12.181
▁hashbrowns	-12.181
▁LONG	-12.181
▁Tower	-12.181
▁School	-12.181
▁Yuck	-12.1812
▁gay	-12.1814
▁chee	-12.1814
▁Truck	-12.1814
▁quail	-12.1814
▁resulted	-12.1817
▁thread	-12.183
▁Jean	-12.1831
complete	-12.1831
Used	-12.1832
▁95	-12.1832
▁upcharge	-12.1833
▁beignet	-12.1833
▁Tech	-12.1836
iva	-12.1837
▁critic	-12.1837
▁mule	-12.1837
yu	-12.1838
dressed	-12.1839
▁DEFINITELY	-12.1841
▁Tahoe	-12.1841
▁sleeve	-12.1841
▁Studio	-12.1842
aya	-12.1842
▁brussels	-12.1843
▁Fro	-12.1847
▁brow	-12.1848
▁neglected	-12.1849
▁cutlet	-12.1852
vice	-12.1853
leading	-12.1854
close	-12.1864
icle	-12.1866
▁harm	-12.1867
Pi	-12.1868
▁Ambience	-12.1873
▁continually	-12.1873
▁enthusiasm	-12.1873
▁opportunities	-12.1873
IVE	-12.1873
▁hiking	-12.1874
large	-12.1875
▁Sara	-12.1875
▁stepping	-12.1876
▁brave	-12.1877
unless	-12.1877
BA	-12.1883
▁solved	-12.1885
▁Eats	-12.1892
brown	-12.1893
▁shortage	-12.1894
▁Waste	-12.1899
▁facials	-12.1901
▁CR	-12.1903
▁attorney	-12.1904
▁chiropractor	-12.1904
▁comparing	-12.1904
El	-12.1905
▁Sitting	-12.1906
▁designated	-12.1907
▁percent	-12.1907
▁tso	-12.1911
mini	-12.1914
▁dull	-12.1914
▁ole	-12.1917
▁ban	-12.1918
▁Kay	-12.1918
flower	-12.1925
▁scone	-12.1931
▁tick	-12.1931
plo	-12.1933
▁korean	-12.1936
▁stylish	-12.1936
▁11:00	-12.1936
went	-12.1937
▁Harry	-12.1938
▁spoons	-12.1939
▁bait	-12.1941
▁network	-12.1944
▁Pla	-12.1946
rise	-12.1946
▁sy	-12.1949
▁Leg	-12.1957
Second	-12.1957
family	-12.1957
Still	-12.1958
▁core	-12.196
▁appliance	-12.1961
▁curtain	-12.1961
▁Liberty	-12.1967
▁Mississippi	-12.1967
▁Nevertheless	-12.1967
▁reduction	-12.1967
▁swordfish	-12.1967
▁Craft	-12.1969
▁CAR	-12.197
▁10:00	-12.1971
▁Verde	-12.1972
▁continental	-12.1973
▁Stella	-12.1974
▁groomed	-12.1981
▁closely	-12.1994
▁wedges	-12.1999
▁Festival	-12.1999
▁Wrong	-12.1999
▁dismissive	-12.1999
▁memorabilia	-12.1999
rita	-12.1999
▁click	-12.2
▁pints	-12.2001
▁Larry	-12.2001
▁Haha	-12.2002
▁heels	-12.2003
▁Paid	-12.2003
▁vac	-12.2003
▁Todd	-12.2003
▁lick	-12.2003
▁manufacturer	-12.2004
▁bitch	-12.2007
▁wishing	-12.2011
▁signal	-12.2013
▁newbie	-12.2013
▁claws	-12.2025
▁DIS	-12.2027
mbled	-12.2027
▁Guinness	-12.2031
▁Pinellas	-12.2031
▁sauerkraut	-12.2031
▁Platter	-12.2031
▁slack	-12.2032
rain	-12.2032
▁Laura	-12.2033
▁mouse	-12.2033
called	-12.2038
Vi	-12.2039
▁Chan	-12.2044
▁32	-12.2044
Check	-12.2048
dish	-12.2048
show	-12.2049
▁promote	-12.205
Ka	-12.2053
break	-12.2054
▁chest	-12.2059
chef	-12.2062
▁Hyatt	-12.2063
▁Jordan	-12.2063
▁surgeon	-12.2063
▁healing	-12.2064
▁Jerry	-12.2064
▁Erin	-12.2066
▁Belly	-12.207
verse	-12.2075
▁engage	-12.2079
YO	-12.2081
fra	-12.2082
aba	-12.2083
▁hose	-12.2086
▁Bathrooms	-12.2086
ante	-12.2088
▁Biscuits	-12.2093
▁compassion	-12.2095
▁birth	-12.2095
▁happiness	-12.2095
▁league	-12.2095
▁Midtown	-12.2096
▁monster	-12.2096
craft	-12.2096
▁bison	-12.2097
▁Young	-12.2099
▁tempting	-12.2099
▁300	-12.2101
▁Sabrina	-12.2101
zza	-12.211
▁darts	-12.2112
▁UN	-12.2115
▁dolphin	-12.2127
var	-12.2127
▁Sesame	-12.2127
▁bustle	-12.2129
▁Louie	-12.2129
▁festive	-12.213
ucci	-12.2131
▁freakin	-12.2132
▁insight	-12.2133
9.00	-12.2136
▁che	-12.2138
▁Hash	-12.2139
▁spill	-12.2139
PS	-12.2144
▁enhance	-12.2145
▁useful	-12.215
▁dug	-12.2154
▁moderate	-12.2155
▁Tai	-12.2155
▁bru	-12.2157
▁bon	-12.2158
▁burrata	-12.2159
▁encouraging	-12.2159
▁Midwest	-12.216
▁dealers	-12.216
▁Tart	-12.2165
▁(6	-12.2166
▁umbrellas	-12.2166
▁overflowing	-12.2166
▁rudest	-12.2167
▁joe	-12.2167
▁BJ	-12.2169
vor	-12.2174
▁Use	-12.2175
▁redeeming	-12.2175
▁alongside	-12.2176
TT	-12.2177
▁depend	-12.2177
▁maid	-12.2181
▁teens	-12.2188
gl	-12.219
▁accustomed	-12.2192
▁english	-12.2192
▁oasis	-12.2192
▁summary	-12.2192
▁Hostess	-12.2192
▁antibiotic	-12.2192
▁motion	-12.2193
▁Karen	-12.2194
▁amuse	-12.2198
▁trainers	-12.2199
Char	-12.2201
post	-12.2202
▁satay	-12.2203
▁boost	-12.2208
▁decline	-12.2209
▁forks	-12.2211
▁reaching	-12.2212
Chris	-12.2215
▁panic	-12.2215
▁Cook	-12.2218
▁(?)	-12.2218
▁carnivore	-12.2224
▁crammed	-12.2224
▁margherita	-12.2224
▁pattern	-12.2224
▁remoulade	-12.2224
▁rubbed	-12.2225
▁origin	-12.2225
▁scampi	-12.2225
▁friday	-12.2225
▁OVER	-12.2225
▁dunk	-12.2228
mine	-12.2228
▁substituted	-12.2229
oi	-12.2231
▁brewing	-12.2234
▁download	-12.2236
▁Drew	-12.2236
▁kabobs	-12.2239
▁graciously	-12.224
▁Hip	-12.2241
cade	-12.2242
▁broiled	-12.2244
play	-12.2249
▁calorie	-12.2254
▁plantain	-12.2254
aro	-12.2256
▁Opry	-12.2257
▁faucet	-12.2257
▁reputable	-12.2257
▁sanitary	-12.2257
▁landscape	-12.2257
▁Value	-12.2257
▁Julia	-12.2258
▁bakeries	-12.2258
▁Whoever	-12.2258
burg	-12.2262
▁freeze	-12.2265
100	-12.2269
▁macaroons	-12.2271
▁Pleasant	-12.2272
▁Kale	-12.2273
bee	-12.2274
▁Spi	-12.2277
▁Joey	-12.2278
ALL	-12.2281
pizza	-12.2281
▁rise	-12.2281
lash	-12.2282
▁AS	-12.2284
▁jewel	-12.2284
▁Europe	-12.2289
▁Experience	-12.229
▁bubbly	-12.229
▁inexperienced	-12.229
▁soothing	-12.229
▁committed	-12.229
▁Valet	-12.2291
▁Treat	-12.2291
uf	-12.2292
▁dimly	-12.2292
▁weigh	-12.2294
▁5:00	-12.2295
drop	-12.2295
same	-12.2297
ov	-12.2299
▁specialties	-12.2301
glass	-12.2301
▁reduce	-12.2308
▁marina	-12.2308
▁Jess	-12.2313
▁numb	-12.2317
▁chandelier	-12.2322
▁cushion	-12.2322
▁hiccup	-12.2322
Hidden	-12.2322
▁naked	-12.2323
▁Weird	-12.2323
▁flaw	-12.2325
▁6:00	-12.2325
▁Asia	-12.2329
▁roam	-12.233
▁Disgusting	-12.2334
▁tolerate	-12.2339
Happy	-12.2347
▁Luc	-12.2349
▁thirsty	-12.2351
ulated	-12.2351
phy	-12.2353
▁tier	-12.2354
▁Oil	-12.2354
flo	-12.2355
▁absorb	-12.2355
▁Verizon	-12.2355
▁WRONG	-12.2355
▁compensation	-12.2355
▁discourage	-12.2355
▁Tikka	-12.2355
▁saucy	-12.2355
▁Fruit	-12.2355
▁Peppermill	-12.2355
▁altogether	-12.2355
▁roller	-12.2357
▁ding	-12.2358
▁personalized	-12.2361
▁curtains	-12.2362
▁2010	-12.2365
▁haunted	-12.2366
▁inner	-12.2368
▁(10	-12.2371
▁tiles	-12.2372
▁Macy	-12.2372
See	-12.2378
▁Late	-12.2383
▁LO	-12.2387
▁rocked	-12.2387
▁generation	-12.2388
▁statue	-12.2388
▁movement	-12.2388
▁battle	-12.2389
▁7:00	-12.239
▁instructed	-12.2392
▁stray	-12.2395
▁speciality	-12.2395
▁guessed	-12.2397
▁schnitzel	-12.2398
But	-12.2398
▁rode	-12.2399
▁McC	-12.2408
▁cabinets	-12.2408
▁existing	-12.241
23	-12.241
▁packets	-12.2411
▁coats	-12.2412
Sunday	-12.2413
Highly	-12.2416
▁65	-12.2419
▁Ty	-12.242
:00	-12.2421
▁Circus	-12.2421
▁Memorial	-12.2421
▁linguine	-12.2421
▁script	-12.2421
▁retain	-12.2421
▁chalkboard	-12.2422
▁Unique	-12.2422
▁established	-12.2425
▁clearance	-12.2426
▁addicting	-12.2431
▁blankets	-12.2432
▁matching	-12.2433
server	-12.2436
▁audio	-12.2442
▁soooooo	-12.2446
▁rope	-12.2448
▁Daughter	-12.2455
▁Drunken	-12.2455
▁Meridian	-12.2455
▁symptoms	-12.2455
▁dept	-12.2455
▁Pack	-12.2456
▁potentially	-12.2457
▁technically	-12.2459
▁Parm	-12.2462
▁Say	-12.247
▁$26	-12.2474
▁owed	-12.2479
▁Dick	-12.248
▁struggled	-12.248
ancy	-12.248
▁Wall	-12.2484
▁counted	-12.2487
▁Craig	-12.2488
▁evidence	-12.2488
▁resolution	-12.2488
▁unappetizing	-12.2488
▁lawyer	-12.2488
▁NEED	-12.2489
▁resource	-12.2489
LESS	-12.2491
▁contain	-12.2492
cold	-12.2492
▁Tell	-12.2493
▁Dive	-12.2496
stand	-12.25
▁fer	-12.2501
▁sealed	-12.2505
rito	-12.2505
▁hug	-12.251
▁lava	-12.2511
▁TOO	-12.2512
▁switching	-12.2513
Saturday	-12.2513
▁mirrors	-12.2521
roid	-12.2521
▁nostalgic	-12.2521
▁tournament	-12.2521
▁unbeatable	-12.2521
▁offensive	-12.2521
▁Eddie	-12.2522
▁shaking	-12.2522
▁Castle	-12.2522
▁precious	-12.2523
▁rowdy	-12.2524
▁delays	-12.2524
rare	-12.2531
▁scratches	-12.2533
▁Min	-12.2534
▁involve	-12.254
LU	-12.2543
anna	-12.2543
▁Pink	-12.2546
bil	-12.2546
know	-12.2547
▁decoration	-12.2548
▁PB	-12.2548
▁freeway	-12.2552
ually	-12.2554
▁Desert	-12.2555
▁Guacamole	-12.2555
▁indication	-12.2555
▁sculpture	-12.2555
▁unreasonable	-12.2555
▁rectify	-12.2555
▁55	-12.2555
06	-12.2556
▁Mountain	-12.2556
▁Ultimately	-12.2557
nky	-12.2558
▁judgement	-12.2561
▁sounding	-12.2562
▁Vic	-12.2568
ega	-12.257
RUN	-12.2571
bean	-12.2571
comp	-12.2572
▁Martini	-12.2573
▁transport	-12.2576
existent	-12.2579
boo	-12.2585
02	-12.2586
▁awkwardly	-12.2587
▁Margherita	-12.2589
▁violation	-12.2589
▁graduate	-12.2589
▁Melissa	-12.2589
▁Creme	-12.259
▁Trail	-12.259
▁zest	-12.2591
▁Gal	-12.2591
▁bleeding	-12.2595
▁destroyed	-12.2596
▁jaw	-12.2597
rap	-12.2604
▁PF	-12.2606
▁Bone	-12.2607
▁OFF	-12.2608
▁develop	-12.2609
▁BL	-12.261
▁bleach	-12.2622
▁carafe	-12.2622
▁monkey	-12.2623
▁Biscuit	-12.2624
▁creation	-12.2624
▁scr	-12.2624
▁Tender	-12.2625
erie	-12.2632
ential	-12.2634
▁Jon	-12.2639
eous	-12.2644
RN	-12.2645
atta	-12.2646
▁abundant	-12.2656
▁cemetery	-12.2656
▁century	-12.2656
▁Prior	-12.2656
▁fennel	-12.2656
▁Medium	-12.2656
▁Morning	-12.2657
▁Plant	-12.2657
▁definition	-12.2657
▁Evan	-12.266
▁offended	-12.2663
▁stem	-12.2666
▁partake	-12.2667
▁pairings	-12.2671
▁donate	-12.2672
etc	-12.2678
▁demanded	-12.2679
▁($6	-12.2683
stuffed	-12.2688
▁($4	-12.2688
▁Cheddar	-12.269
▁Hampton	-12.269
▁efficiency	-12.269
▁snake	-12.269
▁tweak	-12.269
▁mellow	-12.269
▁Somehow	-12.2693
▁scallions	-12.2694
▁doggie	-12.2695
▁imported	-12.2698
▁temporary	-12.2699
each	-12.27
ssi	-12.27
▁oat	-12.27
fill	-12.2701
▁cigarettes	-12.2705
bound	-12.2709
STA	-12.2709
▁cord	-12.271
▁rust	-12.2711
Gu	-12.2712
bla	-12.2715
▁Group	-12.2717
▁Peach	-12.2721
▁diagnose	-12.2722
▁mate	-12.2722
▁KNOW	-12.2724
▁MONEY	-12.2724
▁Pumpkin	-12.2724
▁Thomas	-12.2724
▁continuing	-12.2724
▁cultural	-12.2724
▁Sports	-12.2724
▁Pappy	-12.2725
▁Stu	-12.2726
▁Kobe	-12.2727
▁AVOID	-12.2733
▁suggesting	-12.2734
mph	-12.2735
▁sweater	-12.2735
▁Chip	-12.2748
awesome	-12.2751
▁mor	-12.2757
2.00	-12.2758
works	-12.2759
▁Broccoli	-12.2759
▁FRESH	-12.2759
▁Dollar	-12.2759
▁tennis	-12.2759
▁bahn	-12.2759
▁Monkey	-12.2759
▁Compare	-12.276
▁kicking	-12.2762
▁Kris	-12.2762
▁clearing	-12.2767
09	-12.2772
▁Clo	-12.2774
▁$55	-12.2775
URE	-12.2776
▁Fig	-12.2776
unch	-12.2781
▁Dean	-12.2783
▁dresser	-12.2784
ncy	-12.2787
65	-12.2787
▁Glass	-12.2793
▁clever	-12.2793
▁straightforward	-12.2793
▁sunglasses	-12.2793
▁psych	-12.2793
▁decaf	-12.2793
▁figuring	-12.2793
▁Crown	-12.2794
▁marrow	-12.2794
▁supper	-12.2794
▁According	-12.2797
▁accepting	-12.2799
lots	-12.2808
▁Bang	-12.2809
▁convert	-12.2816
esh	-12.2819
dio	-12.282
▁tested	-12.2824
▁Natural	-12.2827
▁easiest	-12.2827
▁judging	-12.2827
▁digress	-12.2828
▁Foster	-12.2828
▁debate	-12.2828
▁smoker	-12.2829
▁investment	-12.283
▁wrapper	-12.2831
▁muscle	-12.2832
▁slam	-12.2834
▁SC	-12.2835
AVE	-12.2835
▁recovery	-12.2837
▁suburbs	-12.2839
▁exhausted	-12.2841
▁dial	-12.2841
▁gosh	-12.2844
RS	-12.2844
▁sigh	-12.2846
Will	-12.2851
▁HA	-12.2854
▁visual	-12.2856
▁Find	-12.2858
fest	-12.2859
cakes	-12.2859
▁Tarpon	-12.2862
▁potstickers	-12.2862
▁shark	-12.2862
▁Crepe	-12.2867
ledge	-12.2869
▁documents	-12.2872
▁Fishers	-12.2873
▁forgive	-12.2877
trip	-12.2878
▁invite	-12.2882
▁caters	-12.289
▁Winn	-12.289
▁sup	-12.2891
▁buttered	-12.2892
▁mats	-12.2894
▁obtain	-12.2897
▁carrier	-12.2897
▁Combo	-12.2898
▁Opt	-12.2898
▁fab	-12.2898
▁Step	-12.2898
▁fixings	-12.2898
▁Mission	-12.2899
▁Body	-12.2899
▁forgettable	-12.2899
▁DR	-12.2899
▁swap	-12.29
▁folk	-12.2903
▁therapists	-12.2905
▁Butcher	-12.2906
▁Dough	-12.2908
▁Less	-12.291
▁29	-12.2913
▁folded	-12.2916
▁Rosa	-12.2917
▁Fra	-12.2921
▁reheat	-12.2922
▁radish	-12.293
▁CBD	-12.2932
▁HVAC	-12.2932
▁Memphis	-12.2932
▁trolley	-12.2932
▁banquet	-12.2932
▁swirl	-12.2932
▁unpretentious	-12.2932
▁wreck	-12.2932
▁neon	-12.2934
▁Typically	-12.2937
▁sliding	-12.2938
▁math	-12.2942
▁players	-12.2942
▁tenant	-12.2942
▁Pic	-12.2946
▁Mule	-12.295
▁Vin	-12.2957
▁reopen	-12.2958
▁hosting	-12.2958
▁cameras	-12.296
lou	-12.296
▁Rest	-12.2963
▁describing	-12.2967
▁intimidating	-12.2967
▁rehearsal	-12.2967
▁spouse	-12.2967
▁breed	-12.2967
▁borderline	-12.2967
▁Blueberry	-12.2967
▁wiping	-12.2967
▁prix	-12.2968
▁enthusiast	-12.2968
▁lend	-12.2971
98	-12.2972
▁Chee	-12.2976
▁transported	-12.2979
▁curt	-12.2984
▁harass	-12.299
▁curd	-12.299
round	-12.2996
▁Devil	-12.2997
▁Pit	-12.3
▁bliss	-12.3002
▁defensive	-12.3002
▁leasing	-12.3002
▁bamboo	-12.3002
▁valley	-12.3002
▁flea	-12.3003
▁Cro	-12.301
note	-12.301
▁stroller	-12.3011
road	-12.3015
jun	-12.3018
▁Jake	-12.3018
▁Ve	-12.3021
▁stumble	-12.3022
iana	-12.3023
▁camper	-12.3028
▁suited	-12.3029
▁stalls	-12.3029
▁($8	-12.3033
▁void	-12.3034
▁BEFORE	-12.3037
▁College	-12.3037
▁Marsala	-12.3037
▁Pudding	-12.3037
▁pomegranate	-12.3037
▁cotton	-12.3037
ueso	-12.3039
▁longest	-12.3039
▁Diet	-12.3041
▁$27	-12.3042
▁Busch	-12.3045
▁entertain	-12.3048
▁insulting	-12.3058
▁Ross	-12.3061
▁components	-12.3063
▁Ban	-12.3065
Located	-12.3066
▁neighboring	-12.3067
cup	-12.3071
Phenomenal	-12.3072
▁daiquiri	-12.3072
▁paradise	-12.3072
▁convey	-12.3072
ggle	-12.3072
▁Walnut	-12.3072
▁sincerely	-12.3073
▁attire	-12.3074
▁protection	-12.3075
BS	-12.3076
▁Thin	-12.3077
kill	-12.3079
▁showroom	-12.308
▁pine	-12.3082
▁killing	-12.3083
zel	-12.3083
ANT	-12.3087
▁Pita	-12.3089
▁wary	-12.3101
▁Period	-12.3108
▁observation	-12.3108
▁continuously	-12.311
▁crema	-12.311
▁Pure	-12.311
▁merely	-12.3113
▁mud	-12.3118
mex	-12.312
▁flavours	-12.3124
▁Starr	-12.3131
seriously	-12.3137
08	-12.314
▁cockroach	-12.3143
▁nestled	-12.3143
▁styling	-12.3143
▁Truffle	-12.3143
▁$1000	-12.3144
▁froyo	-12.3144
▁cowboy	-12.3145
▁Pike	-12.3146
ility	-12.3151
▁Mix	-12.3151
▁Six	-12.3157
▁divey	-12.3162
▁teaching	-12.3168
hl	-12.3169
▁31	-12.3176
▁avail	-12.3179
▁THREE	-12.3179
▁portobello	-12.3179
▁Casual	-12.3179
▁suburban	-12.3179
erry	-12.3187
▁Bathroom	-12.3189
▁tar	-12.3192
Exceptional	-12.3193
▁150	-12.3193
▁Waiting	-12.3195
▁bounce	-12.3195
▁bas	-12.3196
▁FAR	-12.3203
▁flood	-12.3203
▁Pen	-12.3204
▁functional	-12.3204
▁posters	-12.3204
▁Average	-12.3207
▁redone	-12.3209
extra	-12.3211
▁Commander	-12.3215
▁Crystal	-12.3215
▁Harrah	-12.3215
▁WAIT	-12.3215
▁sleek	-12.3215
▁Joseph	-12.3215
▁Fabulous	-12.3217
cation	-12.3218
▁asset	-12.3219
▁litter	-12.3222
▁knocking	-12.3229
AGE	-12.323
▁foodies	-12.3231
▁Appetizer	-12.3231
▁ethic	-12.3235
treat	-12.3235
21	-12.3238
literally	-12.3245
▁mag	-12.3246
▁Overpriced	-12.3247
▁Lexus	-12.3251
▁London	-12.3251
▁grumpy	-12.3251
▁horrific	-12.3251
▁luxurious	-12.3251
▁affair	-12.3251
▁jet	-12.3251
▁assessment	-12.3252
Waited	-12.3259
▁blessed	-12.326
▁chemicals	-12.3262
▁Fest	-12.3266
lg	-12.3269
TION	-12.3273
spice	-12.3279
authentic	-12.3281
▁hyped	-12.3284
▁kicker	-12.3286
▁Captain	-12.3287
▁disregard	-12.3287
▁Tuscan	-12.3287
▁landmark	-12.3287
▁Yoga	-12.3288
Ga	-12.3289
▁flare	-12.3291
drinks	-12.3299
▁$21	-12.3299
▁$23	-12.3299
cast	-12.3305
▁Gary	-12.3307
▁flame	-12.3318
/21	-12.3322
▁Missouri	-12.3323
▁scotch	-12.3323
▁Furthermore	-12.3323
▁Pollo	-12.3324
▁moisture	-12.3325
eng	-12.3326
nan	-12.3328
Look	-12.3329
▁deny	-12.3331
▁peaches	-12.3333
▁redfish	-12.3333
▁Standard	-12.3334
▁Wing	-12.3338
FUL	-12.3342
MS	-12.3343
▁crumb	-12.3351
lig	-12.3354
tini	-12.3359
▁Katrina	-12.336
▁Multiple	-12.336
▁Subaru	-12.336
▁deceiving	-12.336
▁seitan	-12.336
▁chopsticks	-12.336
▁guava	-12.336
▁Therefore	-12.336
▁Unbelievable	-12.336
▁WANT	-12.336
▁unfair	-12.336
▁Roman	-12.3361
▁managing	-12.3362
▁specify	-12.3363
▁Maryland	-12.3363
LT	-12.3365
▁Dress	-12.3367
▁PR	-12.337
OOOO	-12.3372
▁threading	-12.3373
▁Wanted	-12.3376
▁suffered	-12.338
▁scratched	-12.3381
witch	-12.3385
MENT	-12.3388
▁dreaming	-12.3389
▁creep	-12.3389
Friday	-12.3391
uv	-12.3392
▁stranger	-12.3393
▁Enchilada	-12.3396
▁Limited	-12.3396
▁contribute	-12.3396
▁focaccia	-12.3396
▁hazard	-12.3396
▁landscaping	-12.3396
▁survey	-12.3396
▁swipe	-12.3396
▁tanning	-12.3397
▁GPS	-12.3397
▁hanger	-12.3397
▁drew	-12.3398
▁Kee	-12.3401
▁Nut	-12.3403
▁THEN	-12.3408
temp	-12.3409
▁Fix	-12.341
cool	-12.3416
▁cube	-12.3421
excellent	-12.3428
▁Fran	-12.343
▁FINALLY	-12.3433
▁intriguing	-12.3433
▁Strong	-12.3433
▁Pineapple	-12.3433
▁Capital	-12.3433
▁hiding	-12.3434
▁grandson	-12.3435
▁loading	-12.3436
Pros	-12.3439
▁2011	-12.344
▁blond	-12.3447
city	-12.3448
gel	-12.3451
▁lone	-12.3452
pal	-12.3454
▁sex	-12.3455
▁haunt	-12.3459
ATION	-12.3463
OOD	-12.3464
case	-12.3467
▁contains	-12.3469
▁ghetto	-12.3469
▁newspaper	-12.3469
▁retired	-12.3469
▁swallow	-12.3469
▁Plumbing	-12.3469
▁toffee	-12.347
▁flagged	-12.347
▁Wesley	-12.3473
▁TRY	-12.3473
▁Beth	-12.3474
▁interrupted	-12.3479
▁GR	-12.3483
▁aftertaste	-12.3484
▁supportive	-12.3484
▁metro	-12.3487
▁Stout	-12.3487
▁Chapel	-12.3489
eaux	-12.3492
▁performing	-12.3496
Sha	-12.3498
▁BAR	-12.3505
▁communal	-12.3506
isse	-12.3507
▁predict	-12.3507
▁Jewel	-12.3512
▁straighten	-12.3513
nni	-12.3513
jack	-12.3513
▁plump	-12.3514
▁Pao	-12.3515
Sat	-12.3515
being	-12.3515
▁slush	-12.3518
▁cabinet	-12.3521
▁Eating	-12.3522
Hmm	-12.3523
▁Board	-12.3527
▁promo	-12.3537
bartender	-12.3539
grown	-12.3542
nia	-12.3543
▁cured	-12.3543
▁disgrace	-12.3543
▁village	-12.3543
▁Aaron	-12.3543
▁Choice	-12.3544
▁adorn	-12.3544
▁immensely	-12.3545
▁Veal	-12.3547
▁chewing	-12.3547
Star	-12.3547
▁validate	-12.3549
▁tex	-12.3549
club	-12.3549
lap	-12.355
▁4-6	-12.3551
▁relie	-12.3552
▁Mat	-12.3553
▁cop	-12.3559
▁baker	-12.3564
▁smash	-12.3569
step	-12.357
EW	-12.3571
▁cycle	-12.3573
▁Sco	-12.3576
▁AWFUL	-12.3581
▁nostalgia	-12.3581
▁trunk	-12.3581
▁ultra	-12.3581
▁papaya	-12.3581
▁Odd	-12.3582
nick	-12.3582
▁Susan	-12.3584
▁AN	-12.3585
▁Sau	-12.3586
▁pictured	-12.3587
ART	-12.3595
▁linens	-12.3596
▁admittedly	-12.3597
▁travelers	-12.3598
▁matches	-12.36
▁suffering	-12.3601
▁abuse	-12.3605
▁burst	-12.3608
▁Pearl	-12.361
▁Belle	-12.3611
Yeah	-12.3614
▁supplement	-12.3618
▁Immediately	-12.3618
▁Major	-12.3618
▁buddies	-12.3618
▁hankering	-12.3618
▁indecisive	-12.3618
▁registration	-12.3618
▁tortellini	-12.3618
▁sponge	-12.3618
▁tampa	-12.3618
▁robust	-12.3618
▁guidelines	-12.3618
▁reveal	-12.3618
▁CASH	-12.3618
▁acai	-12.3619
▁champ	-12.3619
▁Fishtown	-12.362
▁Panda	-12.362
meter	-12.3622
▁Ali	-12.3633
▁Ace	-12.3633
every	-12.3637
▁Mmm	-12.3638
▁(2)	-12.3644
▁CRA	-12.3649
▁Kid	-12.3649
▁flank	-12.3649
▁Team	-12.365
YUM	-12.3651
26	-12.3653
▁submit	-12.3655
▁Dumplings	-12.3655
▁Hibachi	-12.3655
▁Seminole	-12.3655
▁subsequent	-12.3655
▁novelty	-12.3656
▁lining	-12.3656
▁readily	-12.3659
▁approachable	-12.3661
▁carryout	-12.3669
urri	-12.367
▁quietly	-12.3675
Reg	-12.3676
via	-12.3677
ila	-12.3681
▁hopeful	-12.3681
yyyy	-12.3687
...........	-12.369
▁Columbia	-12.3693
▁reccomend	-12.3693
▁sweep	-12.3693
▁Pecan	-12.3694
▁charts	-12.3698
▁regretted	-12.3701
ifying	-12.3702
▁nick	-12.3703
▁cus	-12.371
▁texting	-12.3712
▁Rocky	-12.3722
▁walkway	-12.3722
paid	-12.3724
/11	-12.3725
eating	-12.3727
▁CLEAN	-12.3731
▁Mercedes	-12.3731
▁episode	-12.3731
▁miracle	-12.3731
▁Hyde	-12.3731
▁digital	-12.3731
▁digging	-12.3732
▁poppers	-12.3732
▁comb	-12.3733
▁roaches	-12.3733
▁excel	-12.3733
▁lite	-12.3734
▁curse	-12.3735
▁relaxation	-12.3737
▁Pal	-12.3741
▁Set	-12.3743
▁Vine	-12.3747
▁36	-12.3751
▁waitlist	-12.3751
position	-12.3759
Incredible	-12.3765
build	-12.3765
▁Mussels	-12.3768
▁carpaccio	-12.3768
▁Jewish	-12.3769
▁Public	-12.3769
▁goodbye	-12.3769
▁Throughout	-12.3769
▁submitted	-12.3769
▁mixes	-12.3786
▁competitor	-12.3787
game	-12.3791
▁witness	-12.3796
▁claiming	-12.3802
Simply	-12.3803
traditional	-12.3803
normal	-12.3804
sell	-12.3805
cott	-12.3805
▁musical	-12.3805
▁Ravioli	-12.3807
▁Taiwanese	-12.3807
▁fifth	-12.3807
▁university	-12.3807
▁pupusa	-12.3807
▁Tyler	-12.3807
▁agency	-12.3807
▁crime	-12.3807
▁Polish	-12.3808
▁chin	-12.3808
▁sang	-12.3809
▁Jamie	-12.3809
▁Cupcake	-12.3809
▁Wil	-12.3826
▁passable	-12.3827
UD	-12.3827
▁career	-12.3828
▁CON	-12.3836
▁Ran	-12.3842
▁Uncle	-12.3843
▁departure	-12.3845
▁shining	-12.3845
▁inspector	-12.3848
▁Strange	-12.3849
▁Theater	-12.385
▁Popeyes	-12.385
▁consume	-12.385
▁mama	-12.3853
Pho	-12.3853
▁germ	-12.3854
▁Bel	-12.3855
▁dusty	-12.3866
eck	-12.3869
▁spec	-12.3871
▁Cass	-12.3876
▁reluctant	-12.3877
Customer	-12.388
yelp	-12.3881
▁intrusive	-12.3883
▁gummy	-12.3884
▁RIGHT	-12.3884
▁COLD	-12.3884
▁Funny	-12.3885
▁exc	-12.3886
▁chatty	-12.3888
▁reluctantly	-12.3889
▁swo	-12.389
▁upsetting	-12.3895
▁Vo	-12.39
▁trans	-12.3908
arch	-12.3909
▁Edit	-12.3913
▁variations	-12.3918
▁assess	-12.392
eu	-12.392
▁Attentive	-12.3921
▁DMV	-12.3921
▁Spaghetti	-12.3921
▁default	-12.3921
▁equipped	-12.3921
▁parmigiana	-12.3921
▁tastiest	-12.3921
▁Dallas	-12.3921
▁galore	-12.3921
▁Blanc	-12.3923
▁Bird	-12.3924
▁ware	-12.3926
▁101	-12.3929
live	-12.3929
▁rapid	-12.3929
▁Around	-12.393
▁Lucy	-12.393
▁donation	-12.3933
▁Noble	-12.3937
▁requirements	-12.3946
▁angle	-12.3947
▁Easily	-12.3948
▁bumped	-12.395
33	-12.395
▁Liz	-12.3954
bowl	-12.3958
BEST	-12.3959
▁Bought	-12.396
immer	-12.396
▁Treasure	-12.396
▁whisper	-12.396
▁BOMB	-12.396
▁Damn	-12.396
▁edit	-12.3961
Poor	-12.3962
hou	-12.3962
▁stealing	-12.3964
▁shortcake	-12.3969
▁overdue	-12.397
nea	-12.397
thin	-12.3974
Price	-12.3997
aine	-12.3998
▁Repair	-12.3999
▁unsatisfied	-12.3999
▁Earth	-12.3999
▁altered	-12.3999
▁Oscar	-12.3999
▁scalp	-12.3999
ECT	-12.3999
▁hottest	-12.4
▁roti	-12.4001
▁DONT	-12.4003
▁sentence	-12.4004
▁farther	-12.4006
NG	-12.4008
▁PJ	-12.4008
▁Doug	-12.4012
▁delightfully	-12.4015
▁relatives	-12.4018
OT	-12.4025
▁sweating	-12.4035
▁customized	-12.4035
▁Cuisine	-12.4038
▁Morgan	-12.4038
▁Alaska	-12.4038
bacon	-12.4039
▁noticing	-12.4039
▁net	-12.4039
▁paw	-12.4042
▁dose	-12.4043
▁suitable	-12.4043
▁selecting	-12.4046
mostly	-12.4048
wich	-12.4049
/13	-12.4053
itude	-12.4064
maker	-12.4065
▁nook	-12.4065
▁lifting	-12.4066
▁lucked	-12.4068
▁CONS	-12.4069
▁bent	-12.4072
Fabulous	-12.4074
▁ANYTHING	-12.4077
▁Stromboli	-12.4077
▁barbeque	-12.4077
▁inclined	-12.4077
▁popsicle	-12.4077
▁bicycle	-12.4077
▁petite	-12.4079
1/2	-12.4079
▁breathe	-12.4079
▁bullet	-12.408
▁performers	-12.4081
▁uncooked	-12.4082
crab	-12.4083
▁lassi	-12.4084
▁nation	-12.4085
▁Train	-12.4087
ARE	-12.4087
nite	-12.4089
once	-12.4089
aga	-12.4091
▁louder	-12.4092
▁Deep	-12.4093
▁novel	-12.4096
▁melting	-12.41
give	-12.4111
▁Trying	-12.4115
▁whisk	-12.4116
uesadilla	-12.4116
▁explosion	-12.4116
▁jasmine	-12.4116
▁sarcastic	-12.4116
▁tandoori	-12.4116
▁Pacific	-12.4116
▁Suites	-12.4116
▁contest	-12.4116
▁Friend	-12.4116
▁varies	-12.4116
▁gritty	-12.4117
▁unsafe	-12.4117
▁Chase	-12.4117
▁Delish	-12.4121
▁advanced	-12.4129
▁Root	-12.4137
▁remodeling	-12.4138
fall	-12.4143
chain	-12.4143
arily	-12.4145
▁tracking	-12.4151
▁loin	-12.4154
▁critique	-12.4155
▁gimmick	-12.4155
▁suspicious	-12.4155
▁Northeast	-12.4156
▁candies	-12.4157
▁bolt	-12.4158
▁Slice	-12.4158
▁advisor	-12.4161
▁visually	-12.4162
rc	-12.4169
▁Roma	-12.4172
▁hor	-12.4183
▁Porter	-12.4184
Par	-12.4184
▁skewer	-12.4187
wind	-12.4188
▁Power	-12.4195
▁TSA	-12.4195
▁MANY	-12.4195
-12	-12.4196
▁unknown	-12.4196
▁flyer	-12.4205
▁Linda	-12.4207
▁5-7	-12.4208
cini	-12.4209
03	-12.4212
ika	-12.4213
▁indifferent	-12.4216
arian	-12.422
▁GA	-12.4222
▁cops	-12.4226
▁$120	-12.4226
▁employ	-12.423
▁Yelper	-12.423
▁argument	-12.4234
▁accomodating	-12.4235
▁aforementioned	-12.4235
▁possibility	-12.4235
▁Jesus	-12.4235
▁Stephen	-12.4235
▁$65	-12.4236
▁Joy	-12.4236
▁nickel	-12.4236
far	-12.4238
▁haul	-12.4238
empt	-12.4245
▁misses	-12.4261
▁transform	-12.4263
▁instruction	-12.4273
▁mock	-12.4273
▁Pretzel	-12.4274
▁cluster	-12.4274
▁intersection	-12.4274
▁tahini	-12.4274
▁unfamiliar	-12.4274
▁restored	-12.4275
▁foreign	-12.4275
▁snapped	-12.4275
▁yellowtail	-12.4275
▁fraud	-12.4275
▁smokers	-12.4277
UGH	-12.4278
▁cellar	-12.4278
berries	-12.4283
▁timeline	-12.43
??)	-12.4305
▁Grant	-12.4306
agger	-12.4306
scale	-12.4307
rose	-12.4307
unda	-12.4311
fruit	-12.4313
girl	-12.4314
▁stereo	-12.4314
▁dispatch	-12.4314
▁unaware	-12.4314
▁motorcycle	-12.4314
▁masterpiece	-12.4315
illion	-12.4315
▁COME	-12.4315
▁speakeasy	-12.4316
▁Donut	-12.4316
▁Sil	-12.4316
▁chit	-12.4316
▁fax	-12.4317
▁passport	-12.4317
▁fest	-12.432
▁officer	-12.4321
▁Nam	-12.4324
▁lifestyle	-12.4326
▁eve	-12.4329
▁macarons	-12.4332
▁Elite	-12.4334
50)	-12.434
▁Typical	-12.4341
▁pole	-12.4341
flavor	-12.4341
▁chemical	-12.4342
▁Dale	-12.4342
▁vote	-12.4343
▁Mod	-12.4347
▁reno	-12.4348
▁Soooo	-12.4351
▁breathing	-12.4354
▁Sonoran	-12.4355
▁Twice	-12.4355
▁approval	-12.4355
▁unwilling	-12.4355
▁commend	-12.4355
▁silent	-12.4355
▁remainder	-12.4355
black	-12.4356
putting	-12.4356
▁yuck	-12.4356
politan	-12.4357
customer	-12.436
▁Kate	-12.4361
▁breaker	-12.4363
▁drowned	-12.4364
SIDE	-12.4365
▁masked	-12.4365
▁reopened	-12.4368
▁gather	-12.4373
anger	-12.4375
▁marinade	-12.4376
gress	-12.4376
▁Mint	-12.4379
▁bok	-12.438
logical	-12.4381
smoke	-12.4386
▁robe	-12.4394
▁Initially	-12.4395
▁Saigon	-12.4395
▁compromise	-12.4395
▁cosmetic	-12.4395
▁economy	-12.4395
▁sliver	-12.4395
▁Pepsi	-12.4395
▁gossip	-12.4395
▁Resort	-12.4396
▁Comfortable	-12.4396
▁referring	-12.4396
▁Shout	-12.4397
LED	-12.4401
▁crabcake	-12.4402
aaa	-12.4405
▁enjoyment	-12.4406
▁deeply	-12.4414
▁:/	-12.4414
▁cure	-12.4416
▁utter	-12.4419
▁waive	-12.4421
▁CL	-12.4423
▁Wok	-12.4423
▁Soul	-12.4423
ador	-12.4427
▁jerky	-12.4431
▁Marc	-12.4431
och	-12.4434
Though	-12.4434
eez	-12.4435
▁Mae	-12.4435
▁Canadian	-12.4435
▁clarify	-12.4435
▁recliner	-12.4435
▁relieved	-12.4435
▁coordinate	-12.4436
▁vague	-12.4436
happy	-12.4436
▁backwards	-12.4437
brew	-12.4437
visit	-12.4439
▁papa	-12.444
Looking	-12.4447
▁existent	-12.4451
▁HD	-12.4452
City	-12.4452
▁demanding	-12.4462
▁shaker	-12.4463
▁cheeks	-12.4464
may	-12.4466
▁hardest	-12.4466
ibly	-12.4467
▁Roy	-12.4469
Lovely	-12.4473
Three	-12.4475
should	-12.4475
Mexican	-12.4475
smoking	-12.4475
▁citizen	-12.4476
▁diligent	-12.4476
▁flounder	-12.4476
▁mound	-12.4476
▁Ribeye	-12.4476
▁consultant	-12.4477
▁Bake	-12.4479
▁disconnected	-12.4482
due	-12.4485
▁educational	-12.4485
▁notification	-12.4487
Pu	-12.4498
▁asap	-12.45
▁detailing	-12.45
▁Boba	-12.4503
working	-12.4505
▁fritter	-12.4506
▁bush	-12.4508
▁sprinkles	-12.4511
▁assisting	-12.4516
ntinu	-12.4516
▁Falafel	-12.4517
▁saffron	-12.4517
▁servicing	-12.4517
▁silence	-12.4517
▁morsel	-12.4517
▁Picture	-12.4517
▁Kathy	-12.4518
▁Anytime	-12.4519
▁plating	-12.4519
Long	-12.4519
▁prawns	-12.4519
▁Labor	-12.4522
Heard	-12.4522
PER	-12.453
▁briefly	-12.4531
▁MD	-12.4531
▁licking	-12.4532
illian	-12.4535
▁crawling	-12.4537
▁youngest	-12.454
▁Ash	-12.454
FE	-12.4542
▁kar	-12.4547
▁brushed	-12.4549
▁frequenting	-12.4555
▁ruining	-12.4557
▁Moscow	-12.4558
▁cautious	-12.4558
▁mandatory	-12.4558
▁;-)	-12.4558
▁THEIR	-12.4558
▁annoyance	-12.4558
▁leash	-12.4558
▁dragged	-12.4558
pepper	-12.4559
▁Bee	-12.456
oops	-12.4561
uli	-12.4562
IES	-12.4562
worthy	-12.4562
▁hunting	-12.4562
▁($9	-12.4563
▁dissapointed	-12.4564
▁Dee	-12.4567
▁director	-12.4567
▁sweetened	-12.4571
▁needle	-12.4574
▁ordeal	-12.4576
▁Deal	-12.4578
▁(8	-12.458
▁loaner	-12.4581
▁Monte	-12.4587
▁fil	-12.4598
rub	-12.4598
WHERE	-12.4599
▁chimichurri	-12.4599
▁incompetence	-12.4599
▁jealous	-12.4599
▁remedy	-12.4599
▁swift	-12.4599
▁faint	-12.4599
▁korma	-12.4599
▁Abita	-12.4599
▁Leave	-12.46
▁Travel	-12.46
help	-12.46
RED	-12.4601
▁Chill	-12.4602
▁Tommy	-12.4603
▁melty	-12.4609
burbs	-12.4614
wide	-12.4614
mmmmm	-12.4619
▁Villa	-12.4622
Come	-12.4623
▁Pastor	-12.4639
Favorite	-12.464
▁Diamond	-12.464
▁Different	-12.464
▁attribute	-12.464
▁captain	-12.464
▁Seasons	-12.464
salted	-12.4641
▁Anyhow	-12.4641
▁uninspired	-12.4641
▁Jenny	-12.4642
▁busiest	-12.4643
TING	-12.4647
▁busser	-12.4647
▁deliveries	-12.4649
rous	-12.465
▁costly	-12.465
▁fulfill	-12.4659
clear	-12.4659
Bad	-12.4661
ended	-12.4665
▁fiancee	-12.467
▁thumb	-12.4673
$20	-12.4677
▁teenage	-12.468
miscommunication	-12.4682
▁Ardmore	-12.4682
▁Prussia	-12.4682
▁automated	-12.4682
▁gorgonzola	-12.4682
▁streak	-12.4682
▁LOUD	-12.4682
▁horrid	-12.4682
▁$5.00	-12.4683
▁Blackened	-12.4683
▁thi	-12.4684
▁Kong	-12.4686
▁installing	-12.4704
▁Spent	-12.4706
▁Billy	-12.4709
▁umbrella	-12.4715
▁blocking	-12.4722
▁COMPANY	-12.4723
▁Problem	-12.4723
▁WHY	-12.4723
▁shrugged	-12.4723
▁unsanitary	-12.4723
▁diversity	-12.4724
▁Comcast	-12.4724
▁handicapped	-12.4724
▁Germantown	-12.4725
▁someday	-12.4727
boat	-12.4728
▁Fashioned	-12.473
▁3:00	-12.4731
▁peppery	-12.4731
▁drooling	-12.4733
▁Holly	-12.4737
▁Trans	-12.4737
▁Listen	-12.4738
▁Brook	-12.4746
▁Magic	-12.4748
▁disturb	-12.4749
▁smelly	-12.4757
▁Foo	-12.4758
▁Band	-12.4764
▁Cindy	-12.4765
▁Sriracha	-12.4765
▁depressing	-12.4765
▁spider	-12.4765
Possibly	-12.4765
▁sublime	-12.4766
cross	-12.4766
▁Nancy	-12.4767
▁showcase	-12.4767
▁shellfish	-12.4767
another	-12.4769
▁spoonful	-12.477
▁Floor	-12.4771
▁NYE	-12.4772
▁popularity	-12.4773
▁bedside	-12.478
▁shore	-12.4795
700	-12.4796
▁HOUR	-12.4805
▁Almond	-12.4807
▁Puerto	-12.4807
▁necklace	-12.4807
▁accused	-12.4807
▁bathtub	-12.4807
▁admire	-12.4807
▁disabled	-12.4807
▁Church	-12.4807
▁foremost	-12.4807
▁harbor	-12.4808
▁Catfish	-12.4808
Thai	-12.4808
RIP	-12.4809
▁asshole	-12.4809
-15	-12.481
▁Mag	-12.4811
Try	-12.4814
▁growth	-12.4818
▁eff	-12.4825
▁Welcome	-12.4827
agged	-12.4834
licious	-12.4834
▁adopt	-12.4836
▁camping	-12.4837
▁accomplish	-12.4838
▁spoil	-12.4838
▁crank	-12.4843
▁Lebanese	-12.485
▁Presentation	-12.485
▁excellence	-12.485
▁parsley	-12.485
▁urgency	-12.485
▁paddle	-12.4851
finite	-12.4851
▁Sears	-12.4853
?!)	-12.4854
▁measured	-12.4854
HH	-12.4855
▁bedding	-12.4856
rock	-12.4858
▁Ew	-12.4859
▁starch	-12.4862
ido	-12.4867
cado	-12.4871
Of	-12.4872
▁shove	-12.4879
▁scarf	-12.488
▁Meatballs	-12.4882
▁earthy	-12.4884
$$	-12.4889
▁Veteran	-12.4892
▁vietnamese	-12.4892
▁gristle	-12.4892
▁Generous	-12.4892
▁faux	-12.4892
▁veterinarian	-12.4892
▁existence	-12.4892
ician	-12.4893
sometimes	-12.4893
▁Offer	-12.4893
▁duct	-12.4893
▁unhealthy	-12.4893
▁marvelous	-12.4895
▁reader	-12.4895
▁buttercream	-12.4895
▁yeast	-12.4896
▁AMC	-12.4899
yet	-12.4902
▁Thailand	-12.4905
▁pierogi	-12.4907
▁foul	-12.4909
▁Heck	-12.4915
▁crumbled	-12.4917
GO	-12.492
▁artistic	-12.4923
▁uptown	-12.4927
▁overwhelmingly	-12.4931
word	-12.4932
▁roach	-12.4933
▁Omelet	-12.4934
▁Affordable	-12.4934
▁disposable	-12.4934
▁mortgage	-12.4934
▁identical	-12.4934
▁prison	-12.4935
UPDATE	-12.4935
Bought	-12.4936
Sushi	-12.4936
▁mochi	-12.4937
piece	-12.4939
▁cork	-12.4941
▁strap	-12.4942
▁Media	-12.4944
▁pampered	-12.4945
CC	-12.4948
▁DIE	-12.495
▁($7	-12.4959
▁hurting	-12.4972
ppo	-12.4972
▁$600	-12.4977
▁Arnold	-12.4977
▁cherries	-12.4977
▁lychee	-12.4977
▁British	-12.4977
▁dollop	-12.4977
▁scrapple	-12.4978
▁acidic	-12.4978
related	-12.4978
▁View	-12.4979
▁lager	-12.4982
▁reek	-12.4983
▁reset	-12.4984
▁2:00	-12.4986
▁data	-12.4988
▁Knowing	-12.4989
▁Expensive	-12.4992
▁adopted	-12.4993
▁funds	-12.4995
nese	-12.5003
▁fluff	-12.5015
▁sprout	-12.5016
mmie	-12.5016
▁joining	-12.5019
kept	-12.502
▁Dynasty	-12.502
▁approx	-12.502
▁crinkle	-12.502
▁esthetician	-12.502
▁katsu	-12.502
▁Flower	-12.502
▁Uh	-12.5021
▁radar	-12.5021
ahav	-12.5021
▁Temple	-12.5022
tasting	-12.5022
▁echo	-12.5023
▁bagged	-12.5024
▁talkative	-12.5027
▁wishes	-12.5028
▁similarly	-12.5028
▁china	-12.5032
▁Temp	-12.5034
▁disturbing	-12.5037
▁richness	-12.5037
▁Fry	-12.5037
Wish	-12.5038
uiet	-12.5049
▁lait	-12.5053
member	-12.5054
▁porter	-12.5054
actually	-12.5054
season	-12.5055
▁Willie	-12.5057
path	-12.5057
31	-12.5058
Alright	-12.5061
▁Gorgonzola	-12.5063
▁consuming	-12.5063
▁criminal	-12.5063
▁Dentist	-12.5063
▁fancier	-12.5063
▁nutella	-12.5064
▁Design	-12.5064
▁cried	-12.5064
▁maze	-12.5064
wrapped	-12.5065
▁Snow	-12.507
MB	-12.5072
mill	-12.5075
▁advertisement	-12.5075
▁scored	-12.5077
COM	-12.5079
▁researched	-12.5088
▁Know	-12.5097
▁sorta	-12.5102
▁emotional	-12.5102
▁Brittany	-12.5107
▁Hooters	-12.5107
▁crooked	-12.5107
▁linguini	-12.5107
▁rigatoni	-12.5107
▁Christina	-12.5107
▁2/3	-12.5107
Terrific	-12.5107
chocolate	-12.5108
▁leisurely	-12.5109
▁lord	-12.5111
▁mileage	-12.5111
▁Jackie	-12.5114
▁Nash	-12.5115
▁hunk	-12.5116
▁Incredibly	-12.5122
▁stringy	-12.5128
▁screamed	-12.5132
menu	-12.5137
▁maintaining	-12.5139
SC	-12.5141
▁quart	-12.5143
▁technical	-12.5144
▁stool	-12.5148
Purchase	-12.515
▁Chorizo	-12.515
▁Security	-12.515
▁creature	-12.515
▁exaggeration	-12.515
▁30-40	-12.515
▁amateur	-12.515
▁shook	-12.5151
▁wagyu	-12.5151
Literally	-12.5152
▁oak	-12.5152
▁informing	-12.5153
▁Often	-12.5153
▁Drop	-12.5154
▁socialize	-12.5154
▁improving	-12.5155
▁Rita	-12.5159
ALLY	-12.5159
Che	-12.5161
▁Slight	-12.5162
market	-12.5164
▁shipment	-12.5164
▁Peg	-12.5168
iki	-12.5169
▁shaded	-12.5173
▁Hello	-12.5173
▁Jill	-12.5174
▁Pale	-12.5175
?!?!?	-12.5179
▁bumping	-12.5181
00.00	-12.5183
lina	-12.5185
pel	-12.519
▁glob	-12.5193
▁Tiramisu	-12.5194
▁Window	-12.5194
▁furnace	-12.5194
▁irritating	-12.5194
▁negotiate	-12.5194
before	-12.5196
South	-12.5196
▁Hong	-12.5198
izer	-12.5199
ensuring	-12.5199
▁drawing	-12.52
▁Added	-12.5204
▁VA	-12.5205
▁wineries	-12.5207
until	-12.5207
▁Cooper	-12.521
▁licked	-12.521
loud	-12.5211
▁union	-12.5211
▁Woo	-12.5216
▁$32	-12.5221
▁steering	-12.5224
200	-12.5225
rrrr	-12.5236
▁Cinnamon	-12.5238
▁MSG	-12.5238
▁bullshit	-12.5238
▁debating	-12.5238
▁iconic	-12.5238
▁identified	-12.5238
▁poblano	-12.5238
▁qualified	-12.5238
▁razor	-12.5238
▁mouthwatering	-12.5238
▁operator	-12.5238
▁mop	-12.5238
▁kitten	-12.5238
▁Omelette	-12.5238
▁clay	-12.5239
people	-12.5239
▁Everybody	-12.5239
▁Wonton	-12.5241
▁gang	-12.5241
▁saltiness	-12.5244
▁nite	-12.5244
xx	-12.5244
▁Barber	-12.5244
▁pong	-12.5246
vity	-12.525
CHE	-12.5257
▁purely	-12.5262
▁col	-12.5265
▁dosa	-12.5268
▁tuned	-12.527
▁vacuumed	-12.5279
▁Lafayette	-12.5282
▁Relax	-12.5282
▁Tortilla	-12.5282
▁nursing	-12.5282
▁Field	-12.5282
▁explode	-12.5282
▁Forest	-12.5282
▁password	-12.5282
etti	-12.5283
▁Corona	-12.5283
Wanted	-12.5284
ital	-12.5289
sort	-12.5291
▁hovering	-12.5291
▁blessing	-12.5292
▁cali	-12.5293
▁remade	-12.5296
▁printing	-12.53
▁unexpectedly	-12.5302
EAT	-12.5304
▁Row	-12.5304
▁emp	-12.5311
▁Generally	-12.5311
scribe	-12.5315
▁foo	-12.5321
▁Mari	-12.5326
▁Velvet	-12.5326
▁communicating	-12.5326
▁conflict	-12.5326
▁imitation	-12.5326
▁Emeril	-12.5326
▁Colorado	-12.5326
▁Sent	-12.5326
▁slapped	-12.5326
▁trimming	-12.5326
▁punk	-12.5327
▁snobby	-12.5328
▁intimidated	-12.533
▁relocated	-12.5331
▁Kha	-12.5331
▁Roof	-12.5331
▁Funk	-12.5331
▁waterfront	-12.5333
▁lace	-12.5337
▁transformed	-12.5339
▁addict	-12.5342
▁gran	-12.5345
standing	-12.5351
$1	-12.5352
▁Kia	-12.5363
Five	-12.5364
▁repeating	-12.5366
▁Corporate	-12.537
▁Michigan	-12.537
▁tapioca	-12.537
▁fresco	-12.537
▁heaping	-12.537
▁blink	-12.5371
▁compote	-12.5371
▁PBR	-12.5372
neck	-12.5372
▁awake	-12.5373
▁Goose	-12.5374
better	-12.5375
void	-12.5379
▁thier	-12.538
ambi	-12.538
▁Cri	-12.5382
▁Chap	-12.5388
▁thickness	-12.5392
alia	-12.5393
▁awesomeness	-12.5399
▁washes	-12.5401
▁excess	-12.5414
▁Felix	-12.5415
▁Jefferson	-12.5415
▁breathtaking	-12.5415
▁radius	-12.5415
▁unforgettable	-12.5415
▁unremarkable	-12.5415
▁stoked	-12.5415
▁atleast	-12.5415
▁drama	-12.5415
▁pierced	-12.5415
▁infant	-12.5415
▁chan	-12.5416
▁mason	-12.5417
▁Megan	-12.5417
37	-12.5417
▁HOURS	-12.5418
▁Proper	-12.5418
▁acknowledgement	-12.5418
dress	-12.542
Lots	-12.542
▁Loop	-12.5421
Bro	-12.5428
▁Yup	-12.5429
▁Newtown	-12.5435
▁behalf	-12.5436
69	-12.5436
Stumble	-12.5438
▁expanding	-12.5439
zie	-12.5444
▁pallet	-12.5448
▁shareable	-12.5451
▁guilt	-12.5456
▁Gnocchi	-12.546
▁Jasmine	-12.546
▁Mojito	-12.546
▁PEOPLE	-12.546
▁hairdresser	-12.546
▁heavier	-12.546
▁Nasty	-12.546
▁fanatic	-12.546
▁measurements	-12.546
▁Carlos	-12.5461
▁midtown	-12.5463
Lu	-12.5463
▁Viet	-12.5465
cheap	-12.5466
main	-12.5469
▁Everytime	-12.5469
▁Safe	-12.5475
uuuu	-12.5476
found	-12.5477
flu	-12.5479
▁traveler	-12.5484
/12	-12.5486
packed	-12.5493
▁fir	-12.5495
meal	-12.5503
▁grossed	-12.5503
PERIENCE	-12.5505
▁Georgia	-12.5505
▁Mignon	-12.5505
▁knives	-12.5505
▁stromboli	-12.5505
▁ventilation	-12.5505
▁Harvest	-12.5505
Eh	-12.5506
Sam	-12.5506
Italian	-12.5508
▁abandoned	-12.5509
▁Thus	-12.5509
▁neatly	-12.5509
ACH	-12.551
▁cuticle	-12.551
▁distracting	-12.5511
baked	-12.5511
▁pause	-12.5511
sushi	-12.5512
▁limo	-12.5513
▁Chad	-12.5514
abi	-12.5514
▁stud	-12.5522
haus	-12.5528
▁choke	-12.5533
▁Beet	-12.5534
came	-12.5544
▁Sooo	-12.5545
▁TAKE	-12.555
▁UCSB	-12.555
▁assembly	-12.555
▁carbonara	-12.555
▁frittata	-12.555
▁prescribed	-12.555
▁privilege	-12.555
▁Thumbs	-12.555
▁essence	-12.555
▁capital	-12.555
▁patronizing	-12.5551
▁Btw	-12.5551
▁FULL	-12.5551
▁Direct	-12.5552
▁charity	-12.5553
▁wealth	-12.5558
ANG	-12.556
▁Idk	-12.5563
▁Kan	-12.5569
▁sage	-12.557
▁dope	-12.5571
mount	-12.5571
▁TON	-12.5578
▁Hmmm	-12.5578
▁manual	-12.5579
▁casually	-12.5585
▁rescheduled	-12.5589
▁geared	-12.559
▁DOWN	-12.5596
▁greedy	-12.5596
▁inspiration	-12.5596
▁Frozen	-12.5596
▁croque	-12.5596
▁Ruben	-12.5597
▁Uptown	-12.5597
▁overcharge	-12.5597
▁Lane	-12.5598
▁chipping	-12.5599
expensive	-12.56
quite	-12.5603
▁Sound	-12.5604
▁EVEN	-12.5606
▁diff	-12.5611
▁Marg	-12.5617
▁endure	-12.5619
▁peek	-12.562
umber	-12.5621
▁Anne	-12.5624
▁liter	-12.5625
▁stocking	-12.5627
▁Sav	-12.5633
power	-12.5633
▁rocking	-12.5637
▁BY	-12.5638
▁Society	-12.5641
▁Doylestown	-12.5641
▁fascinating	-12.5641
▁muffuletta	-12.5641
▁Fairmount	-12.5641
▁commission	-12.5641
▁Flying	-12.5641
▁plague	-12.5641
▁dismay	-12.5642
▁colour	-12.5642
▁barbershop	-12.5642
▁400	-12.5645
sandwich	-12.5645
▁slightest	-12.5646
▁Hunt	-12.5646
cate	-12.565
▁(3)	-12.566
▁outgoing	-12.5665
▁Boat	-12.5666
▁arrange	-12.5672
yyy	-12.5682
Your	-12.5683
▁Den	-12.5686
▁chuck	-12.5687
▁vaccine	-12.5687
▁Course	-12.5687
▁Juicy	-12.5687
▁Nordstrom	-12.5687
▁exaggerating	-12.5687
▁inconsiderate	-12.5687
▁oregano	-12.5687
▁refrigerated	-12.5687
▁volcano	-12.5687
▁voodoo	-12.5687
▁microbrew	-12.5687
▁Lyft	-12.5688
▁glory	-12.5688
▁blaring	-12.5688
▁aesthetically	-12.5688
▁peppercorn	-12.5688
TC	-12.5688
▁jammed	-12.569
▁variation	-12.5691
smith	-12.5692
▁batteries	-12.5692
▁Gem	-12.5695
▁shouting	-12.5695
▁define	-12.5701
▁enhanced	-12.5708
▁shocking	-12.5715
▁Wonder	-12.5724
▁Ceviche	-12.5733
▁Pharmacy	-12.5733
▁ciabatta	-12.5733
▁pregnancy	-12.5733
▁snooty	-12.5733
▁residence	-12.5733
▁EVERYONE	-12.5733
▁cease	-12.5734
▁virus	-12.5734
▁reflection	-12.5737
En	-12.5737
breakfast	-12.5738
▁bum	-12.5738
ACT	-12.5741
▁confronted	-12.5744
79	-12.5746
▁Seeing	-12.575
naise	-12.576
▁brim	-12.5766
▁pamper	-12.5768
▁chap	-12.5769
▁Dia	-12.5776
▁Fan	-12.5777
▁pedestrian	-12.5779
▁refusing	-12.5779
▁unappealing	-12.5779
▁smear	-12.5779
▁whirl	-12.5779
▁Bryan	-12.5779
▁translate	-12.578
▁Reservations	-12.578
▁Tracy	-12.578
uaint	-12.578
▁stalk	-12.578
▁dumpster	-12.5781
▁recycle	-12.5781
▁braid	-12.5782
▁1:00	-12.5784
▁Berry	-12.5784
▁realistic	-12.5786
▁VW	-12.5787
▁Pair	-12.5788
▁premade	-12.5788
▁Fork	-12.5789
Didn	-12.579
▁incorporat	-12.5803
(?)	-12.5803
mmmmmm	-12.5805
▁genre	-12.5806
▁lens	-12.5807
▁Past	-12.5814
escorted	-12.5817
▁Chardonnay	-12.5826
▁FAVORITE	-12.5826
▁Fajita	-12.5826
▁gambling	-12.5826
▁pharmacist	-12.5826
▁visibly	-12.5826
▁Shannon	-12.5826
▁wrist	-12.5826
▁granddaughter	-12.5826
▁medley	-12.5827
▁gently	-12.5827
▁Amish	-12.5829
▁Gene	-12.5831
eater	-12.5832
known	-12.5844
▁Drove	-12.5849
▁temper	-12.5849
▁Korea	-12.585
▁Rare	-12.5854
▁housemade	-12.5855
▁concerning	-12.5856
▁Alas	-12.5856
▁lifted	-12.586
▁jeweler	-12.5869
▁dab	-12.5869
butter	-12.5869
aze	-12.5871
▁quarantine	-12.5873
▁refined	-12.5873
▁reuben	-12.5873
▁unavailable	-12.5873
▁nibble	-12.5873
▁descent	-12.5873
▁PRICE	-12.5873
▁revamp	-12.5873
▁Peace	-12.5873
▁turnaround	-12.5875
▁Grow	-12.5877
foot	-12.5879
▁lure	-12.588
healthy	-12.588
▁teeny	-12.588
88	-12.5881
▁ABSOLUTELY	-12.5881
▁teen	-12.5884
▁BOTH	-12.5886
▁fortunately	-12.5887
▁Sake	-12.5889
▁painfully	-12.5899
wish	-12.59
ugg	-12.5901
rink	-12.5901
89	-12.5904
taco	-12.5906
▁buses	-12.5908
Top	-12.5914
▁differ	-12.5916
▁author	-12.5919
▁Baltimore	-12.592
▁Pizzeria	-12.592
▁bibimbap	-12.592
▁emphasize	-12.592
▁enclosed	-12.592
▁vicinity	-12.592
▁Carrot	-12.592
▁orleans	-12.592
▁northern	-12.5921
▁yarn	-12.5921
▁Winter	-12.5922
▁SOME	-12.5922
alcoholic	-12.5925
John	-12.5926
toxic	-12.5928
▁Pricey	-12.5929
▁SL	-12.5929
Once	-12.5931
▁Shortly	-12.5937
▁Moe	-12.5938
▁homework	-12.5943
▁interrupt	-12.5944
▁insert	-12.5947
▁bib	-12.5962
imp	-12.5964
▁BETTER	-12.5967
▁Jeremy	-12.5967
▁Moroccan	-12.5967
▁President	-12.5967
▁aficionado	-12.5967
▁rotisserie	-12.5967
▁victim	-12.5967
----------------	-12.5967
▁Twist	-12.5967
▁Speedway	-12.5967
▁john	-12.5967
▁Return	-12.5968
▁Lock	-12.5968
▁permission	-12.5968
milk	-12.5973
▁socially	-12.5975
liv	-12.5979
next	-12.5982
guard	-12.5984
▁busboy	-12.5986
▁grit	-12.5999
▁Doc	-12.6002
teria	-12.6003
flat	-12.6008
▁crush	-12.6009
▁BUSINESS	-12.6014
▁Cauliflower	-12.6014
▁DVD	-12.6014
▁FIRST	-12.6014
▁Hoagie	-12.6014
▁Phillies	-12.6014
▁Received	-12.6014
▁Smoothie	-12.6014
▁WONDERFUL	-12.6014
▁crostini	-12.6014
▁kennel	-12.6014
Exactly	-12.6014
▁absent	-12.6014
▁Debbie	-12.6014
▁commute	-12.6014
▁robbed	-12.6014
▁adapt	-12.6014
▁luncheon	-12.6014
▁fraction	-12.6015
▁spinning	-12.6015
▁nonexistent	-12.6016
▁unwind	-12.6016
▁hungover	-12.6017
▁chaat	-12.6017
EAK	-12.6017
▁mai	-12.6018
▁Jones	-12.6018
▁tendon	-12.6018
▁6-8	-12.6019
Overpriced	-12.602
▁threatening	-12.6021
▁claw	-12.6026
▁accomplished	-12.6027
lemon	-12.6033
western	-12.6034
07	-12.6034
▁blasting	-12.6046
▁bless	-12.605
uma	-12.6054
▁Americano	-12.6054
▁unlikely	-12.6054
haha	-12.6057
LOW	-12.6061
▁chock	-12.6061
▁CHEESE	-12.6062
▁anchovies	-12.6062
▁antipasto	-12.6062
▁disclosure	-12.6062
▁maneuver	-12.6062
▁thermostat	-12.6062
▁unapologetic	-12.6062
▁concentrate	-12.6062
▁30-45	-12.6062
▁Believe	-12.6062
▁funeral	-12.6062
▁gaming	-12.6062
▁detract	-12.6062
▁boozy	-12.6062
▁discomfort	-12.6062
▁discern	-12.6062
▁vending	-12.6062
▁furious	-12.6062
▁Bottle	-12.6062
▁Vista	-12.6064
▁kitty	-12.6064
▁Pine	-12.6064
eee	-12.6064
▁representation	-12.6065
however	-12.6069
▁proven	-12.607
Any	-12.6071
▁Angela	-12.6072
▁vape	-12.6074
▁successfully	-12.608
▁insulted	-12.6087
▁sweaty	-12.6089
▁TL	-12.609
▁Alley	-12.6093
▁doorway	-12.6099
▁Gouda	-12.611
▁REVIEW	-12.611
▁Surprise	-12.611
▁apprehensive	-12.611
▁chronic	-12.611
▁simplicity	-12.611
▁Strike	-12.611
▁20-25	-12.611
▁unwelcome	-12.611
▁nutty	-12.6112
▁playlist	-12.6113
▁charger	-12.6113
▁Ohio	-12.6116
▁hog	-12.6119
▁frog	-12.612
▁farmer	-12.6123
▁cheery	-12.6124
▁gained	-12.613
▁Final	-12.6131
▁Consistently	-12.6145
▁Press	-12.6147
hn	-12.6147
▁thr	-12.6149
▁grat	-12.6151
loved	-12.6152
▁Grubhub	-12.6158
▁Rockefeller	-12.6158
▁eliminate	-12.6158
▁entitled	-12.6158
▁heirloom	-12.6158
▁manicurist	-12.6158
▁Soulard	-12.6158
▁slipped	-12.6159
▁Selection	-12.6159
▁realtor	-12.6159
▁Roadhouse	-12.616
▁Enter	-12.6161
▁merch	-12.6161
▁Smokin	-12.6162
▁breakdown	-12.6162
▁Patty	-12.6164
▁headlight	-12.6165
average	-12.6165
▁vol	-12.6167
Old	-12.6168
▁Entree	-12.6169
▁Gin	-12.617
▁hue	-12.617
▁Cow	-12.6173
▁2000	-12.6176
▁conditioned	-12.6191
▁chilli	-12.6195
▁NV	-12.6195
▁reflected	-12.6198
▁Elmo	-12.6199
▁Honest	-12.62
▁Germany	-12.6201
deal	-12.6202
izzle	-12.6204
▁furnish	-12.6206
▁Huevos	-12.6206
▁audacity	-12.6206
▁laundromat	-12.6206
▁pancetta	-12.6206
▁Network	-12.6206
▁Tempura	-12.6206
▁royal	-12.6206
▁leek	-12.6206
▁Cigar	-12.6206
umba	-12.6207
BE	-12.621
Usually	-12.6213
▁Cocktail	-12.6218
▁respectable	-12.622
▁Bland	-12.6229
8.00	-12.6231
▁Needed	-12.6233
▁moldy	-12.6234
▁Raw	-12.6237
▁fairness	-12.6237
▁Var	-12.6241
▁confront	-12.6244
▁glove	-12.6246
qual	-12.6249
▁Lind	-12.6254
▁cranberries	-12.6255
▁introduction	-12.6255
▁belief	-12.6255
▁Kansas	-12.6255
▁Henry	-12.6255
▁Cantina	-12.6255
▁furnishings	-12.6255
▁stitch	-12.6255
▁WERE	-12.6255
▁Shawn	-12.6256
▁Cheeseburger	-12.6256
▁Logan	-12.6256
▁Punch	-12.6257
▁Minus	-12.6258
▁mozz	-12.6261
▁nerd	-12.6261
screen	-12.6261
▁38	-12.6261
Cheese	-12.6262
▁sorely	-12.6262
▁blowout	-12.6265
▁Healthy	-12.6266
NY	-12.6267
▁streetcar	-12.6269
▁gathered	-12.6269
feel	-12.6269
▁fitted	-12.627
▁Mixed	-12.6271
▁gutter	-12.6271
▁Complete	-12.6273
▁responding	-12.6279
pool	-12.6279
▁Cubano	-12.6282
▁choy	-12.6282
hol	-12.6283
▁bob	-12.6286
▁blanc	-12.6287
▁conch	-12.6292
▁thrill	-12.6294
▁believer	-12.6295
much	-12.6296
aaaa	-12.6298
▁Mein	-12.63
▁frank	-12.6301
▁WORTH	-12.6303
▁apricot	-12.6303
▁cactus	-12.6303
▁clogged	-12.6303
▁condensed	-12.6303
▁enticing	-12.6303
▁grandparents	-12.6303
▁instagram	-12.6303
▁platform	-12.6303
▁wisdom	-12.6303
▁appalling	-12.6303
▁Bleu	-12.6304
▁Spirit	-12.6304
▁mindful	-12.6304
▁Patio	-12.6305
▁STAR	-12.6308
▁Inter	-12.6309
▁Erica	-12.6315
▁tremendously	-12.6315
▁Warning	-12.6317
▁component	-12.6317
▁teenager	-12.6323
hello	-12.6324
▁Marina	-12.6328
▁watches	-12.6337
▁banging	-12.634
nail	-12.6347
▁shuffle	-12.6352
cular	-12.6352
▁Hispanic	-12.6352
▁Singapore	-12.6352
▁calendar	-12.6352
▁charcoal	-12.6352
▁croquettes	-12.6352
▁ecstatic	-12.6352
▁marsala	-12.6352
▁shepherd	-12.6352
▁investigate	-12.6352
▁mysterious	-12.6352
▁squeak	-12.6352
▁FAST	-12.6352
Gorgeous	-12.6352
▁Gelato	-12.6352
▁WELL	-12.6353
▁Dominic	-12.6353
▁awaiting	-12.6353
▁pinball	-12.6353
▁Portland	-12.6354
▁curated	-12.6354
▁Elvis	-12.6354
▁prepaid	-12.6354
▁Greenwood	-12.6355
▁800	-12.6357
▁Canada	-12.636
Could	-12.636
▁Cody	-12.636
▁powerful	-12.6361
▁Yorker	-12.6364
39	-12.6364
▁rundown	-12.6364
▁expression	-12.6374
lllll	-12.6376
glo	-12.6382
▁educate	-12.6387
▁buzzing	-12.639
lier	-12.6391
▁glow	-12.6392
▁bond	-12.6394
▁fin	-12.64
▁borrow	-12.6402
▁Filipino	-12.6402
▁Illinois	-12.6402
▁Octopus	-12.6402
▁PACKED	-12.6402
▁dynamite	-12.6402
▁emphasis	-12.6402
▁taqueria	-12.6402
▁tunnel	-12.6402
▁scheme	-12.6402
▁specified	-12.6402
▁douche	-12.6403
▁Bruce	-12.6403
zzi	-12.6404
▁yams	-12.6404
▁Hertz	-12.6404
▁Lesson	-12.6405
▁illness	-12.6406
▁Grandma	-12.6408
▁sprayed	-12.6409
roasted	-12.641
whatever	-12.6411
▁mattresses	-12.6413
▁divided	-12.6416
▁muff	-12.6419
bol	-12.642
▁attentiveness	-12.6424
▁foundation	-12.6425
drive	-12.6425
▁recording	-12.6426
▁Eli	-12.6428
▁accurately	-12.6431
▁cheek	-12.6432
▁windy	-12.6433
▁neglect	-12.6439
▁drool	-12.6447
▁Donna	-12.6448
▁Elizabeth	-12.6451
▁Stanley	-12.6451
▁intolerant	-12.6451
▁scenic	-12.6451
▁importance	-12.6451
▁Davis	-12.6452
▁Motel	-12.6452
▁Garage	-12.6453
▁unseasoned	-12.6455
▁Plum	-12.6458
Chinese	-12.6459
▁coaster	-12.646
▁Job	-12.6461
▁mono	-12.6461
▁drowning	-12.6462
▁rink	-12.6468
▁surly	-12.6468
▁beads	-12.6473
▁icy	-12.6476
buy	-12.6482
lean	-12.6484
▁FB	-12.6488
▁sail	-12.6491
▁duo	-12.6491
▁mailed	-12.6492
▁Montecito	-12.6501
▁elaborate	-12.6501
▁proprietor	-12.6501
▁swanky	-12.6501
▁Sheraton	-12.6501
▁tolerable	-12.6501
▁Bahn	-12.6501
▁Boyfriend	-12.6501
worth	-12.6502
▁cumin	-12.6502
▁KOP	-12.6503
▁Danielle	-12.6503
party	-12.6507
▁shellac	-12.6507
[...]
