<unk>	0
<s>	0
</s>	0
.	-2.95092
▁the	-3.37496
▁and	-3.54265
,	-3.5771
▁I	-3.78178
▁a	-3.83991
▁to	-3.90996
'	-4.16259
▁was	-4.1889
▁of	-4.43425
s	-4.60706
▁is	-4.6203
▁it	-4.62873
▁for	-4.65102
▁in	-4.69094
▁The	-4.93726
▁that	-4.96819
▁with	-4.98653
!	-5.0068
t	-5.02003
▁my	-5.05289
▁you	-5.15976
▁on	-5.16926
▁but	-5.18
▁have	-5.28036
▁had	-5.30166
▁they	-5.30838
▁this	-5.31217
▁were	-5.36368
▁we	-5.40363
▁not	-5.43226
▁are	-5.50837
▁food	-5.56233
▁	-5.5775
▁so	-5.58828
▁at	-5.59783
▁be	-5.60682
▁place	-5.62947
▁good	-5.64189
▁me	-5.75995
▁as	-5.82456
▁very	-5.85247
▁out	-5.85329
▁great	-5.8818
-	-5.92256
▁(	-5.92421
▁We	-5.9381
▁here	-5.94434
▁there	-5.96737
▁time	-5.97272
▁our	-5.99212
▁all	-5.99775
▁like	-6.02048
▁get	-6.0475
▁just	-6.07075
▁service	-6.07933
▁from	-6.08122
▁back	-6.08211
▁It	-6.09966
▁one	-6.13685
▁up	-6.13748
▁an	-6.13887
▁would	-6.15114
▁their	-6.15748
▁or	-6.17842
▁can	-6.19571
▁They	-6.23607
▁go	-6.23929
▁if	-6.25344
▁about	-6.25788
I	-6.27205
▁when	-6.33811
▁will	-6.34441
▁been	-6.35621
▁which	-6.36702
▁really	-6.38408
ve	-6.39682
m	-6.42716
▁your	-6.44166
▁some	-6.46841
)	-6.47047
▁us	-6.4719
▁more	-6.49033
▁them	-6.49976
▁what	-6.50063
...	-6.53616
▁by	-6.53764
▁got	-6.54035
▁-	-6.55135
▁only	-6.55189
▁also	-6.55797
▁because	-6.57196
▁no	-6.5771
▁"	-6.59383
▁has	-6.65903
▁other	-6.66822
▁order	-6.66932
▁nice	-6.67375
▁My	-6.67695
▁he	-6.6779
▁she	-6.69728
▁even	-6.69898
▁do	-6.70304
▁ordered	-6.70322
▁well	-6.72701
▁staff	-6.73263
▁too	-6.74907
▁did	-6.75836
▁best	-6.76211
▁don	-6.77137
▁restaurant	-6.78487
▁friendly	-6.8178
▁always	-6.81804
▁didn	-6.82031
▁could	-6.82131
▁than	-6.82546
▁came	-6.84349
▁delicious	-6.84593
▁little	-6.84994
"	-6.85353
▁over	-6.86192
▁This	-6.87617
re	-6.88328
▁experience	-6.8882
▁try	-6.90431
▁menu	-6.91382
▁people	-6.91432
▁her	-6.92771
▁never	-6.93656
▁after	-6.94344
▁chicken	-6.95186
▁much	-6.95293
▁come	-6.95973
▁made	-6.96632
▁first	-6.97399
d	-6.97912
▁went	-6.97968
▁again	-6.98337
▁love	-6.98676
▁make	-7.00944
▁definitely	-7.0309
:	-7.03456
▁said	-7.0443
▁who	-7.05746
/	-7.05819
▁recommend	-7.07442
▁know	-7.07497
▁bar	-7.07614
▁off	-7.07624
▁amazing	-7.07689
▁wait	-7.07913
?	-7.08338
▁going	-7.08767
▁day	-7.09319
▁two	-7.11498
▁way	-7.12237
▁how	-7.13325
▁better	-7.13556
▁before	-7.14981
▁right	-7.17539
▁any	-7.17934
▁take	-7.18732
▁pretty	-7.18934
▁night	-7.19804
▁ever	-7.20161
▁want	-7.20276
▁&	-7.20288
▁area	-7.20681
▁then	-7.21049
▁new	-7.21139
▁cheese	-7.2292
▁say	-7.23081
).	-7.23504
▁around	-7.23605
▁If	-7.23683
▁down	-7.23722
▁few	-7.23796
▁minutes	-7.24713
ll	-7.24986
▁told	-7.25643
▁sure	-7.26088
▁2	-7.26312
▁fresh	-7.26479
▁am	-7.27697
▁pizza	-7.28388
▁sauce	-7.28746
▁table	-7.29204
▁There	-7.29366
▁still	-7.30521
▁eat	-7.31142
▁see	-7.31582
▁think	-7.32034
▁give	-7.33662
▁took	-7.34334
▁work	-7.34905
▁times	-7.36083
▁asked	-7.36312
▁meal	-7.37001
This	-7.38373
▁while	-7.3889
▁location	-7.4009
▁She	-7.4018
▁So	-7.40344
▁find	-7.40598
▁A	-7.40607
!!	-7.41107
▁lunch	-7.41446
▁many	-7.41754
▁wasn	-7.42444
▁He	-7.42661
▁next	-7.42662
▁And	-7.42808
▁small	-7.4306
▁room	-7.43109
▁lot	-7.43413
▁bit	-7.43808
▁his	-7.4404
▁salad	-7.4463
▁being	-7.44715
▁another	-7.45299
▁dinner	-7.4535
▁You	-7.46876
▁something	-7.47102
▁3	-7.48079
▁price	-7.48278
▁i	-7.48394
▁home	-7.48496
▁But	-7.48645
▁bad	-7.4904
▁every	-7.49537
▁everything	-7.49793
▁most	-7.49906
▁into	-7.49933
▁drinks	-7.49973
▁since	-7.50028
▁long	-7.52044
▁now	-7.5254
▁favorite	-7.52756
▁side	-7.53653
▁last	-7.53996
▁where	-7.55397
▁tried	-7.56105
▁wanted	-7.5678
▁though	-7.56811
▁customer	-7.57686
▁visit	-7.58249
▁5	-7.59557
▁hot	-7.59572
▁feel	-7.6035
▁need	-7.6099
▁both	-7.62008
▁worth	-7.62042
▁looking	-7.62288
▁should	-7.6252
▁When	-7.62992
▁thing	-7.63385
▁different	-7.63475
▁clean	-7.63527
The	-7.63704
▁super	-7.63792
▁server	-7.63812
▁enough	-7.64205
▁happy	-7.6432
▁coffee	-7.64683
ed	-7.65006
▁store	-7.65533
▁car	-7.65706
▁sandwich	-7.65811
▁beer	-7.66394
▁years	-7.66395
ing	-7.67771
▁drink	-7.6808
▁things	-7.69036
▁flavor	-7.69182
▁atmosphere	-7.69904
▁excellent	-7.70881
▁away	-7.71685
▁fries	-7.71759
▁left	-7.71764
▁spot	-7.71835
▁awesome	-7.72753
▁hour	-7.73338
▁done	-7.73849
▁quality	-7.74431
▁Not	-7.74929
▁found	-7.75167
▁called	-7.75225
▁check	-7.75265
▁stars	-7.75301
▁taste	-7.76356
▁perfect	-7.76815
▁sweet	-7.77007
▁breakfast	-7.77017
▁4	-7.78369
▁same	-7.78565
▁him	-7.79667
▁fried	-7.80712
▁top	-7.81041
▁Our	-7.81203
▁Great	-7.81666
▁prices	-7.82057
▁family	-7.82233
▁through	-7.82698
!!!	-7.82718
▁big	-7.82978
▁bread	-7.8359
▁tasty	-7.84029
▁friends	-7.84129
▁full	-7.84642
▁selection	-7.84928
▁look	-7.85267
;	-7.8531
▁meat	-7.85959
▁special	-7.8655
▁anything	-7.86939
▁business	-7.87162
We	-7.8756
▁friend	-7.87952
▁kind	-7.89014
▁burger	-7.89062
▁put	-7.90185
▁call	-7.90306
▁getting	-7.90421
▁outside	-7.90465
▁shrimp	-7.90785
▁coming	-7.90896
▁else	-7.91273
▁large	-7.91881
▁husband	-7.9211
▁inside	-7.92317
▁places	-7.93078
▁care	-7.93571
▁old	-7.93575
▁nothing	-7.94561
▁enjoyed	-7.94803
▁ask	-7.9523
▁options	-7.95845
▁review	-7.95927
▁gave	-7.96235
▁busy	-7.96592
▁job	-7.96759
▁decided	-7.96848
▁thought	-7.97048
▁used	-7.97069
▁actually	-7.97278
▁dish	-7.97332
▁without	-7.9734
▁fun	-7.97737
▁these	-7.97924
▁each	-7.97964
▁front	-7.98272
▁open	-7.98307
▁disappointed	-7.98897
▁manager	-7.99407
▁10	-8.00021
▁cream	-8.00058
▁free	-8.00314
▁half	-8.00414
▁items	-8.0085
▁line	-8.00881
▁rice	-8.01271
▁use	-8.01427
▁All	-8.01569
▁looked	-8.03331
▁helpful	-8.03752
▁needed	-8.03991
▁waitress	-8.04108
▁money	-8.04676
▁town	-8.04788
▁No	-8.04805
),	-8.05184
▁loved	-8.05782
▁wonderful	-8.05796
▁let	-8.05907
▁week	-8.06378
▁For	-8.06634
▁cooked	-8.06701
▁during	-8.0681
▁water	-8.07153
▁shop	-8.07345
▁probably	-8.07401
▁quite	-8.07455
▁Service	-8.07788
▁able	-8.07816
▁tell	-8.07866
▁why	-8.08238
▁waiting	-8.08416
▁hard	-8.08534
▁served	-8.08637
▁couple	-8.08705
▁wine	-8.08993
▁quick	-8.09119
▁far	-8.09539
▁person	-8.09556
▁reviews	-8.09605
▁soup	-8.09666
▁house	-8.10155
▁once	-8.10353
▁local	-8.10357
▁pork	-8.10637
▁someone	-8.10814
▁everyone	-8.115
▁parking	-8.11529
▁Also	-8.11622
y	-8.11661
▁enjoy	-8.12287
▁tables	-8.12334
▁owner	-8.12623
▁such	-8.12958
▁sushi	-8.13343
▁those	-8.13386
▁hours	-8.13929
▁having	-8.14016
▁couldn	-8.14105
▁pay	-8.14122
▁steak	-8.14152
▁huge	-8.14169
▁dishes	-8.14776
▁high	-8.15235
▁Very	-8.15583
▁stop	-8.15693
▁fish	-8.15725
▁almost	-8.15785
▁That	-8.15805
▁After	-8.15833
▁several	-8.15915
▁tasted	-8.1605
▁highly	-8.16073
▁hotel	-8.16378
▁least	-8.16408
▁trying	-8.16618
▁later	-8.1677
▁won	-8.17369
▁ice	-8.17592
▁wife	-8.18333
▁part	-8.18406
▁As	-8.18618
▁fast	-8.18775
▁return	-8.18776
▁walk	-8.18847
▁three	-8.18873
▁fantastic	-8.19201
▁help	-8.19283
▁1	-8.20225
▁door	-8.20225
▁absolutely	-8.20715
▁must	-8.20886
a	-8.21133
▁cold	-8.21413
▁felt	-8.21897
▁usually	-8.22041
▁year	-8.22094
▁days	-8.22282
▁In	-8.22383
▁point	-8.22527
▁whole	-8.2288
Great	-8.23039
▁wrong	-8.23063
▁spicy	-8.23214
▁New	-8.23224
▁until	-8.23291
▁hair	-8.23366
▁eating	-8.23582
▁end	-8.23736
▁close	-8.24285
▁extremely	-8.24368
▁phone	-8.24951
▁dining	-8.25035
▁less	-8.25152
▁Their	-8.25265
▁walked	-8.25342
▁own	-8.25864
▁Food	-8.26056
▁seemed	-8.26311
▁brought	-8.26907
e	-8.2741
▁star	-8.29517
▁cool	-8.29754
▁today	-8.29755
My	-8.29936
▁started	-8.30041
▁restaurants	-8.30121
▁arrived	-8.30161
▁does	-8.30269
▁extra	-8.30322
▁tacos	-8.30518
▁customers	-8.30729
▁beef	-8.30928
▁seating	-8.30969
▁music	-8.31682
▁live	-8.31808
▁second	-8.32265
▁decent	-8.32555
▁especially	-8.34054
▁attentive	-8.34185
▁doesn	-8.3438
ly	-8.34598
▁name	-8.34806
▁Overall	-8.34806
▁bring	-8.34976
▁sit	-8.35338
▁dessert	-8.35344
▁However	-8.35356
▁leave	-8.35555
▁pick	-8.35887
▁working	-8.35926
▁keep	-8.36723
▁anyone	-8.37033
▁may	-8.37395
▁party	-8.37421
▁kids	-8.3748
▁seated	-8.3855
in	-8.38862
and	-8.38891
▁stay	-8.39119
▁makes	-8.39346
▁group	-8.39451
▁drive	-8.39838
▁isn	-8.40257
▁finally	-8.40312
▁beautiful	-8.40514
▁deal	-8.41129
▁waited	-8.41186
▁guy	-8.41236
▁waiter	-8.41276
▁ok	-8.41498
▁quickly	-8.41658
▁company	-8.42135
▁plate	-8.42233
▁problem	-8.42498
▁its	-8.42516
▁course	-8.42963
▁cut	-8.43101
▁What	-8.43297
▁sat	-8.43414
▁offer	-8.43625
▁start	-8.44174
▁making	-8.44636
▁street	-8.44912
▁20	-8.45099
▁comes	-8.45325
▁amount	-8.46056
▁doing	-8.46191
▁ago	-8.46401
▁rude	-8.4646
▁reason	-8.46614
▁6	-8.46724
▁wouldn	-8.47114
▁perfectly	-8.47176
▁yet	-8.47306
▁fine	-8.47312
▁saw	-8.4759
▁wish	-8.48281
▁cake	-8.48305
▁easy	-8.48425
▁either	-8.48593
▁maybe	-8.48639
▁size	-8.48819
▁trip	-8.49211
▁wings	-8.4926
▁One	-8.49261
▁instead	-8.49691
er	-8.50336
▁already	-8.5144
▁appointment	-8.5194
▁tea	-8.52158
▁Everything	-8.52348
▁myself	-8.52417
▁might	-8.5293
▁roll	-8.53587
▁flavors	-8.53613
▁real	-8.54282
▁dry	-8.54902
▁received	-8.55155
▁late	-8.55248
▁soon	-8.5526
▁ready	-8.55391
▁past	-8.55523
▁dog	-8.55537
▁expect	-8.55951
▁warm	-8.55986
▁bacon	-8.56129
▁rolls	-8.56178
▁reasonable	-8.56252
▁city	-8.56321
▁St	-8.56417
▁liked	-8.56507
--	-8.56812
▁morning	-8.56855
▁chips	-8.56899
▁professional	-8.56962
▁chocolate	-8.56999
▁crab	-8.57159
▁space	-8.57268
▁fan	-8.57549
▁entire	-8.57591
▁counter	-8.58135
▁regular	-8.58647
▁Then	-8.58652
the	-8.58866
....	-8.59196
▁brunch	-8.59278
▁appetizer	-8.59388
▁Just	-8.5951
▁Saturday	-8.60244
▁kitchen	-8.60338
▁short	-8.60675
▁available	-8.60818
▁Good	-8.60935
▁ate	-8.61396
▁under	-8.61531
▁ended	-8.61576
▁impressed	-8.61904
▁Will	-8.61941
▁however	-8.62289
▁needs	-8.62347
▁variety	-8.62579
▁style	-8.62606
▁Philly	-8.62947
▁sandwiches	-8.63429
▁employees	-8.63439
▁portions	-8.63489
A	-8.63515
▁seems	-8.63738
▁set	-8.64261
▁fact	-8.64496
▁given	-8.64788
▁stuff	-8.65182
▁red	-8.65212
▁paid	-8.65338
▁Definitely	-8.65641
▁often	-8.65888
▁early	-8.65946
▁30	-8.66255
▁guys	-8.66432
▁show	-8.66751
▁ordering	-8.66948
▁change	-8.66971
pm	-8.67148
▁beans	-8.67342
▁months	-8.67493
▁offered	-8.67524
▁buy	-8.67708
▁list	-8.67772
▁decor	-8.67835
▁Orleans	-8.67907
▁seem	-8.68186
▁slow	-8.68281
▁15	-8.68773
▁etc	-8.68799
▁Nashville	-8.69939
▁life	-8.70127
▁light	-8.70396
▁taking	-8.70406
▁expensive	-8.70709
▁Mexican	-8.70855
▁bowl	-8.71177
▁stopped	-8.71244
▁sitting	-8.71566
▁plenty	-8.71689
▁run	-8.71897
▁evening	-8.72032
▁portion	-8.72065
▁issue	-8.72283
▁Don	-8.72739
▁believe	-8.7283
th	-8.73009
▁flavorful	-8.73212
▁charge	-8.73234
▁Sunday	-8.73284
▁seafood	-8.7337
▁kept	-8.73529
▁okay	-8.73612
S	-8.73726
▁comfortable	-8.73875
▁seen	-8.73953
n	-8.74043
▁recommended	-8.74646
▁twice	-8.74871
▁completely	-8.7505
▁glad	-8.75195
▁bite	-8.75238
▁weekend	-8.75241
▁On	-8.75321
▁choice	-8.75645
▁knew	-8.75664
▁serve	-8.76487
▁card	-8.76515
▁between	-8.76732
o	-8.76884
▁potatoes	-8.76917
▁due	-8.76975
▁Now	-8.77075
▁lots	-8.77175
▁worst	-8.77707
▁pasta	-8.77767
▁office	-8.77769
▁eggs	-8.78244
▁delivery	-8.78478
▁looks	-8.78639
▁weeks	-8.78709
▁potato	-8.78784
▁mind	-8.78959
▁French	-8.7904
▁priced	-8.7914
▁egg	-8.7915
▁across	-8.79248
▁behind	-8.79656
▁white	-8.79665
▁bartender	-8.79864
▁pleasant	-8.80581
▁beers	-8.80652
▁average	-8.80676
▁along	-8.80781
▁bill	-8.81017
▁heard	-8.81031
▁cheap	-8.81782
▁grilled	-8.81983
▁green	-8.82166
▁floor	-8.82176
▁man	-8.8231
▁add	-8.82387
▁crispy	-8.82424
▁orders	-8.82853
▁overall	-8.82889
▁BB	-8.82904
▁unique	-8.83146
▁Italian	-8.83573
▁near	-8.83998
▁At	-8.84006
▁guess	-8.84021
▁option	-8.84104
▁Thank	-8.84158
▁terrible	-8.84201
▁birthday	-8.84647
▁8	-8.84906
▁immediately	-8.85164
▁main	-8.85216
▁itself	-8.85563
▁understand	-8.85777
▁reservation	-8.85915
▁gone	-8.86052
▁choose	-8.86169
▁taken	-8.86407
▁prepared	-8.86582
▁lady	-8.86735
▁rest	-8.86932
▁ingredients	-8.86999
▁weren	-8.87023
▁moved	-8.87081
▁cost	-8.8716
▁--	-8.87177
▁rather	-8.87244
▁online	-8.87248
▁expected	-8.87291
▁Chicken	-8.87398
to	-8.8765
it	-8.87655
▁walking	-8.87659
▁Friday	-8.87961
▁Yelp	-8.88146
▁hit	-8.88227
▁haven	-8.88311
▁burgers	-8.8852
▁hand	-8.88839
▁NOT	-8.88995
▁Thai	-8.89089
▁plus	-8.89142
▁forward	-8.89588
▁others	-8.89591
▁date	-8.8974
or	-8.89981
▁surprised	-8.90034
▁yummy	-8.9041
▁four	-8.90495
▁Even	-8.90502
▁together	-8.90713
▁saying	-8.9075
i	-8.90753
▁butter	-8.90992
▁garlic	-8.91257
▁First	-8.91418
▁recently	-8.91704
▁authentic	-8.9187
▁To	-8.91925
▁patio	-8.91973
▁number	-8.92547
▁glass	-8.92579
▁within	-8.92629
▁knowledgeable	-8.92934
▁cute	-8.92935
▁type	-8.93158
▁eaten	-8.93459
▁month	-8.93655
▁nails	-8.94041
▁salsa	-8.94063
▁opened	-8.94083
▁salon	-8.94102
▁oil	-8.94106
▁Both	-8.94372
▁packed	-8.94602
▁simple	-8.94719
▁yourself	-8.95216
▁meals	-8.95528
▁boyfriend	-8.95664
▁literally	-8.9609
▁visiting	-8.96171
▁worked	-8.96204
▁While	-8.96303
▁girl	-8.96401
▁Had	-8.97174
▁horrible	-8.97335
▁7	-8.97396
which	-8.9777
▁hope	-8.97921
▁added	-8.9815
▁neighborhood	-8.98329
▁tip	-8.98726
▁remember	-8.98767
▁Dr	-8.98774
▁minute	-8.98831
▁bland	-8.98834
▁longer	-8.99535
▁tour	-9.00079
▁exactly	-9.00259
▁servers	-9.00292
▁giving	-9.00352
▁desk	-9.00484
▁building	-9.0052
▁gets	-9.00858
▁Would	-9.00914
▁excited	-9.00943
▁tender	-9.01218
▁daughter	-9.01248
."	-9.01715
▁Highly	-9.01955
▁Well	-9.02112
▁truly	-9.0213
▁sides	-9.02182
▁park	-9.02303
▁sausage	-9.02351
▁Love	-9.02724
▁Tampa	-9.02742
▁totally	-9.02911
▁pieces	-9.0307
▁empty	-9.03103
▁questions	-9.0323
▁helped	-9.03287
▁oysters	-9.03312
▁game	-9.03437
▁choices	-9.03478
▁soft	-9.03741
▁issues	-9.03886
▁appetizers	-9.04062
▁ambiance	-9.04464
▁move	-9.04508
▁sign	-9.04951
▁bought	-9.05024
▁toast	-9.05427
▁specials	-9.05458
▁outdoor	-9.05543
▁above	-9.05568
▁crust	-9.05805
▁world	-9.06086
▁vibe	-9.06102
▁poor	-9.062
▁fix	-9.06339
▁five	-9.06348
▁talk	-9.06457
▁loud	-9.07041
▁closed	-9.07148
▁Oh	-9.07169
▁Can	-9.07228
▁crowded	-9.07265
▁cup	-9.0733
▁greeted	-9.07569
▁incredible	-9.07841
▁read	-9.07846
".	-9.08334
▁Chinese	-9.08411
▁downtown	-9.08751
▁noticed	-9.0877
▁although	-9.08934
▁checked	-9.09036
r	-9.09715
▁mean	-9.10046
▁idea	-9.10349
▁:)	-9.10721
▁piece	-9.10733
▁hands	-9.10903
▁rooms	-9.10982
▁black	-9.11257
▁watch	-9.11564
▁treat	-9.11783
▁level	-9.11791
▁feeling	-9.11862
▁based	-9.12221
▁process	-9.12225
▁interesting	-9.12291
▁entrees	-9.12397
▁wedding	-9.12498
▁beyond	-9.12505
▁son	-9.1256
▁including	-9.12623
▁seat	-9.12739
▁massage	-9.12759
▁vegan	-9.12835
▁plates	-9.12939
▁establishment	-9.12993
▁chef	-9.1329
▁entree	-9.13437
▁salmon	-9.13447
!!!!	-9.13475
▁aren	-9.13603
▁anywhere	-9.13798
▁spend	-9.14099
▁hear	-9.14193
▁cannot	-9.14223
▁pie	-9.14369
▁grab	-9.14596
▁management	-9.14713
▁taco	-9.14713
▁showed	-9.14896
▁attention	-9.15053
▁happened	-9.15156
▁outstanding	-9.15197
▁afternoon	-9.15242
▁fair	-9.15396
▁low	-9.15415
▁noodles	-9.15427
▁filled	-9.15772
▁chance	-9.15858
▁Maybe	-9.15873
▁turned	-9.15961
▁spent	-9.16149
▁tomato	-9.16286
▁woman	-9.16611
▁miss	-9.16673
▁buffet	-9.17038
▁charged	-9.17163
▁hungry	-9.17375
▁pricey	-9.17377
▁finish	-9.17461
▁onion	-9.17539
▁corn	-9.17577
▁head	-9.17586
▁visited	-9.17701
▁pulled	-9.17955
▁paying	-9.17975
▁dirty	-9.18174
▁share	-9.1841
▁multiple	-9.18461
▁mention	-9.18498
▁case	-9.18525
▁cocktails	-9.18618
▁talking	-9.18742
▁located	-9.1889
▁mouth	-9.19478
▁credit	-9.19577
▁ribs	-9.19867
▁Thanks	-9.19912
▁view	-9.19943
▁single	-9.19995
If	-9.20229
▁young	-9.20461
▁owners	-9.205
▁picked	-9.20551
It	-9.20571
▁gem	-9.21221
▁tasting	-9.21224
▁lovely	-9.21239
▁toppings	-9.21307
▁sent	-9.21321
▁Reno	-9.21396
▁filling	-9.21507
▁goes	-9.2156
am	-9.21731
▁asking	-9.21745
▁seasoned	-9.22157
es	-9.22421
▁Everyone	-9.2262
▁nail	-9.22851
▁delivered	-9.23283
▁disappointing	-9.23349
▁future	-9.23402
▁onions	-9.23455
▁window	-9.23491
▁baked	-9.23493
▁Staff	-9.23658
not	-9.23773
▁plan	-9.23813
▁finished	-9.2382
▁says	-9.23851
!)	-9.24782
▁salty	-9.25056
▁vegetarian	-9.25094
▁changed	-9.25149
▁returning	-9.25298
▁chose	-9.25639
▁Do	-9.25809
▁Nice	-9.2586
▁sometimes	-9.25917
▁hostess	-9.26112
▁wall	-9.26364
▁incredibly	-9.26372
▁dressing	-9.26777
▁ahead	-9.26893
▁team	-9.2691
▁takes	-9.27001
▁non	-9.27024
ING	-9.27046
▁serving	-9.27081
▁welcoming	-9.27084
▁addition	-9.27239
▁per	-9.27265
▁medium	-9.27289
▁solid	-9.27343
▁simply	-9.27375
Went	-9.27436
▁item	-9.275
▁explained	-9.27501
▁Best	-9.27654
▁gotten	-9.27688
▁salads	-9.27754
no	-9.27952
▁pool	-9.28309
So	-9.28322
▁honestly	-9.2858
▁attitude	-9.28627
▁bathroom	-9.28709
▁play	-9.28881
▁certainly	-9.28907
▁homemade	-9.29095
we	-9.29115
▁please	-9.29429
▁shopping	-9.29565
▁using	-9.29652
▁Go	-9.2968
▁color	-9.29693
▁ones	-9.29714
▁accommodating	-9.29978
but	-9.30415
▁box	-9.30514
▁stand	-9.30553
▁stayed	-9.30624
▁re	-9.30647
▁write	-9.30952
▁9	-9.31076
▁employee	-9.31157
▁cook	-9.31223
▁burrito	-9.31259
▁Tucson	-9.31373
▁mix	-9.31532
▁purchase	-9.3198
▁standard	-9.32017
(	-9.32022
▁crowd	-9.32076
▁touch	-9.32152
▁veggies	-9.32192
▁opinion	-9.32202
▁w	-9.32438
▁lobster	-9.3244
▁running	-9.32454
▁thin	-9.33065
▁mom	-9.33158
▁middle	-9.33275
▁pleased	-9.33359
▁...	-9.33514
▁shared	-9.33761
▁leaving	-9.34025
▁With	-9.34073
▁truck	-9.34091
▁dogs	-9.34653
▁cash	-9.34852
▁Louis	-9.34861
▁cocktail	-9.34882
▁Every	-9.34978
▁true	-9.35171
▁mine	-9.35285
▁From	-9.35467
▁Some	-9.3581
▁speak	-9.35864
▁sauces	-9.36122
▁Really	-9.36127
▁bottle	-9.36356
▁easily	-9.36518
▁appreciate	-9.36532
▁upon	-9.36551
▁clearly	-9.36646
▁face	-9.36845
▁somewhere	-9.37019
▁Only	-9.37052
Very	-9.37237
▁lack	-9.37415
▁event	-9.37694
▁Once	-9.3793
▁split	-9.38013
▁fairly	-9.38118
▁salt	-9.3833
▁complaint	-9.38537
▁min	-9.3876
▁mixed	-9.38766
▁included	-9.3879
▁bag	-9.38806
▁limited	-9.38824
Love	-9.38947
▁tonight	-9.39081
▁class	-9.39283
▁products	-9.39366
▁slightly	-9.39465
on	-9.39521
▁bed	-9.39892
▁awful	-9.39954
▁dark	-9.40088
▁total	-9.40097
▁dip	-9.40178
▁value	-9.40254
▁healthy	-9.40702
▁Yes	-9.40757
▁heat	-9.40788
▁lived	-9.4088
▁patient	-9.40962
▁personal	-9.41098
▁yes	-9.4134
▁12	-9.41356
▁basically	-9.41453
▁Unfortunately	-9.41599
▁NOLA	-9.41667
▁matter	-9.41776
▁stuffed	-9.41933
▁center	-9.41934
▁lettuce	-9.41961
▁reservations	-9.42001
▁efficient	-9.42325
▁B	-9.42458
▁!	-9.4248
so	-9.42537
▁tiny	-9.42712
▁book	-9.4277
▁treated	-9.43097
▁supposed	-9.43155
▁fruit	-9.43215
Best	-9.43326
▁thick	-9.43375
▁tastes	-9.43399
▁E	-9.43588
▁Santa	-9.43698
▁corner	-9.43719
▁frozen	-9.43878
go	-9.43883
▁possible	-9.44105
▁honest	-9.44195
▁die	-9.44412
▁Never	-9.44493
▁sell	-9.4451
▁n	-9.44516
T	-9.44658
▁chain	-9.4466
▁Mac	-9.44687
▁Philadelphia	-9.44802
▁mediocre	-9.44921
▁summer	-9.4498
▁City	-9.44998
▁generous	-9.45012
▁Street	-9.45093
▁crazy	-9.45168
▁typical	-9.45271
▁overpriced	-9.4551
c	-9.45852
▁turn	-9.45977
▁forgot	-9.46015
▁lamb	-9.46053
▁tuna	-9.46419
▁website	-9.46488
▁guests	-9.46524
ers	-9.46741
▁environment	-9.46757
l	-9.46898
▁elsewhere	-9.47003
▁spice	-9.47065
▁creamy	-9.47403
▁expecting	-9.47437
▁school	-9.47606
▁hold	-9.4763
▁provided	-9.4767
▁folks	-9.47916
▁THE	-9.48026
▁casual	-9.48417
▁mentioned	-9.48586
▁moving	-9.48671
▁clear	-9.48739
▁fixed	-9.48786
▁seats	-9.48803
▁expectations	-9.49088
▁missing	-9.49108
▁eye	-9.49253
▁thinking	-9.49327
▁waste	-9.4936
▁system	-9.49377
▁curry	-9.49519
▁traditional	-9.49522
▁usual	-9.49628
▁prefer	-9.49647
▁sort	-9.49683
▁mac	-9.49764
▁unless	-9.49805
▁conversation	-9.49872
▁45	-9.4997
▁air	-9.49982
▁polite	-9.5003
▁Pizza	-9.50171
▁satisfied	-9.50224
▁milk	-9.50456
▁lost	-9.50465
▁throughout	-9.50476
▁joint	-9.50484
▁barely	-9.50534
▁cleaning	-9.50927
▁brisket	-9.51047
▁greasy	-9.51262
▁covered	-9.51414
▁These	-9.51463
▁de	-9.51569
▁mall	-9.51926
▁situation	-9.51965
▁slice	-9.52016
▁playing	-9.52355
▁Barbara	-9.52449
▁S	-9.52478
▁note	-9.52614
▁mins	-9.52714
▁surprise	-9.52858
▁alone	-9.5291
▁negative	-9.53147
▁answer	-9.53221
▁difficult	-9.53225
▁mostly	-9.53259
▁fabulous	-9.53355
▁dollars	-9.53382
▁original	-9.5341
▁perfection	-9.53629
▁Since	-9.53669
▁Indian	-9.53709
▁rating	-9.53737
What	-9.53793
▁seeing	-9.53874
▁glasses	-9.53885
▁checking	-9.53971
▁veggie	-9.54078
▁pancakes	-9.54138
▁airport	-9.54164
▁suggest	-9.54185
▁purchased	-9.54197
▁weird	-9.54332
▁strong	-9.54365
▁complete	-9.54418
they	-9.54462
▁quiet	-9.54695
▁section	-9.54745
▁duck	-9.54934
▁desserts	-9.54975
▁works	-9.54985
▁thank	-9.55003
▁forget	-9.55315
▁sour	-9.55405
▁app	-9.55431
▁Nothing	-9.5555
▁sales	-9.5567
▁whatever	-9.55753
▁avocado	-9.56085
▁Next	-9.56182
▁spots	-9.56275
▁craving	-9.56412
First	-9.56582
▁convenient	-9.56619
▁grits	-9.56664
▁pepper	-9.56827
▁considering	-9.57217
▁gift	-9.57237
▁smaller	-9.57287
Food	-9.57349
▁seriously	-9.57399
▁positive	-9.5748
▁broth	-9.57523
▁vehicle	-9.57684
▁worse	-9.57733
▁except	-9.57828
▁Although	-9.57834
▁sad	-9.57961
▁gravy	-9.58102
▁break	-9.58109
▁SO	-9.58148
▁beach	-9.58429
▁Was	-9.58536
▁nicely	-9.58555
▁market	-9.58612
▁$10	-9.58805
▁returned	-9.58864
▁OK	-9.58929
▁beat	-9.58951
▁shot	-9.58955
▁pictures	-9.58993
▁pre	-9.59196
▁games	-9.59408
▁placed	-9.59417
▁rare	-9.59549
▁notch	-9.59807
▁interior	-9.60203
▁means	-9.60421
Had	-9.60431
▁disappoint	-9.60448
They	-9.60494
▁pass	-9.60496
▁texture	-9.60551
▁happen	-9.60551
▁tomatoes	-9.60631
▁combo	-9.60656
▁normal	-9.60743
▁juicy	-9.60806
▁donuts	-9.60902
▁vegetables	-9.60908
▁11	-9.6092
▁100	-9.61095
▁fit	-9.61144
▁$5	-9.61209
▁word	-9.61321
▁previous	-9.61376
▁chairs	-9.61398
nd	-9.61418
▁sorry	-9.61519
▁knows	-9.61586
▁paper	-9.61886
▁Monday	-9.61991
▁cozy	-9.62061
▁nearby	-9.62067
▁platter	-9.62159
▁fancy	-9.62166
▁bun	-9.62197
▁hate	-9.62295
▁lemon	-9.62589
▁rich	-9.62698
▁smell	-9.62708
▁dress	-9.62903
▁pho	-9.62917
▁reading	-9.62948
▁experienced	-9.62951
▁continue	-9.62975
▁Most	-9.63204
▁bunch	-9.63259
▁sugar	-9.63369
▁affordable	-9.63462
▁product	-9.63463
C	-9.63486
out	-9.63645
▁mistake	-9.64467
▁request	-9.64519
up	-9.64533
as	-9.64569
▁deep	-9.64644
▁meet	-9.64929
▁provide	-9.64969
▁stores	-9.65026
▁smile	-9.65031
▁repair	-9.6506
▁bartenders	-9.65066
▁cafe	-9.65088
▁spinach	-9.65175
▁chili	-9.65316
▁un	-9.65348
▁heart	-9.65375
▁double	-9.65384
▁Super	-9.65384
▁AND	-9.6539
▁basic	-9.65549
▁cakes	-9.65682
▁reasonably	-9.65706
▁diner	-9.65843
▁actual	-9.65908
▁favorites	-9.66304
▁known	-9.66306
▁peppers	-9.66471
▁fill	-9.66491
▁willing	-9.66672
Good	-9.66736
▁road	-9.66832
▁girls	-9.66939
D	-9.66971
▁Plus	-9.67032
▁avoid	-9.67108
▁phenomenal	-9.67198
B	-9.67203
▁spoke	-9.67324
▁slices	-9.67429
▁cheesesteak	-9.67566
▁mushrooms	-9.67605
▁juice	-9.67662
▁receive	-9.67763
▁How	-9.67909
▁services	-9.6793
▁Be	-9.68204
▁kid	-9.68213
▁sister	-9.6822
▁send	-9.68349
▁obviously	-9.68753
▁South	-9.68772
▁heavy	-9.6883
▁refund	-9.689
▁informed	-9.68902
▁meats	-9.68949
▁gluten	-9.69148
▁pedicure	-9.69272
▁higher	-9.69291
▁normally	-9.69514
▁notice	-9.6952
▁nights	-9.69569
▁topped	-9.69681
▁plain	-9.69829
▁children	-9.69839
k	-9.70007
▁boy	-9.70014
▁dine	-9.70053
▁classic	-9.70063
▁rush	-9.70149
▁nearly	-9.70204
▁House	-9.70352
▁gym	-9.70376
▁additional	-9.70427
▁staying	-9.70494
▁experiences	-9.70598
▁modern	-9.70738
▁forever	-9.70757
Came	-9.70783
▁American	-9.70825
▁hang	-9.70828
▁tap	-9.70848
▁problems	-9.7097
▁appreciated	-9.71061
▁telling	-9.71113
▁watching	-9.71134
▁email	-9.71199
▁relaxing	-9.71255
▁wash	-9.71315
▁support	-9.71341
▁roasted	-9.71546
▁mess	-9.71694
▁pain	-9.71731
▁similar	-9.7176
▁cleaned	-9.71834
▁straight	-9.71923
▁particular	-9.7203
▁fee	-9.72081
▁Like	-9.72126
▁general	-9.72227
▁opening	-9.72605
▁art	-9.72642
▁flat	-9.72692
▁turkey	-9.72753
▁yelp	-9.72865
▁spring	-9.72875
▁Prices	-9.72882
▁driving	-9.72994
▁Ordered	-9.72995
ness	-9.73066
▁Other	-9.73137
▁sense	-9.73137
▁welcome	-9.73138
▁baby	-9.73409
▁post	-9.7353
▁save	-9.7376
▁become	-9.73857
▁safe	-9.73906
▁response	-9.73923
▁Friendly	-9.73932
▁rate	-9.73994
▁despite	-9.74067
▁Bar	-9.74103
▁40	-9.7453
▁Finally	-9.74659
▁insurance	-9.74843
▁ramen	-9.7502
▁movie	-9.75127
▁AMA	-9.75158
▁ran	-9.75167
▁Went	-9.75323
▁french	-9.75481
▁Two	-9.75544
▁Asian	-9.75663
▁yesterday	-9.75803
▁Cafe	-9.75809
▁buying	-9.7589
▁Lots	-9.7596
▁po	-9.7596
▁raw	-9.75999
▁calling	-9.76014
▁correct	-9.76074
▁information	-9.76331
▁picture	-9.76387
▁hadn	-9.76506
▁bites	-9.76577
▁explain	-9.76848
▁locations	-9.76865
▁compared	-9.76903
▁rib	-9.76908
▁moment	-9.76954
▁cookies	-9.77068
▁standing	-9.77125
▁none	-9.77229
▁50	-9.77233
▁offers	-9.77294
▁pizzas	-9.773
▁Try	-9.77653
p	-9.77803
▁important	-9.77915
▁station	-9.7795
▁cooking	-9.78064
▁nachos	-9.78105
▁takeout	-9.78166
▁workers	-9.78215
▁bbq	-9.78294
▁crisp	-9.78386
Just	-9.78406
▁brand	-9.78457
?"	-9.78563
▁stick	-9.78592
▁blue	-9.78604
▁arrive	-9.78675
▁finding	-9.78794
▁story	-9.78794
▁NO	-9.78991
▁soggy	-9.78993
▁complaints	-9.7904
▁prior	-9.79095
▁drop	-9.79095
▁1/2	-9.79185
▁carry	-9.7921
▁tough	-9.79289
▁hidden	-9.79311
▁Get	-9.79347
▁exceptional	-9.79386
you	-9.79423
▁Tuesday	-9.79469
▁courteous	-9.7962
▁overly	-9.7964
▁club	-9.79794
▁Again	-9.79892
▁walls	-9.80111
▁met	-9.80294
▁Got	-9.80339
▁board	-9.80414
▁booked	-9.80471
▁unfortunately	-9.80492
▁recent	-9.80546
▁cars	-9.80561
▁living	-9.80584
▁Why	-9.80588
▁machine	-9.80641
▁T	-9.80681
my	-9.80687
▁anymore	-9.80739
▁seasoning	-9.80858
▁25	-9.80889
▁skin	-9.80972
▁cashier	-9.81042
▁upstairs	-9.81191
▁P	-9.81201
Not	-9.81216
▁kinda	-9.81344
▁shops	-9.81384
▁recommendations	-9.81572
▁Burger	-9.81668
▁country	-9.81679
▁absolute	-9.81775
▁realized	-9.81779
▁kick	-9.8184
▁popular	-9.81974
▁step	-9.82057
▁gumbo	-9.82064
▁likely	-9.82199
▁anyway	-9.82208
▁prompt	-9.8229
▁C	-9.82302
▁complain	-9.82471
▁hoping	-9.8254
▁wrap	-9.82566
▁doctor	-9.82597
▁Always	-9.82629
▁thru	-9.82634
▁brown	-9.82705
▁bottom	-9.82714
▁larger	-9.82719
▁schedule	-9.82771
▁furniture	-9.82775
▁disappointment	-9.82801
▁pudding	-9.82911
Excellent	-9.82944
▁contact	-9.83303
▁iced	-9.83392
▁craft	-9.83403
▁honey	-9.83412
▁history	-9.83492
▁requested	-9.83701
al	-9.83883
▁Day	-9.83921
▁driver	-9.83935
▁greens	-9.83969
▁venue	-9.84003
▁girlfriend	-9.84049
▁presentation	-9.84066
▁oh	-9.84239
▁Shrimp	-9.84316
▁weather	-9.84374
▁cuisine	-9.84432
▁La	-9.84665
▁smoked	-9.84742
▁ladies	-9.848
▁wide	-9.84907
▁suggested	-9.84931
▁member	-9.84964
▁ridiculous	-9.85298
▁daily	-9.85306
▁Another	-9.8531
▁Cheese	-9.85365
▁setting	-9.85501
▁wanting	-9.85518
x	-9.85518
▁pricing	-9.85602
▁state	-9.85724
▁answered	-9.8589
▁broken	-9.86
▁mood	-9.86061
▁patrons	-9.8628
▁pm	-9.86432
▁refreshing	-9.86437
able	-9.86459
▁helping	-9.86477
▁bucks	-9.86547
▁lol	-9.86553
▁sold	-9.86564
▁strip	-9.86699
▁ride	-9.86816
▁discount	-9.86848
en	-9.86947
▁By	-9.8708
▁third	-9.87175
▁imagine	-9.87567
▁certain	-9.87625
▁mushroom	-9.87752
▁allowed	-9.87914
▁stated	-9.88
▁detail	-9.88071
▁lines	-9.88095
▁question	-9.88192
g	-9.88246
.....	-9.88313
One	-9.88401
▁enjoyable	-9.88407
▁decide	-9.88423
▁consistently	-9.88526
&	-9.88554
h	-9.886
▁coconut	-9.88604
▁register	-9.88616
▁LOVE	-9.88802
▁visits	-9.88813
▁lacking	-9.88856
▁biscuits	-9.89034
▁consider	-9.8911
▁personally	-9.89136
▁cause	-9.89163
all	-9.89193
▁Please	-9.89284
▁themselves	-9.89331
▁Parking	-9.89358
▁soda	-9.89527
▁lucky	-9.8953
▁host	-9.89573
like	-9.89588
▁trust	-9.89598
▁bars	-9.89624
▁fault	-9.89659
▁drove	-9.8978
▁D	-9.89859
▁deliver	-9.8986
▁cheaper	-9.89908
▁flight	-9.89923
▁key	-9.89932
▁dumplings	-9.90039
▁combination	-9.90208
▁guacamole	-9.90216
▁hummus	-9.90275
▁various	-9.90327
▁opted	-9.9037
▁talked	-9.90386
▁roast	-9.90445
▁difference	-9.90662
▁mother	-9.90725
▁calamari	-9.90775
▁nor	-9.90829
▁pot	-9.90908
▁Excellent	-9.90949
▁Of	-9.91104
▁promptly	-9.91218
▁Let	-9.91222
▁sub	-9.91385
▁parts	-9.9141
▁tofu	-9.91542
▁owned	-9.91693
▁Indy	-9.91772
▁TV	-9.91858
▁follow	-9.91897
▁orange	-9.91923
▁somewhat	-9.91923
▁burnt	-9.91974
▁round	-9.92091
▁figured	-9.9214
▁band	-9.92154
▁feet	-9.92243
▁smoke	-9.9227
▁Today	-9.92295
▁gel	-9.92331
▁odd	-9.92372
▁crunchy	-9.92402
▁Korean	-9.9249
Amazing	-9.92569
▁women	-9.92616
▁replaced	-9.92934
▁realize	-9.93025
▁apparently	-9.9303
▁apartment	-9.931
▁bigger	-9.93203
▁ton	-9.93236
▁earlier	-9.93411
▁recommendation	-9.93468
▁cover	-9.93472
▁self	-9.93473
▁older	-9.93517
▁belly	-9.93543
▁sports	-9.93579
▁rushed	-9.93816
▁bagel	-9.93837
▁bother	-9.93934
▁Greek	-9.93939
▁thanks	-9.94032
▁figure	-9.94099
▁sample	-9.94196
▁Delicious	-9.94283
▁moist	-9.94361
▁missed	-9.94405
▁eyes	-9.94559
▁dropped	-9.94707
▁closing	-9.94799
▁NEVER	-9.94898
▁margarita	-9.94978
▁feels	-9.95038
▁co	-9.95042
▁ambience	-9.95225
▁Thursday	-9.95237
▁rings	-9.95282
▁bike	-9.9535
▁grocery	-9.95459
▁selections	-9.95526
▁everywhere	-9.95813
▁pleasantly	-9.95866
▁$20	-9.95889
▁sale	-9.95969
▁Seriously	-9.96041
▁doubt	-9.96049
▁crawfish	-9.96109
▁mini	-9.96522
▁scallops	-9.96727
▁areas	-9.96775
▁unprofessional	-9.97092
▁shows	-9.97127
▁stuck	-9.97303
▁agreed	-9.9741
▁sound	-9.97505
▁bakery	-9.97523
▁Big	-9.97584
▁drinking	-9.97616
▁weekends	-9.97765
▁mashed	-9.97787
▁F	-9.97822
▁windows	-9.97858
▁property	-9.98055
▁treatment	-9.98117
▁bright	-9.9839
▁par	-9.98663
▁calls	-9.98755
▁separate	-9.98806
▁facility	-9.98926
▁range	-9.98929
▁California	-9.99229
▁properly	-9.9937
▁filet	-9.99385
▁sick	-9.99527
▁zero	-9.99679
▁cookie	-9.99696
▁otherwise	-9.99707
▁tons	-9.99804
▁fall	-9.9991
▁Still	-9.99915
▁grill	-9.99933
▁complimentary	-9.99995
▁funny	-10.0003
▁types	-10.0006
▁sized	-10.0022
▁fire	-10.0023
▁ten	-10.0026
▁body	-10.0028
▁closer	-10.003
▁personable	-10.0031
▁interested	-10.0032
▁fat	-10.0037
▁K	-10.0037
▁following	-10.0038
▁apple	-10.004
▁BEST	-10.005
?!	-10.0061
▁pop	-10.0074
▁six	-10.0081
▁passed	-10.0083
▁loves	-10.0084
ie	-10.0092
▁tire	-10.0096
▁generally	-10.0097
▁classes	-10.0098
▁photos	-10.0102
▁creative	-10.0106
▁fell	-10.0106
▁plastic	-10.0106
▁major	-10.0108
▁strawberry	-10.0115
▁pet	-10.012
▁doors	-10.0126
▁gives	-10.0136
▁Red	-10.015
▁b	-10.0159
▁Christmas	-10.0164
▁consistent	-10.0184
an	-10.0184
▁lobby	-10.0193
▁broccoli	-10.0207
▁travel	-10.0218
▁bean	-10.0231
▁disgusting	-10.0231
▁Loved	-10.0232
▁Starbucks	-10.0249
ish	-10.0249
▁Salad	-10.0253
▁noodle	-10.0254
this	-10.026
▁Cuban	-10.0278
▁dozen	-10.0279
▁manicure	-10.028
▁hole	-10.0281
▁Amazing	-10.0288
Wow	-10.0289
1	-10.0314
▁shower	-10.0325
▁stood	-10.0325
▁ham	-10.0326
▁distance	-10.0346
▁goodness	-10.0356
▁private	-10.0364
at	-10.0382
▁chill	-10.0388
▁Check	-10.0397
▁Last	-10.0401
▁favor	-10.0407
b	-10.0408
▁community	-10.0429
▁bringing	-10.0431
??	-10.0433
▁VERY	-10.0434
▁deli	-10.0439
▁sprouts	-10.0441
▁Fresh	-10.0452
▁health	-10.0455
▁upset	-10.0458
man	-10.0464
▁savory	-10.0469
▁waffle	-10.047
▁O	-10.0477
▁dealership	-10.0497
▁spectacular	-10.0504
P	-10.0523
▁members	-10.0533
▁update	-10.0534
▁margaritas	-10.0543
▁refused	-10.0549
▁crew	-10.0552
▁impressive	-10.0553
▁particularly	-10.0563
▁typically	-10.0569
▁chewy	-10.0574
After	-10.0575
▁Each	-10.0597
▁wood	-10.0609
▁enjoying	-10.0615
▁latte	-10.0622
if	-10.0626
▁damn	-10.0631
▁clothes	-10.0632
▁specialty	-10.0643
▁miles	-10.0645
▁putting	-10.0648
▁spa	-10.0656
for	-10.0664
▁scheduled	-10.0667
▁sizes	-10.0669
▁dollar	-10.067
▁vacation	-10.0676
▁Wednesday	-10.0696
▁haircut	-10.0697
▁Because	-10.0698
▁concept	-10.0704
▁Florida	-10.0709
▁whether	-10.0712
▁parents	-10.0717
▁catch	-10.072
▁version	-10.0731
▁foot	-10.0745
▁below	-10.0751
▁regret	-10.0772
▁handle	-10.0772
one	-10.0776
▁frequent	-10.0779
▁steaks	-10.0784
rd	-10.0786
▁advice	-10.0792
▁u	-10.0802
▁$2	-10.0808
▁noise	-10.0821
▁further	-10.0836
▁changes	-10.0837
▁chair	-10.0842
▁Here	-10.0856
▁Hot	-10.0868
▁goat	-10.0869
▁gorgeous	-10.088
▁events	-10.0888
F	-10.0902
▁Fried	-10.0903
▁alcohol	-10.0905
?)	-10.0906
▁banana	-10.091
▁pickles	-10.0921
▁Vietnamese	-10.0927
▁gas	-10.0929
▁peanut	-10.0947
▁apart	-10.0973
▁mango	-10.0979
▁Park	-10.0984
▁block	-10.099
G	-10.0993
▁hash	-10.1013
▁men	-10.1016
▁donut	-10.1019
▁/	-10.103
▁uncomfortable	-10.1038
▁college	-10.1061
▁dough	-10.107
▁Which	-10.1082
▁gross	-10.1084
▁decision	-10.1085
▁Happy	-10.1092
▁vanilla	-10.1104
▁smooth	-10.112
▁dipping	-10.1121
▁guest	-10.1127
▁shoes	-10.1128
▁suggestions	-10.113
▁stylist	-10.1138
▁screen	-10.114
▁department	-10.115
uarter	-10.1154
▁wear	-10.1164
▁His	-10.1178
▁An	-10.1187
Really	-10.1191
▁cheesecake	-10.1193
▁agree	-10.1201
▁tech	-10.1231
▁child	-10.1232
▁lower	-10.1233
▁words	-10.1233
▁picky	-10.1238
▁Anyway	-10.1241
▁joke	-10.1242
▁learned	-10.1253
▁overcooked	-10.1258
▁Mary	-10.1269
▁site	-10.1269
▁ground	-10.1271
▁receipt	-10.1287
M	-10.1293
▁allow	-10.1311
less	-10.1313
that	-10.1324
do	-10.1339
▁coupon	-10.1377
▁Market	-10.1384
▁$1	-10.1391
▁fare	-10.142
▁luck	-10.1445
▁offering	-10.1446
▁bathrooms	-10.1452
▁training	-10.146
▁delightful	-10.1461
▁pull	-10.1465
▁test	-10.1475
▁slaw	-10.149
▁writing	-10.149
▁locals	-10.1494
▁pleasure	-10.1495
▁spacious	-10.1496
▁trash	-10.1499
com	-10.1502
▁vet	-10.1505
▁Or	-10.1511
▁cards	-10.1517
▁DO	-10.1523
▁menus	-10.1528
▁booth	-10.1533
▁Her	-10.1537
▁lights	-10.1556
▁produce	-10.1558
▁accommodate	-10.1568
▁stock	-10.1576
▁entrance	-10.1589
▁south	-10.1601
▁bowls	-10.1607
▁West	-10.1632
▁wearing	-10.1632
▁laid	-10.1633
▁equipment	-10.1642
▁melted	-10.1644
▁perhaps	-10.1652
▁mayo	-10.1653
▁wines	-10.1663
▁cinnamon	-10.1667
z	-10.1671
▁G	-10.1672
▁refill	-10.1673
▁polish	-10.1682
▁groups	-10.1689
▁Place	-10.1699
▁include	-10.1699
▁theater	-10.17
▁awhile	-10.1709
▁biggest	-10.1712
▁loaded	-10.1722
▁inviting	-10.1736
▁design	-10.1743
You	-10.1751
▁pastries	-10.1752
▁bus	-10.1755
▁Have	-10.1756
▁superb	-10.1765
▁Chicago	-10.1766
▁Came	-10.1771
▁ourselves	-10.1775
▁relaxed	-10.179
▁meatballs	-10.1799
▁occasion	-10.1806
▁oven	-10.1814
▁Pho	-10.1814
▁N	-10.1815
▁garage	-10.1818
▁specific	-10.1825
▁spending	-10.1831
▁replace	-10.1858
Stopped	-10.1861
▁tires	-10.1875
▁buffalo	-10.1876
E	-10.188
▁season	-10.188
▁shouldn	-10.1883
▁$3	-10.1902
▁meeting	-10.1907
▁biscuit	-10.1908
▁Upon	-10.1914
▁wrapped	-10.1915
▁towards	-10.1934
▁rent	-10.1942
▁shame	-10.1944
▁pita	-10.195
▁parties	-10.1967
▁comfort	-10.1983
▁mustard	-10.1992
▁followed	-10.2007
▁toasted	-10.2015
▁hanging	-10.2025
of	-10.2027
▁knowing	-10.2028
▁constantly	-10.2038
▁effort	-10.2058
▁Coffee	-10.2064
▁M	-10.2073
▁possibly	-10.2083
▁waffles	-10.2095
▁apologized	-10.2099
▁mussels	-10.2104
▁bottles	-10.2108
▁against	-10.2114
▁la	-10.2119
▁John	-10.2123
▁prime	-10.2123
▁comment	-10.2126
▁Pete	-10.2128
▁24	-10.213
▁beginning	-10.2132
▁lime	-10.2138
▁learn	-10.2162
▁fully	-10.2163
▁surprisingly	-10.2173
▁cat	-10.2174
▁serious	-10.2176
▁extensive	-10.2181
▁Sushi	-10.2182
w	-10.2186
▁via	-10.2195
▁results	-10.2196
▁whenever	-10.2199
▁account	-10.2209
▁wonder	-10.2225
▁ticket	-10.2225
▁balance	-10.2234
▁Pork	-10.2238
Awesome	-10.2248
▁R	-10.2249
O	-10.2252
▁admit	-10.2258
▁wow	-10.2265
K	-10.2272
▁bone	-10.2276
▁con	-10.2287
▁Make	-10.2288
▁decorated	-10.2291
▁Japanese	-10.231
▁refills	-10.2311
▁yogurt	-10.2311
▁lighting	-10.2327
▁upscale	-10.2329
▁BYOB	-10.233
▁museum	-10.2331
le	-10.2335
▁El	-10.2352
▁snack	-10.2404
▁dance	-10.2423
▁smelled	-10.2423
▁occasions	-10.2431
▁advance	-10.2435
▁eggplant	-10.2443
▁TO	-10.2456
▁manner	-10.2458
▁delish	-10.2461
▁desert	-10.2493
▁Benedict	-10.2494
▁keeping	-10.2498
▁gentleman	-10.2504
▁Awesome	-10.2508
▁Center	-10.251
!"	-10.2511
▁leftovers	-10.2514
▁HUGE	-10.252
▁package	-10.2523
▁planning	-10.2529
▁begin	-10.2539
▁heaven	-10.2546
▁knowledge	-10.2548
▁Too	-10.255
▁throw	-10.2561
▁thorough	-10.2563
▁security	-10.2565
▁Chef	-10.2568
▁dentist	-10.2584
os	-10.2592
▁Drinks	-10.2593
▁watched	-10.2594
▁scene	-10.2595
▁sliced	-10.2596
▁pad	-10.2606
▁pressure	-10.2608
▁listen	-10.2612
f	-10.2623
▁pub	-10.2627
As	-10.2629
N	-10.2645
▁natural	-10.2653
with	-10.2662
▁businesses	-10.2663
▁began	-10.2664
▁Me	-10.2667
▁terrific	-10.2677
▁dont	-10.268
▁COVID	-10.269
▁trouble	-10.2695
▁points	-10.2696
▁ring	-10.2703
▁crap	-10.2706
▁offerings	-10.2706
!).	-10.271
▁garden	-10.2713
▁rental	-10.2716
na	-10.2718
▁Perfect	-10.2726
▁chip	-10.2728
▁freshly	-10.273
▁dive	-10.2735
▁indoor	-10.2736
▁stomach	-10.2738
▁aware	-10.2745
just	-10.2747
▁rock	-10.2751
▁guide	-10.2756
▁pair	-10.2756
▁annoying	-10.2777
is	-10.278
▁York	-10.2784
▁tortilla	-10.2794
▁apps	-10.2796
▁wants	-10.281
▁Beef	-10.2828
▁thoroughly	-10.2832
▁strange	-10.2835
▁queso	-10.2837
▁NY	-10.2837
!!!!!	-10.2838
▁ALL	-10.284
▁beautifully	-10.2848
▁treats	-10.285
▁hype	-10.2851
▁Taco	-10.2853
▁relax	-10.2861
▁Instead	-10.2867
▁Steak	-10.2868
▁sea	-10.2877
▁discovered	-10.2885
▁nasty	-10.2885
▁Restaurant	-10.2895
▁managed	-10.2899
▁def	-10.2907
Nice	-10.2928
▁tickets	-10.2932
▁maintenance	-10.2949
▁policy	-10.2949
▁vegetable	-10.2956
▁ignored	-10.2956
▁proceeded	-10.2958
▁became	-10.2966
2	-10.2969
▁Who	-10.2981
▁listed	-10.2984
▁Green	-10.2991
▁Needless	-10.2994
▁serves	-10.2998
▁yum	-10.2998
When	-10.3013
▁hell	-10.3017
▁onto	-10.3019
▁Joe	-10.3022
▁ginger	-10.3027
▁bagels	-10.3031
▁pineapple	-10.3036
▁photo	-10.3042
▁oyster	-10.3044
▁Did	-10.3058
▁happens	-10.3061
▁numerous	-10.3077
▁organized	-10.3089
▁excuse	-10.3113
▁match	-10.3125
▁caramel	-10.3127
▁Wow	-10.3127
▁spread	-10.313
▁picking	-10.3131
▁quote	-10.3138
▁$15	-10.3139
Delicious	-10.3139
▁spices	-10.3169
▁appeared	-10.3172
▁frequently	-10.3182
▁mozzarella	-10.3196
▁presented	-10.3197
▁Its	-10.3198
▁Bay	-10.3201
▁opportunity	-10.3203
he	-10.3207
▁Come	-10.3216
▁practice	-10.3227
▁social	-10.3239
▁timely	-10.3253
L	-10.3257
▁specifically	-10.3258
▁leaves	-10.3266
▁syrup	-10.3271
▁blown	-10.3295
u	-10.3297
free	-10.331
▁partner	-10.3311
▁address	-10.3313
▁starting	-10.3316
▁Didn	-10.3322
▁Old	-10.3324
Our	-10.3336
▁People	-10.3344
▁posted	-10.3345
▁ranch	-10.3347
▁tend	-10.3351
▁mild	-10.3351
▁warranty	-10.336
▁Yum	-10.3364
▁relatively	-10.337
▁King	-10.3376
▁mask	-10.3379
▁mid	-10.3388
▁unit	-10.3391
▁temperature	-10.3398
▁lounge	-10.3411
▁arrival	-10.3413
▁BUT	-10.343
▁Boise	-10.3433
▁cups	-10.3433
▁Absolutely	-10.3434
▁threw	-10.3436
star	-10.3447
▁tips	-10.3449
▁olive	-10.3452
▁bags	-10.3464
▁reminded	-10.3469
▁Probably	-10.3471
In	-10.3472
▁costs	-10.3473
▁omelette	-10.3476
▁confused	-10.3478
▁Being	-10.3482
Absolutely	-10.3488
▁Groupon	-10.3491
▁continued	-10.3494
▁Bourbon	-10.3497
▁Pretty	-10.3506
▁Took	-10.3506
▁access	-10.3507
▁message	-10.3509
▁YOU	-10.3512
well	-10.3519
▁flowers	-10.3521
▁THIS	-10.3534
▁directly	-10.3542
▁paint	-10.3545
▁Honestly	-10.3546
ra	-10.3547
▁tortillas	-10.355
There	-10.3555
▁removed	-10.3558
▁lacked	-10.356
▁ball	-10.3568
▁giant	-10.3588
▁Sometimes	-10.3599
v	-10.3599
house	-10.3618
▁draft	-10.3621
▁gonna	-10.3621
▁basil	-10.3624
▁dad	-10.3629
▁90	-10.3637
▁search	-10.3647
▁chunks	-10.3651
▁blocks	-10.3651
W	-10.3652
▁till	-10.3657
▁SB	-10.366
▁bank	-10.366
▁bomb	-10.3663
▁final	-10.3667
▁regularly	-10.3671
▁winter	-10.3691
▁tired	-10.3692
▁fluffy	-10.3701
▁pepperoni	-10.3704
▁..	-10.3713
▁Re	-10.3722
even	-10.3727
est	-10.3732
▁boxes	-10.3737
▁famous	-10.374
▁dead	-10.3741
▁L	-10.3743
▁cheesy	-10.3752
▁respect	-10.3763
▁stopping	-10.3765
▁Mike	-10.3778
▁balls	-10.3787
▁shell	-10.3793
▁impression	-10.3795
▁Over	-10.3808
▁Keep	-10.3808
▁18	-10.382
▁pan	-10.3822
▁Sweet	-10.3825
me	-10.3833
ED	-10.3833
▁floors	-10.3834
▁deals	-10.3836
▁EVER	-10.3841
▁ravioli	-10.3853
▁traffic	-10.3876
▁handed	-10.3882
▁p	-10.3887
▁southern	-10.3894
▁$6	-10.3896
▁crunch	-10.39
▁skip	-10.3908
???	-10.3922
▁valet	-10.393
▁intimate	-10.3933
▁neat	-10.3935
▁machines	-10.3941
▁control	-10.3944
▁soups	-10.396
▁Cajun	-10.396
▁concerned	-10.3964
▁example	-10.3966
▁books	-10.3976
▁advantage	-10.3977
▁Caesar	-10.3982
▁waiters	-10.3985
▁membership	-10.3991
▁cancel	-10.3991
▁budget	-10.3998
▁gyro	-10.4
▁tasteless	-10.4006
▁Wish	-10.4014
▁payment	-10.4017
▁shape	-10.4018
▁cupcakes	-10.402
No	-10.4025
▁tourist	-10.4025
▁U	-10.404
▁enter	-10.4047
▁pickup	-10.4049
▁Fries	-10.4055
▁informative	-10.4068
▁anniversary	-10.4069
▁base	-10.4074
▁sun	-10.4084
▁annoyed	-10.4105
▁bc	-10.4124
▁alright	-10.4128
▁broke	-10.4129
ies	-10.4138
▁potential	-10.4157
▁describe	-10.4157
▁originally	-10.4173
▁stale	-10.4176
Y	-10.4176
▁snacks	-10.4179
▁equally	-10.4183
▁details	-10.4184
▁saved	-10.4186
▁Customer	-10.4205
▁named	-10.4205
▁$8	-10.4209
▁liquor	-10.4211
▁random	-10.4223
▁Crab	-10.4226
▁$50	-10.4229
te	-10.4256
▁downstairs	-10.4271
▁e	-10.4272
▁brother	-10.4273
▁reasons	-10.4273
▁train	-10.4279
▁promised	-10.4284
▁meant	-10.4284
▁Manager	-10.4285
side	-10.4286
▁sucks	-10.4314
▁worry	-10.4318
▁legs	-10.4325
made	-10.4331
▁animals	-10.4338
▁text	-10.4349
▁shocked	-10.435
▁contacted	-10.4357
▁GREAT	-10.4372
▁memorable	-10.4372
▁Fish	-10.4378
▁During	-10.4393
▁appointments	-10.4408
▁played	-10.4417
▁changing	-10.4427
▁Your	-10.4438
▁Clean	-10.4441
▁communication	-10.445
time	-10.4488
▁shake	-10.4491
Oh	-10.4502
▁hubby	-10.451
▁clients	-10.4515
▁waitresses	-10.4535
▁poorly	-10.4538
▁San	-10.4547
▁kinds	-10.4551
▁careful	-10.4552
▁quaint	-10.4557
▁espresso	-10.4559
▁exact	-10.4564
▁himself	-10.4564
▁Po	-10.4564
▁mile	-10.4566
▁tight	-10.4567
▁cauliflower	-10.4568
▁flavored	-10.4571
▁correctly	-10.4572
▁catfish	-10.4575
▁sounds	-10.4582
R	-10.459
co	-10.4595
▁topping	-10.4606
▁rarely	-10.4609
▁gelato	-10.4614
▁sounded	-10.4625
▁corporate	-10.4636
▁nicer	-10.4642
▁jam	-10.4647
▁compare	-10.4648
▁caught	-10.4648
▁signature	-10.465
▁Garden	-10.4669
▁showing	-10.4671
▁H	-10.4679
very	-10.4681
▁Ok	-10.4686
▁dried	-10.4691
▁yeah	-10.4693
▁terms	-10.4696
▁$30	-10.47
▁LA	-10.4709
▁Second	-10.4729
▁fry	-10.4746
▁sleep	-10.4749
▁computer	-10.4763
▁current	-10.4765
▁hip	-10.4775
▁Beer	-10.4775
Don	-10.4776
la	-10.4781
▁tad	-10.4784
▁estimate	-10.4786
▁English	-10.4796
▁Chris	-10.4797
▁dressed	-10.4814
▁brew	-10.4815
▁obvious	-10.4818
▁falafel	-10.4819
▁brewery	-10.4822
▁holiday	-10.4824
▁held	-10.4832
▁$4	-10.4836
▁Breakfast	-10.4837
▁booths	-10.4841
▁towels	-10.4855
▁welcomed	-10.4856
▁thai	-10.4858
▁colors	-10.4862
▁cheddar	-10.4864
▁consistency	-10.4865
▁omelet	-10.4876
▁philly	-10.4903
▁common	-10.4903
▁views	-10.4912
▁sticks	-10.493
▁hardly	-10.4933
▁act	-10.4945
▁$100	-10.4949
$	-10.4956
▁d	-10.4964
▁dined	-10.4986
▁technician	-10.4996
▁Many	-10.5005
▁celebrate	-10.5008
▁IT	-10.5014
▁melt	-10.5015
▁somehow	-10.5015
▁chorizo	-10.5016
ro	-10.5019
Was	-10.502
▁adults	-10.5025
▁includes	-10.5033
▁hung	-10.5035
▁energy	-10.5039
be	-10.5046
▁truffle	-10.5049
▁ketchup	-10.5049
▁tells	-10.505
▁buns	-10.5053
▁Blue	-10.5054
▁age	-10.5058
▁organic	-10.5062
▁caring	-10.5083
H	-10.5093
▁More	-10.5095
▁J	-10.5095
▁Home	-10.5102
▁inexpensive	-10.5103
▁cabbage	-10.5103
▁masks	-10.5111
▁installed	-10.5118
▁bonus	-10.5124
▁result	-10.5129
▁Such	-10.513
▁jalape	-10.5136
▁soy	-10.5141
▁mi	-10.5143
▁NYC	-10.5146
▁Apparently	-10.5161
▁replacement	-10.5161
▁repeat	-10.5185
▁fingers	-10.5189
▁steamed	-10.5215
▁accept	-10.5221
▁public	-10.5223
▁complex	-10.5229
Ordered	-10.5241
▁teeth	-10.5242
▁locally	-10.5244
who	-10.5259
▁yellow	-10.5259
us	-10.526
▁romantic	-10.527
▁satisfying	-10.5273
Well	-10.5274
▁East	-10.5276
▁awkward	-10.5279
▁among	-10.528
▁Sorry	-10.5281
▁pack	-10.5284
▁everyday	-10.5285
▁cilantro	-10.5286
▁downside	-10.5289
▁dim	-10.5296
▁hospital	-10.5308
▁adding	-10.531
▁fianc	-10.5313
ting	-10.5316
▁sharing	-10.5326
▁impossible	-10.5332
▁hearing	-10.5339
▁chat	-10.5341
▁apology	-10.5342
▁al	-10.5349
▁quesadilla	-10.5349
▁eventually	-10.5353
▁19	-10.5355
▁Fast	-10.5371
▁sum	-10.5379
▁seasonal	-10.5388
▁burritos	-10.5392
▁grabbed	-10.5398
▁casino	-10.5401
▁claim	-10.5403
▁Mr	-10.5406
▁cucumber	-10.5407
▁y	-10.5416
▁quarter	-10.5427
Service	-10.5428
▁apologize	-10.5432
▁highlight	-10.5432
▁shit	-10.5439
▁damage	-10.5448
▁Covid	-10.5454
▁attempt	-10.5458
▁anytime	-10.5463
▁repairs	-10.5466
▁necessary	-10.5467
▁Luckily	-10.5474
▁Black	-10.5492
▁Especially	-10.5495
▁didnt	-10.5497
▁Atmosphere	-10.5504
▁complained	-10.5519
rs	-10.5525
▁lit	-10.5528
▁pointed	-10.5532
▁basket	-10.5534
▁comfy	-10.5555
▁16	-10.5559
▁handled	-10.5566
▁drunk	-10.5569
▁mani	-10.5574
▁initial	-10.5596
▁blood	-10.5608
▁De	-10.5608
▁chop	-10.5612
▁signs	-10.5614
ty	-10.562
▁display	-10.562
▁sticky	-10.5623
▁May	-10.5627
▁grouper	-10.5635
▁AC	-10.5637
▁o	-10.5637
▁previously	-10.5637
▁suppose	-10.5638
▁neither	-10.5639
▁boba	-10.5645
▁Texas	-10.5645
▁shredded	-10.5653
▁enchiladas	-10.5655
▁hotels	-10.5657
▁prepare	-10.5663
▁pancake	-10.5671
▁signed	-10.5681
min	-10.5682
▁charming	-10.5691
For	-10.5692
▁names	-10.5692
3	-10.5694
▁selling	-10.5701
▁required	-10.5702
▁smoothie	-10.5704
▁PM	-10.5713
▁understanding	-10.5718
▁remembered	-10.5724
▁bourbon	-10.5726
▁ruined	-10.5729
▁$12	-10.5736
▁easier	-10.5738
▁Grill	-10.5738
▁overwhelming	-10.575
▁Ave	-10.5761
▁wax	-10.5762
▁blend	-10.5775
▁charges	-10.5776
▁nervous	-10.578
▁messed	-10.5786
▁studio	-10.5789
▁roof	-10.5791
can	-10.5792
▁happier	-10.5793
▁pink	-10.5796
▁families	-10.5796
▁keeps	-10.5798
▁$7	-10.58
▁written	-10.5801
▁fans	-10.5801
▁cuts	-10.5803
▁breast	-10.581
▁sampler	-10.5817
▁Price	-10.5817
▁headed	-10.5833
▁0	-10.5837
▁container	-10.5842
▁beverage	-10.5847
▁carpet	-10.5866
▁Long	-10.5867
ry	-10.5874
ity	-10.5883
▁proper	-10.5884
▁row	-10.589
▁trendy	-10.5895
4	-10.5896
▁tenders	-10.5903
▁Bread	-10.591
▁smoking	-10.5918
▁familiar	-10.5923
▁!!	-10.5928
▁pickled	-10.5942
▁Hill	-10.5944
▁adult	-10.5944
▁Co	-10.5944
▁Indianapolis	-10.5949
▁liking	-10.5951
▁thrilled	-10.5956
bar	-10.5956
ton	-10.597
▁patty	-10.5975
▁Otherwise	-10.5975
▁samples	-10.5978
▁$25	-10.5979
▁hurry	-10.598
▁60	-10.598
▁pies	-10.5984
▁assured	-10.5988
▁fridge	-10.5992
▁pretzel	-10.6003
▁Plenty	-10.6013
▁remove	-10.6019
▁Bloody	-10.6022
mo	-10.6028
▁create	-10.6031
▁power	-10.6031
▁ceiling	-10.6046
V	-10.6049
▁standards	-10.6051
▁undercooked	-10.6059
▁traveling	-10.6066
▁plentiful	-10.6066
▁Roll	-10.6067
▁assume	-10.6073
▁waitstaff	-10.6076
▁candy	-10.6079
▁concerns	-10.6082
▁updated	-10.6097
▁pandemic	-10.6106
▁Pad	-10.6111
▁completed	-10.612
▁naan	-10.6121
▁st	-10.6132
▁beverages	-10.6138
▁toilet	-10.614
▁cares	-10.6145
▁ensure	-10.6147
▁pour	-10.6149
▁nobody	-10.6154
▁clothing	-10.6162
▁deserves	-10.6163
▁surgery	-10.6167
▁diners	-10.6182
▁TVs	-10.6184
▁staple	-10.6188
▁deserve	-10.62
▁failed	-10.6201
▁condition	-10.6201
▁napkins	-10.6201
what	-10.6209
▁tempura	-10.6209
▁hasn	-10.6213
▁popcorn	-10.623
oh	-10.6235
▁batter	-10.6237
▁grease	-10.6242
▁restroom	-10.626
▁beignets	-10.6266
style	-10.6269
▁tax	-10.6281
▁smells	-10.629
▁asparagus	-10.6293
▁suggestion	-10.6298
▁vodka	-10.63
▁State	-10.6304
▁Perhaps	-10.6308
▁flavorless	-10.631
▁Small	-10.631
▁paired	-10.6321
▁dealing	-10.6324
▁beds	-10.6325
▁rolled	-10.6332
▁Looking	-10.6345
▁client	-10.6356
▁stage	-10.636
▁program	-10.636
off	-10.6366
▁students	-10.6374
▁blow	-10.6382
▁IN	-10.6382
▁present	-10.6383
▁workout	-10.6387
ted	-10.6393
▁currently	-10.6399
▁chopped	-10.641
Always	-10.6415
▁hint	-10.6418
good	-10.6426
▁jewelry	-10.6431
▁boys	-10.6435
▁pesto	-10.6454
▁desired	-10.6454
▁Free	-10.6462
▁explaining	-10.6462
▁unlike	-10.6471
▁shut	-10.6475
▁king	-10.6483
▁feed	-10.6484
▁Take	-10.6489
▁layout	-10.649
▁tots	-10.6491
▁lie	-10.6503
▁skills	-10.6504
▁tomorrow	-10.6507
▁1.	-10.6511
▁boat	-10.6511
▁weekly	-10.6512
▁Room	-10.6517
▁Having	-10.652
▁chefs	-10.652
▁IS	-10.6521
▁starts	-10.654
by	-10.6541
▁ample	-10.6546
▁$40	-10.6548
▁14	-10.6549
▁Worth	-10.655
▁hospitality	-10.6552
▁build	-10.6552
▁crepe	-10.6558
▁cornbread	-10.6561
▁lemonade	-10.6563
▁medical	-10.6566
▁improve	-10.6566
▁companies	-10.6575
▁massive	-10.6585
▁rave	-10.6588
▁noisy	-10.659
▁win	-10.659
▁industry	-10.6601
▁pastry	-10.6605
▁Give	-10.6611
▁stellar	-10.6612
▁Before	-10.6625
▁God	-10.6628
▁GOOD	-10.663
▁depending	-10.6633
▁preferred	-10.6635
▁custom	-10.6639
▁Hotel	-10.6641
▁count	-10.6665
un	-10.6666
she	-10.6668
Been	-10.6671
▁info	-10.6679
▁Tried	-10.6695
▁inspection	-10.6695
▁risotto	-10.6696
▁individual	-10.6701
▁Apple	-10.6705
▁Chocolate	-10.6711
▁spaghetti	-10.6712
▁Car	-10.6716
▁Despite	-10.6717
▁charging	-10.6718
▁classy	-10.6731
▁Square	-10.6739
▁courses	-10.674
▁Three	-10.6741
oz	-10.6742
Do	-10.6754
▁contract	-10.6754
▁aside	-10.6763
▁cupcake	-10.677
▁hire	-10.6786
▁personality	-10.6791
▁Inn	-10.6812
▁responded	-10.6815
▁regulars	-10.6815
▁planned	-10.6816
▁shuttle	-10.6822
▁speaking	-10.6849
there	-10.6855
▁heading	-10.6855
▁switch	-10.6862
▁initially	-10.6862
▁gotta	-10.6865
▁pumpkin	-10.6867
▁tv	-10.6893
▁coleslaw	-10.6897
▁sangria	-10.69
▁olives	-10.6902
▁weekday	-10.6913
ling	-10.6916
▁worker	-10.6924
▁lives	-10.6934
▁blueberry	-10.6936
ment	-10.6939
▁buttery	-10.694
▁GO	-10.6952
▁chowder	-10.6955
▁concern	-10.6956
▁adorable	-10.6957
▁greet	-10.6968
▁PA	-10.6969
don	-10.6971
▁gnocchi	-10.6979
▁hopefully	-10.6988
▁rough	-10.7001
▁convenience	-10.7006
▁carrots	-10.7013
▁:	-10.7015
▁hurt	-10.7018
▁quoted	-10.7023
▁sweetness	-10.7024
▁described	-10.7033
▁leg	-10.7038
▁cutting	-10.7038
▁blast	-10.7041
▁court	-10.7043
▁grateful	-10.7048
▁entered	-10.7052
▁scoop	-10.7062
▁complaining	-10.7068
▁runs	-10.7069
▁minor	-10.7086
▁dream	-10.709
▁stumbled	-10.7094
▁lose	-10.7095
▁worried	-10.7105
▁Though	-10.7107
▁meh	-10.7107
▁octopus	-10.7108
ist	-10.7115
▁female	-10.7122
▁blackened	-10.7134
▁boring	-10.7136
▁encountered	-10.7138
▁bisque	-10.714
▁mail	-10.7145
▁Sandwich	-10.7151
▁interest	-10.7171
▁install	-10.7185
▁stocked	-10.7186
▁Jersey	-10.7189
▁safety	-10.7195
▁pound	-10.7198
▁genuinely	-10.7218
▁cheeseburger	-10.7222
▁tooth	-10.7225
ation	-10.7234
▁report	-10.7248
▁theme	-10.725
▁mint	-10.7253
▁Little	-10.7254
▁river	-10.7256
▁Won	-10.7257
ta	-10.7262
▁13	-10.7263
▁cherry	-10.7271
▁whipped	-10.7274
▁ends	-10.7284
▁regarding	-10.7286
▁Beach	-10.7288
▁bothered	-10.7298
▁wing	-10.7303
▁US	-10.7308
▁Spanish	-10.7314
▁Eggs	-10.7322
▁diet	-10.7324
▁ease	-10.7324
▁charm	-10.7329
▁shots	-10.7334
▁tub	-10.7341
▁seconds	-10.7344
▁Called	-10.7348
ion	-10.7358
line	-10.7362
▁Spicy	-10.7365
▁bloody	-10.7367
▁Tea	-10.7368
▁besides	-10.7368
▁tag	-10.7375
▁salted	-10.7376
▁dresses	-10.7376
▁Tom	-10.7376
ic	-10.7378
▁knowledgable	-10.7381
▁sliders	-10.739
▁noon	-10.7391
ine	-10.7392
▁resort	-10.7395
el	-10.7396
▁White	-10.7399
▁wrote	-10.7406
▁Pat	-10.7419
▁impeccable	-10.7423
▁vinegar	-10.7425
▁fees	-10.7426
▁Usually	-10.7427
▁creme	-10.7431
▁rain	-10.7432
▁listened	-10.7434
▁hey	-10.7438
▁closest	-10.7438
▁dental	-10.7444
▁tart	-10.745
▁Mi	-10.7457
▁mimosas	-10.7459
▁sadly	-10.7461
way	-10.7462
▁Dan	-10.7463
▁Order	-10.7471
▁wise	-10.7474
▁west	-10.7476
▁pride	-10.7484
▁reach	-10.7485
▁lazy	-10.7486
▁Tacos	-10.7497
Worst	-10.7503
▁hopes	-10.7505
▁emergency	-10.7529
▁barbecue	-10.7532
▁receptionist	-10.7535
▁cleanliness	-10.7548
age	-10.7549
▁$9	-10.755
day	-10.7571
▁miso	-10.7578
▁croissant	-10.7584
▁exception	-10.7587
▁parm	-10.7589
▁whiskey	-10.7592
▁:(	-10.7598
▁edible	-10.7603
▁bubble	-10.7607
▁July	-10.7609
▁Hope	-10.7611
▁minimum	-10.7612
▁brick	-10.7621
▁W	-10.7631
▁unable	-10.7631
yes	-10.7643
▁father	-10.7646
▁importantly	-10.765
▁Bell	-10.765
▁created	-10.7666
▁ya	-10.7697
▁Clearwater	-10.7697
▁student	-10.7702
▁sooo	-10.7703
▁Fun	-10.7707
▁Salmon	-10.7707
▁almond	-10.771
▁requests	-10.7719
▁Southern	-10.772
▁Le	-10.7728
▁Kitchen	-10.7732
▁snow	-10.774
▁paperwork	-10.7751
▁appears	-10.7752
▁Hopefully	-10.7753
▁entertainment	-10.7753
▁period	-10.7755
▁rep	-10.7757
▁attached	-10.7758
▁Wait	-10.7766
▁turns	-10.7767
boy	-10.7777
▁North	-10.7777
▁focus	-10.778
▁Jack	-10.779
▁Soup	-10.7795
▁passing	-10.7798
▁stone	-10.7801
▁facial	-10.7801
▁Sam	-10.7803
▁microwave	-10.7803
▁flatbread	-10.7826
▁)	-10.7826
▁Out	-10.7827
▁mushy	-10.7828
▁background	-10.7828
▁Al	-10.7831
▁About	-10.7831
▁page	-10.7843
▁grew	-10.7845
▁Sat	-10.7854
Ok	-10.7862
▁frustrating	-10.7869
▁weight	-10.7872
▁speed	-10.7877
▁mad	-10.7878
▁protein	-10.7879
▁happily	-10.7884
▁deposit	-10.7885
▁Man	-10.7886
ch	-10.789
▁happening	-10.789
▁Rice	-10.7891
J	-10.7893
▁sashimi	-10.7907
▁yoga	-10.7907
▁east	-10.7907
▁21	-10.791
▁German	-10.7911
food	-10.7913
▁martini	-10.7918
▁stress	-10.7919
uick	-10.792
▁overwhelmed	-10.7936
▁brings	-10.794
▁root	-10.7945
▁deck	-10.7955
▁push	-10.7955
▁finger	-10.7957
▁fountain	-10.7959
▁delight	-10.796
▁3.5	-10.7968
▁secret	-10.7979
▁ways	-10.7982
▁afraid	-10.7983
▁OMG	-10.7983
▁track	-10.7991
▁Save	-10.7991
▁Lobster	-10.7997
▁afterwards	-10.7999
▁appropriate	-10.8002
▁lover	-10.8013
▁veal	-10.8019
▁chipotle	-10.802
▁built	-10.8021
▁twist	-10.8028
great	-10.8028
▁professionalism	-10.803
▁handful	-10.803
▁Cool	-10.8031
▁jazz	-10.8032
▁parked	-10.8033
ee	-10.8036
ok	-10.8042
▁pedi	-10.8053
▁browns	-10.8065
▁Sure	-10.8069
▁warned	-10.807
ier	-10.8077
▁jambalaya	-10.8078
▁Sadly	-10.8082
▁guac	-10.8084
▁wild	-10.8086
▁sesame	-10.8096
▁Wine	-10.8096
▁video	-10.8115
▁balanced	-10.8118
▁entering	-10.8136
▁neck	-10.8137
▁reserved	-10.815
▁clam	-10.8156
ca	-10.816
Let	-10.8161
▁tapas	-10.8169
▁Where	-10.817
de	-10.8171
▁teas	-10.8176
▁searching	-10.8181
▁alternative	-10.8184
▁jerk	-10.8184
▁arriving	-10.8188
▁patients	-10.8188
▁soooo	-10.8195
▁Mediterranean	-10.8196
▁considered	-10.8202
▁fellow	-10.8205
ni	-10.8207
▁Right	-10.8208
▁reviewers	-10.8209
▁Menu	-10.8214
over	-10.8216
ne	-10.8219
▁Cons	-10.8224
▁slight	-10.8227
▁nuts	-10.8227
▁Club	-10.8238
▁fork	-10.824
▁gourmet	-10.8253
▁!!!	-10.8254
▁fake	-10.8258
▁doctors	-10.826
▁honor	-10.8261
▁champagne	-10.8263
▁pro	-10.8266
▁STL	-10.8268
▁advertised	-10.8281
▁soul	-10.8283
▁improved	-10.8284
▁exciting	-10.8285
▁oz	-10.8293
▁comments	-10.8294
▁rocks	-10.8299
▁garbage	-10.8299
▁confirm	-10.8302
▁north	-10.8308
▁mark	-10.831
lo	-10.8313
▁research	-10.8321
▁WOW	-10.8325
▁2)	-10.8325
▁inedible	-10.8337
▁ONLY	-10.8341
▁purchasing	-10.8343
▁plants	-10.8349
▁shirt	-10.835
▁tattoo	-10.8352
▁code	-10.8352
▁calm	-10.8355
▁Five	-10.8358
▁hassle	-10.8366
▁voice	-10.8375
ar	-10.8376
▁rack	-10.838
especially	-10.8385
▁cooks	-10.8387
▁im	-10.8387
our	-10.839
▁quantity	-10.8394
▁V	-10.8395
▁wifi	-10.8395
old	-10.8397
▁hearty	-10.8398
▁cell	-10.8398
▁lease	-10.84
▁hoagie	-10.8402
▁starving	-10.8427
▁scratch	-10.8435
▁10/10	-10.8435
▁unacceptable	-10.8441
▁lightly	-10.8444
▁Uber	-10.8452
▁upgrade	-10.8458
down	-10.8458
▁assortment	-10.8458
▁fajitas	-10.8465
ba	-10.8467
▁Star	-10.8469
▁auto	-10.8473
da	-10.8485
▁destination	-10.8492
▁wraps	-10.8499
▁lo	-10.8503
▁kale	-10.8509
▁oily	-10.852
▁internet	-10.8524
▁hipster	-10.8543
▁attended	-10.8546
▁hibachi	-10.8548
▁brews	-10.8553
▁herself	-10.8554
▁Irish	-10.8559
▁REALLY	-10.856
▁crepes	-10.8564
▁law	-10.8569
▁messy	-10.8571
▁replied	-10.8573
▁judge	-10.8575
▁clams	-10.8576
▁cheesesteaks	-10.8586
▁promise	-10.859
Horrible	-10.8597
▁settled	-10.8601
▁dancing	-10.8601
▁Main	-10.8602
▁artist	-10.8608
▁HERE	-10.8618
▁couch	-10.8619
▁Michael	-10.8622
end	-10.8623
▁Edmonton	-10.8626
▁watery	-10.8629
▁legit	-10.8634
▁poke	-10.8637
town	-10.8654
▁battery	-10.8658
▁thrown	-10.8659
▁god	-10.8662
▁f	-10.8664
▁wasted	-10.8669
▁recall	-10.8671
▁silverware	-10.8684
▁mainly	-10.8687
▁See	-10.8692
Fantastic	-10.8696
▁Stay	-10.8697
ful	-10.8698
▁mechanic	-10.8701
▁1)	-10.8707
▁Made	-10.8715
▁breaded	-10.8717
▁shortly	-10.8719
▁IPA	-10.8723
▁providing	-10.8723
▁carrot	-10.8724
▁Dinner	-10.8737
▁hamburger	-10.8743
▁eats	-10.8746
ri	-10.8747
ter	-10.8749
▁feta	-10.8751
▁concert	-10.8753
▁cramped	-10.8758
▁tree	-10.8761
▁description	-10.8767
▁grand	-10.8771
▁acceptable	-10.8772
▁asada	-10.8774
▁salesman	-10.8776
▁Bacon	-10.8777
▁Parmesan	-10.8784
▁amazingly	-10.879
▁construction	-10.8792
▁cab	-10.8792
▁talented	-10.8797
see	-10.8798
▁wheat	-10.8812
▁rated	-10.8818
▁salons	-10.8823
▁joints	-10.8835
▁breading	-10.8836
▁Enjoy	-10.8842
▁Beautiful	-10.8845
▁dealer	-10.8858
▁weak	-10.8861
▁helps	-10.8864
se	-10.8875
▁forced	-10.8879
▁sake	-10.8882
▁Chipotle	-10.8886
▁bitter	-10.8886
▁comparison	-10.8891
▁elevator	-10.8893
▁collection	-10.8893
▁Special	-10.8894
▁sink	-10.8896
▁fly	-10.8897
▁cancelled	-10.8898
▁cared	-10.8901
▁covid	-10.8902
▁filthy	-10.8904
▁Bad	-10.8906
ma	-10.891
ally	-10.8911
▁ONE	-10.8913
▁THAT	-10.8914
▁Easy	-10.8915
▁confusing	-10.8919
▁David	-10.892
▁involved	-10.892
▁reception	-10.8921
▁Hour	-10.8925
per	-10.8933
▁appt	-10.8933
▁Way	-10.8935
▁Been	-10.8935
▁reminds	-10.8936
▁trips	-10.8941
▁fatty	-10.8952
▁mexican	-10.8958
▁carne	-10.8959
▁tourists	-10.896
▁Boy	-10.8964
▁penny	-10.8968
PM	-10.8972
▁booking	-10.8986
▁winner	-10.8994
▁FOR	-10.8996
▁en	-10.8997
▁crappy	-10.9006
▁cheeses	-10.9016
maybe	-10.9022
▁earth	-10.9026
▁AM	-10.903
▁ridiculously	-10.9033
▁courtyard	-10.9035
▁vs	-10.9035
These	-10.9043
▁DJ	-10.9046
▁rip	-10.9061
letting	-10.9061
▁Mom	-10.9062
ia	-10.907
▁squash	-10.9071
▁picnic	-10.9073
▁35	-10.9073
▁knock	-10.9074
▁General	-10.909
▁coworkers	-10.9093
▁punch	-10.9095
▁Server	-10.9096
▁ribeye	-10.91
▁crowds	-10.9101
▁McDonald	-10.911
U	-10.9116
▁buds	-10.9118
▁Wonderful	-10.9121
▁coupons	-10.9125
▁icing	-10.9126
▁divine	-10.9129
▁tucked	-10.9129
▁boiled	-10.9136
back	-10.9136
▁levels	-10.9146
▁DELICIOUS	-10.9152
▁improvement	-10.9152
▁stands	-10.9155
▁Better	-10.916
▁faster	-10.9166
▁provides	-10.917
▁Franklin	-10.9182
Super	-10.9185
▁Lastly	-10.9187
▁cross	-10.9206
▁blame	-10.9206
▁smoothies	-10.9206
▁former	-10.9208
▁genuine	-10.921
▁kidding	-10.9211
▁Dog	-10.9217
▁bf	-10.9219
▁lasagna	-10.9229
▁tho	-10.9233
▁confirmed	-10.9234
▁Ice	-10.9234
▁meatball	-10.9236
▁risk	-10.9242
▁entirely	-10.9242
▁growing	-10.9244
▁recipe	-10.925
▁MY	-10.9251
▁bay	-10.9252
▁reached	-10.9255
▁tray	-10.9256
▁forgotten	-10.9256
▁golf	-10.9259
▁plans	-10.9265
▁peach	-10.9267
▁basis	-10.9274
▁exam	-10.9288
▁pickle	-10.9292
▁juices	-10.9294
▁steps	-10.9297
▁Ask	-10.9297
▁stupid	-10.93
▁loyal	-10.9302
▁record	-10.9308
▁practically	-10.9316
▁advised	-10.9323
▁Huge	-10.9325
▁Pro	-10.9332
▁flag	-10.9337
......	-10.934
▁entertaining	-10.9344
▁trained	-10.9346
▁explore	-10.935
Loved	-10.935
▁receiving	-10.9352
▁chatting	-10.9355
▁managers	-10.9359
▁highlights	-10.9368
▁strips	-10.9368
▁square	-10.9374
▁stairs	-10.9386
friendly	-10.939
▁maintained	-10.9391
▁afford	-10.9407
Have	-10.9424
▁football	-10.9431
▁finishing	-10.9434
▁skeptical	-10.9438
ce	-10.9438
▁acknowledged	-10.944
▁explanation	-10.9444
▁apologetic	-10.9448
land	-10.9449
▁animal	-10.9449
▁yelling	-10.9456
▁artichoke	-10.9459
▁reliable	-10.9462
▁indeed	-10.9466
▁ricotta	-10.9473
▁path	-10.9474
▁falling	-10.9484
▁male	-10.9486
▁hill	-10.9487
▁direction	-10.9487
▁acted	-10.9487
▁tone	-10.949
▁hooked	-10.9494
▁Tony	-10.9495
▁steep	-10.9501
▁neighbors	-10.9501
▁responsive	-10.9503
▁Either	-10.9506
▁nicest	-10.9508
▁comp	-10.9521
▁challenge	-10.9524
▁;)	-10.9526
▁wished	-10.9528
▁Bottom	-10.9531
▁fashion	-10.9532
▁blonde	-10.9535
▁stories	-10.9536
▁monthly	-10.9537
▁accident	-10.9544
▁human	-10.9551
▁Large	-10.9557
▁Grilled	-10.9559
▁MUST	-10.9561
▁eater	-10.9564
▁tequila	-10.9569
▁warning	-10.9571
▁Seafood	-10.9573
▁referred	-10.9574
▁2-3	-10.9578
▁Walmart	-10.9598
▁starter	-10.9606
▁Whole	-10.9614
▁sight	-10.9616
▁grown	-10.9619
▁Portions	-10.9624
▁fiance	-10.9625
▁Note	-10.9625
▁suit	-10.9631
▁nowhere	-10.9633
▁Mo	-10.9633
▁$	-10.9634
▁procedure	-10.9643
▁burned	-10.9646
▁Those	-10.9658
▁Glad	-10.9661
▁amenities	-10.9675
▁fav	-10.9676
▁strawberries	-10.9678
although	-10.9681
▁AWESOME	-10.9688
ian	-10.9712
▁minimal	-10.9723
▁tall	-10.9725
▁cleaner	-10.9727
▁introduced	-10.9729
▁ceviche	-10.973
▁buck	-10.9733
▁layer	-10.9736
▁lovers	-10.9743
▁majority	-10.9745
▁respond	-10.9748
▁insisted	-10.9757
▁vendors	-10.9763
▁refilled	-10.9765
▁raised	-10.977
▁blah	-10.9772
▁form	-10.9777
▁eyebrows	-10.9778
▁understood	-10.978
▁OF	-10.9781
▁exterior	-10.9792
▁sampled	-10.9795
▁diverse	-10.9795
▁Pie	-10.9812
▁younger	-10.9814
▁parmesan	-10.9815
▁Lo	-10.9823
▁satisfy	-10.9829
▁pace	-10.983
▁Could	-10.9833
▁exceeded	-10.9834
▁Shop	-10.9834
▁Totally	-10.9839
▁wondering	-10.9843
▁rules	-10.9843
Dr	-10.9845
▁trees	-10.9849
▁Sauce	-10.9851
▁kill	-10.9854
▁balcony	-10.9855
▁Must	-10.9861
▁Buffalo	-10.9862
▁downhill	-10.9864
▁listening	-10.9865
▁conference	-10.9877
▁cart	-10.9882
▁raved	-10.9889
▁unusual	-10.9899
▁coat	-10.9901
▁competition	-10.9904
▁aioli	-10.9906
▁caused	-10.991
▁vintage	-10.9913
▁designed	-10.9917
▁spiced	-10.9918
▁Yeah	-10.992
▁beware	-10.9921
▁muffin	-10.9921
▁peak	-10.9926
▁repaired	-10.9929
▁rum	-10.9933
▁bang	-10.9939
Pretty	-10.9942
▁approached	-10.9942
Terrible	-10.9944
▁End	-10.9948
▁states	-10.9949
son	-10.9954
▁session	-10.9957
j	-10.9964
▁ship	-10.9975
▁Lunch	-10.9976
▁amazed	-10.9984
▁greatest	-10.9987
▁County	-10.999
ey	-10.9999
▁saving	-10.9999
▁80	-11.0002
▁Seems	-11.0002
▁coast	-11.0004
▁ideal	-11.0007
▁damaged	-11.0009
▁Family	-11.001
em	-11.0021
▁popped	-11.0024
▁Wings	-11.003
▁Okay	-11.0031
▁Waitress	-11.0032
▁poured	-11.0036
▁pants	-11.0041
▁preference	-11.0046
▁greeting	-11.0047
▁washed	-11.0055
▁acknowledge	-11.0056
▁Waited	-11.0056
▁frustrated	-11.0061
▁holding	-11.0066
▁stating	-11.0066
!),	-11.0072
▁assumed	-11.0072
▁keys	-11.0085
▁Steve	-11.0087
▁nose	-11.0088
▁underwhelming	-11.0091
▁accurate	-11.0091
▁inch	-11.0091
▁benefit	-11.0091
▁worthy	-11.0094
5	-11.0097
wood	-11.0098
▁appetite	-11.0099
▁checkout	-11.0105
▁tab	-11.0112
▁shoulder	-11.0114
▁marinara	-11.0115
▁subpar	-11.0121
▁appear	-11.0124
▁August	-11.0125
▁comparable	-11.0125
▁trade	-11.0126
▁inconvenience	-11.0131
▁groupon	-11.0137
▁darn	-11.0138
▁teriyaki	-11.014
▁rub	-11.0141
▁Top	-11.0145
▁stepped	-11.0145
▁shakes	-11.0152
▁dinners	-11.0165
▁Tonight	-11.0165
▁canned	-11.0168
▁powder	-11.0174
▁metal	-11.0175
On	-11.0178
▁Tuna	-11.0179
▁behavior	-11.0183
▁Horrible	-11.0187
▁piping	-11.0188
▁installation	-11.0188
um	-11.0191
red	-11.0196
▁model	-11.0198
▁BLT	-11.0199
▁clue	-11.0201
▁killer	-11.0203
▁blew	-11.021
▁FOOD	-11.023
▁angry	-11.023
▁hello	-11.0237
▁ratio	-11.024
▁milkshake	-11.0245
▁checks	-11.0254
▁edge	-11.0261
▁emails	-11.0262
uality	-11.0266
▁x	-11.027
▁hesitate	-11.0271
▁AT	-11.028
▁jump	-11.0299
://	-11.03
▁starters	-11.0304
li	-11.0306
▁combinations	-11.0307
▁supplies	-11.0309
▁seared	-11.0312
▁million	-11.0314
▁led	-11.0317
▁sets	-11.0322
All	-11.0322
▁sooner	-11.0325
▁adds	-11.0327
fried	-11.0329
▁choosing	-11.0334
▁whatsoever	-11.0339
▁movies	-11.0344
▁freaking	-11.035
▁arm	-11.0355
▁features	-11.0364
▁hoped	-11.0364
ur	-11.0366
▁Cream	-11.037
▁accompanied	-11.0375
▁steakhouse	-11.0376
While	-11.0378
▁license	-11.0379
▁compliment	-11.0379
▁volume	-11.0381
▁surrounding	-11.0381
▁stew	-11.0382
▁Spa	-11.0383
▁zoo	-11.0391
▁regardless	-11.0392
▁flour	-11.0396
▁spoon	-11.0399
▁prescription	-11.0409
OK	-11.0418
▁thankful	-11.0425
▁yard	-11.0426
▁sand	-11.0426
▁nightmare	-11.0431
▁eclectic	-11.0437
▁marinated	-11.0442
▁vibes	-11.0451
▁appealing	-11.0453
Can	-11.0458
▁wallet	-11.0466
▁smart	-11.0468
▁Cake	-11.0476
▁trim	-11.0483
▁Jim	-11.0491
▁peas	-11.0492
▁dude	-11.0495
▁tangy	-11.0495
▁gold	-11.0498
▁setup	-11.0502
▁magic	-11.0504
▁detailed	-11.0508
▁smoky	-11.0509
▁unpleasant	-11.0511
▁rudely	-11.0514
▁gloves	-11.0515
▁arugula	-11.0517
▁dealt	-11.0517
▁17	-11.052
▁varieties	-11.0521
▁dairy	-11.0527
▁Update	-11.0529
▁June	-11.0529
Got	-11.0533
▁Fantastic	-11.0533
▁entr	-11.0533
▁selected	-11.0538
▁answering	-11.0539
▁catering	-11.054
▁manage	-11.0543
▁sometime	-11.0559
▁Los	-11.0559
▁semi	-11.0563
▁provolone	-11.0563
▁trail	-11.0567
▁Mother	-11.0569
▁maple	-11.0574
▁locked	-11.0575
que	-11.0579
▁Chinatown	-11.0581
▁select	-11.0585
▁pets	-11.0587
▁Much	-11.059
▁Y	-11.0592
▁Rock	-11.0604
▁pit	-11.0608
▁America	-11.0608
▁custard	-11.061
▁ID	-11.0614
oo	-11.0615
▁steal	-11.0616
▁meaning	-11.0629
▁cone	-11.0633
▁establishments	-11.0634
▁smiling	-11.0636
▁bikes	-11.0642
▁pecan	-11.0642
▁Are	-11.0643
▁approach	-11.0643
▁print	-11.0652
par	-11.0661
▁chops	-11.0664
▁needing	-11.0664
▁length	-11.067
▁pretzels	-11.0671
top	-11.0672
▁massages	-11.0672
▁pics	-11.0674
▁attempted	-11.0686
▁opposite	-11.0686
▁raspberry	-11.0687
▁poached	-11.0687
▁dirt	-11.0696
▁adequate	-11.0696
▁action	-11.0698
▁crave	-11.07
▁Duck	-11.0702
▁scrambled	-11.0702
ng	-11.072
▁allows	-11.072
▁restrooms	-11.0724
▁thumbs	-11.0729
▁Dave	-11.0738
▁empanadas	-11.0746
▁River	-11.0746
▁bananas	-11.0754
more	-11.0755
pe	-11.0756
▁associate	-11.0761
▁Almost	-11.0763
▁Someone	-11.0773
Everything	-11.0786
▁fitness	-11.0786
▁Brandon	-11.0792
▁hits	-11.0792
▁load	-11.0795
▁tail	-11.0801
▁compliments	-11.0804
▁exchange	-11.0806
▁balsamic	-11.0808
▁tank	-11.0809
▁loose	-11.0821
▁project	-11.0828
ley	-11.0829
▁Chili	-11.0832
▁hesitant	-11.0834
▁bell	-11.084
▁funky	-11.0845
pa	-11.0846
cheese	-11.0849
▁benedict	-11.085
▁Grand	-11.0853
▁macaroni	-11.0856
▁unhappy	-11.0861
▁lead	-11.0861
▁$13	-11.0863
dy	-11.0867
▁ability	-11.0868
▁farm	-11.0877
▁Any	-11.0879
▁artists	-11.088
▁wanna	-11.0881
▁staffed	-11.0883
only	-11.0887
▁escape	-11.0889
▁watered	-11.0892
▁Garlic	-11.0895
▁frame	-11.0903
some	-11.0905
▁Brussels	-11.0906
▁forth	-11.0919
LY	-11.0923
▁Half	-11.0928
▁pushed	-11.0929
▁boot	-11.0941
▁brownie	-11.0942
▁heads	-11.0945
▁c	-11.0946
▁alot	-11.0946
▁ALWAYS	-11.095
▁gal	-11.0958
▁bottled	-11.0959
Wonderful	-11.0969
▁grow	-11.0969
▁ownership	-11.097
▁shirts	-11.0972
▁condiments	-11.0973
▁sucked	-11.0973
▁Look	-11.0976
▁fired	-11.0977
8	-11.0978
▁Toast	-11.098
▁Terrible	-11.0981
▁Island	-11.0983
▁character	-11.0985
ber	-11.0987
▁:-)	-11.0988
▁chai	-11.099
▁NJ	-11.0991
ive	-11.0994
▁terribly	-11.0996
after	-11.1004
▁Additionally	-11.1004
▁carnitas	-11.1006
▁attend	-11.1012
▁Bo	-11.1013
▁$200	-11.1014
▁screw	-11.1016
▁beet	-11.1019
▁cooler	-11.1022
▁earned	-11.1028
▁bath	-11.1029
▁nurse	-11.1034
▁Inside	-11.1036
▁unfortunate	-11.1037
▁Music	-11.1038
▁guarantee	-11.1042
▁Mark	-11.1042
▁bowling	-11.1043
▁throwing	-11.1044
▁Dessert	-11.1045
▁strongly	-11.1048
▁Besides	-11.1055
▁char	-11.1055
▁Hands	-11.1057
▁gifts	-11.1058
▁painted	-11.1069
▁hired	-11.107
▁LOVED	-11.1078
▁pure	-11.1078
▁$35	-11.1081
▁ripped	-11.1091
▁factor	-11.1093
▁Worst	-11.1093
▁emailed	-11.1094
▁crack	-11.1103
▁everybody	-11.1104
▁WAY	-11.1104
▁Louisiana	-11.1115
▁noted	-11.1115
▁confident	-11.1125
Such	-11.1125
▁heated	-11.1127
▁stir	-11.1132
▁....	-11.1133
▁gooey	-11.1135
▁puppy	-11.1135
ke	-11.1135
▁flaky	-11.1138
▁cents	-11.1145
▁March	-11.1146
▁pile	-11.1149
▁sharp	-11.1149
▁lively	-11.1151
▁answers	-11.1158
▁hall	-11.1165
▁Hubby	-11.1167
iness	-11.1168
▁Egg	-11.1168
▁coworker	-11.1169
▁Spring	-11.1171
when	-11.1183
▁feature	-11.1185
▁culture	-11.1191
▁pushy	-11.1192
▁High	-11.12
▁meatloaf	-11.1202
▁spare	-11.1206
▁Matt	-11.1207
ck	-11.1208
▁shift	-11.1209
▁WAS	-11.121
▁lukewarm	-11.121
▁consisted	-11.1219
▁None	-11.1221
▁historic	-11.1225
ins	-11.1238
▁heck	-11.1238
▁heavenly	-11.124
▁expert	-11.1243
▁clinic	-11.125
▁appearance	-11.1252
▁fight	-11.1262
▁containers	-11.1263
▁bedroom	-11.1264
▁faces	-11.1266
▁Something	-11.1272
▁shoe	-11.1273
▁declined	-11.1274
▁ME	-11.1285
▁Bowl	-11.1287
▁eager	-11.1291
▁wheel	-11.1302
▁sip	-11.1309
▁bands	-11.1313
▁police	-11.1316
▁puppies	-11.1316
let	-11.1317
▁wonderfully	-11.1327
19	-11.133
▁breeze	-11.1332
▁success	-11.1335
▁advise	-11.134
▁celebration	-11.1341
▁essentially	-11.1342
▁knife	-11.1344
▁gladly	-11.1347
▁passion	-11.1353
▁unbelievable	-11.1358
▁ages	-11.1366
▁tossed	-11.1367
▁SERVICE	-11.1367
▁Same	-11.1375
▁fool	-11.1375
▁freshness	-11.1386
▁thus	-11.139
▁assistance	-11.1391
▁visitors	-11.1393
▁Four	-11.1404
▁Decent	-11.1411
▁express	-11.1417
▁grass	-11.1426
▁culinary	-11.1428
▁dates	-11.1432
▁calories	-11.1437
▁firm	-11.1446
▁muffins	-11.1447
▁chains	-11.1453
▁barber	-11.1455
▁Brunch	-11.1457
though	-11.1461
▁toward	-11.1461
▁sending	-11.1468
ary	-11.147
▁vinaigrette	-11.1474
▁pressed	-11.1474
▁vehicles	-11.1475
▁seven	-11.1478
led	-11.1485
▁claimed	-11.1491
▁instantly	-11.1492
▁cats	-11.1492
▁according	-11.1495
▁join	-11.1504
▁knots	-11.1505
▁Pros	-11.1507
▁ear	-11.1508
▁grounds	-11.1509
▁April	-11.1511
▁pharmacy	-11.1514
▁drank	-11.1514
▁Ben	-11.1517
▁plantains	-11.1523
▁alligator	-11.153
▁bugs	-11.1539
▁spray	-11.1539
▁Bring	-11.1539
▁patience	-11.154
▁Bill	-11.1551
▁surprising	-11.1555
▁mistakes	-11.1556
▁towel	-11.1557
▁Side	-11.156
▁memories	-11.1563
▁au	-11.157
▁haha	-11.1573
▁decorations	-11.1574
▁incorrect	-11.1576
op	-11.1577
▁politely	-11.1578
▁cleared	-11.1582
▁leak	-11.1587
▁masala	-11.1597
▁unlimited	-11.1601
▁phones	-11.1613
▁Lol	-11.1616
▁Ramen	-11.1616
▁leather	-11.1619
▁foodie	-11.1619
▁Stop	-11.162
ir	-11.1629
because	-11.1632
▁Mall	-11.1632
fi	-11.1633
▁spoiled	-11.1636
▁Honey	-11.1638
▁drivers	-11.1639
▁Obviously	-11.164
▁array	-11.1641
▁shipping	-11.1641
▁sunset	-11.1646
▁premium	-11.1657
ero	-11.1658
▁fave	-11.1658
▁Broadway	-11.1659
▁supporting	-11.1672
▁feedback	-11.1676
▁Location	-11.1682
▁reply	-11.1685
▁Call	-11.1689
ka	-11.1691
▁cider	-11.1691
▁scared	-11.1691
▁fail	-11.1697
▁recommending	-11.1697
▁file	-11.1708
▁utensils	-11.1711
▁daughters	-11.1723
▁Chips	-11.1729
▁chinese	-11.173
▁Italy	-11.1732
il	-11.1733
▁Lamb	-11.1735
▁elegant	-11.1735
▁joy	-11.1746
▁fed	-11.1748
▁worn	-11.1756
▁Thankfully	-11.1761
▁liquid	-11.1764
▁mattress	-11.1768
AM	-11.1775
▁Back	-11.1775
▁alley	-11.1775
▁suck	-11.1781
▁ON	-11.1782
▁Avoid	-11.1788
▁wont	-11.1795
Tried	-11.1802
▁ocean	-11.1807
▁3-4	-11.1809
▁$60	-11.1812
▁bass	-11.1813
To	-11.1814
▁YOUR	-11.1816
▁reputation	-11.1819
▁understaffed	-11.1819
▁conveniently	-11.1822
including	-11.1831
▁Con	-11.1832
▁facilities	-11.1833
▁refrigerator	-11.1839
▁mimosa	-11.184
ping	-11.1844
▁br	-11.1847
10	-11.1848
law	-11.1851
Their	-11.1854
▁pig	-11.187
▁coke	-11.187
▁nature	-11.1872
▁ha	-11.188
▁whim	-11.1884
▁Located	-11.1885
▁Eat	-11.189
▁Management	-11.1892
▁scam	-11.1893
▁prosciutto	-11.1894
▁delay	-11.1897
▁Owner	-11.1899
▁Bob	-11.1901
▁cafeteria	-11.1909
▁watering	-11.191
▁reviewed	-11.1916
▁unfriendly	-11.192
▁Ha	-11.1922
▁Anyways	-11.1933
▁goodies	-11.1935
▁CA	-11.194
▁accessible	-11.1943
▁pitcher	-11.1944
▁engine	-11.1946
New	-11.1951
▁plant	-11.1956
▁sodas	-11.196
▁Basically	-11.196
▁lately	-11.1961
▁em	-11.1962
▁Several	-11.1967
▁insane	-11.1974
▁http	-11.198
▁breath	-11.1982
▁clientele	-11.1982
▁bits	-11.1983
---	-11.1989
▁pricy	-11.1997
ac	-11.2001
ci	-11.2008
▁yelled	-11.2018
▁puts	-11.202
▁trucks	-11.2021
▁language	-11.2024
▁burn	-11.2032
▁golden	-11.2037
▁mignon	-11.2039
▁degrees	-11.2041
▁freezer	-11.2041
▁tenderloin	-11.2051
▁dig	-11.2054
ent	-11.2054
▁patron	-11.2054
▁dense	-11.2068
▁rid	-11.2073
▁draw	-11.2074
▁gate	-11.2084
fish	-11.2091
▁shaved	-11.2092
▁loving	-11.2093
▁refuse	-11.2095
▁lighter	-11.2096
▁respectful	-11.2097
▁poboy	-11.2099
▁styles	-11.2103
▁competitive	-11.2103
▁Charles	-11.2104
▁Pasta	-11.2109
▁WILL	-11.2118
▁rented	-11.2119
▁focused	-11.2119
▁learning	-11.2121
▁Foods	-11.2127
▁temp	-11.2128
▁rustic	-11.2131
▁switched	-11.2135
▁75	-11.2142
▁Kind	-11.2143
▁herbs	-11.2146
▁notes	-11.2155
▁Oysters	-11.2158
▁Meat	-11.216
▁status	-11.2161
▁Salon	-11.2162
▁1.5	-11.2165
ex	-11.2176
▁5-	-11.2177
▁campus	-11.2179
▁$14	-11.2181
▁companion	-11.2184
▁sloppy	-11.2185
▁6:30	-11.2186
▁theatre	-11.2186
7	-11.2187
▁ignore	-11.2188
▁Indiana	-11.219
▁superior	-11.2191
▁chic	-11.2191
-19	-11.2196
▁preparation	-11.2196
▁aspect	-11.2201
▁beauty	-11.2201
service	-11.2202
▁Village	-11.2206
▁substitute	-11.2207
▁meaty	-11.2209
▁straw	-11.2209
▁incident	-11.2211
▁PLACE	-11.2212
▁remind	-11.2215
▁YUM	-11.2217
▁lock	-11.2219
▁7:30	-11.2227
▁k	-11.2227
▁purpose	-11.2227
▁$16	-11.2228
▁Water	-11.2229
▁Gras	-11.2244
www	-11.2248
ized	-11.225
▁inform	-11.2252
▁soap	-11.2254
▁Nola	-11.2256
▁skillet	-11.2256
▁veg	-11.2258
▁2.5	-11.2259
▁Un	-11.2262
▁Carmel	-11.2263
▁Asked	-11.2265
mon	-11.2265
▁Marriott	-11.2269
▁$18	-11.2273
▁pic	-11.2278
ous	-11.2284
▁flights	-11.2284
▁Olive	-11.2285
night	-11.2285
▁$11	-11.2287
▁stations	-11.229
try	-11.229
▁lied	-11.2292
▁gracious	-11.2293
▁Hard	-11.2294
▁laughing	-11.2295
▁franchise	-11.23
▁pint	-11.23
▁Couldn	-11.2303
▁Yummy	-11.2304
▁tiramisu	-11.2308
▁Sundays	-11.2309
▁brussel	-11.2318
▁retail	-11.2318
▁assistant	-11.2319
▁error	-11.2321
▁suite	-11.2325
▁pocket	-11.2325
▁related	-11.2326
▁dryer	-11.233
▁rotation	-11.2333
▁occasionally	-11.2335
▁December	-11.2337
▁laughed	-11.2337
▁swear	-11.2345
▁brands	-11.2347
▁colorful	-11.2349
▁duty	-11.2352
▁flying	-11.2355
▁field	-11.2357
ate	-11.2357
▁rooftop	-11.2361
▁laugh	-11.2369
▁venture	-11.237
hot	-11.2374
was	-11.2376
▁Literally	-11.2377
▁moves	-11.238
▁disappoints	-11.2383
ah	-11.2385
▁study	-11.2386
▁branch	-11.2388
▁World	-11.2389
▁Valley	-11.2389
▁January	-11.239
▁slowly	-11.2391
▁barista	-11.2394
▁Table	-11.2396
▁adventurous	-11.2397
▁shelf	-11.2401
▁Thanksgiving	-11.2406
▁tan	-11.2407
▁mixture	-11.2408
▁Costco	-11.2411
▁entry	-11.2414
▁Kim	-11.242
▁necessarily	-11.2423
▁buddy	-11.2423
▁James	-11.2426
▁assist	-11.2427
▁Stars	-11.2429
Me	-11.2434
▁Nick	-11.2444
▁Line	-11.2445
▁gentle	-11.2451
▁fusion	-11.2453
▁route	-11.2455
▁fashioned	-11.2456
▁makeup	-11.2459
▁curious	-11.2461
▁featured	-11.2462
▁rubbery	-11.2467
▁church	-11.2472
▁Paul	-11.2473
▁labor	-11.2477
mi	-11.2482
▁braised	-11.2485
from	-11.2485
▁g	-11.2488
▁pup	-11.249
▁conversations	-11.2499
▁marked	-11.2499
▁waxing	-11.2501
▁soaked	-11.2505
▁Extremely	-11.2505
▁frosting	-11.2508
▁Crispy	-11.2517
!!!!!!	-11.2518
▁iron	-11.2519
▁unexpected	-11.2522
▁badly	-11.2523
Hands	-11.2523
▁condescending	-11.2524
▁Add	-11.2526
▁routine	-11.2528
▁shout	-11.2528
▁10-15	-11.2531
▁dropping	-11.2532
▁Open	-11.2534
▁driven	-11.2538
▁continues	-11.254
▁enchilada	-11.254
▁palate	-11.2549
▁Sea	-11.2552
▁turning	-11.2554
▁Curry	-11.2559
▁instructions	-11.2565
▁shade	-11.2567
▁cole	-11.2571
ner	-11.2571
▁decadent	-11.2575
▁extended	-11.258
▁dis	-11.2581
6	-11.2581
▁score	-11.2585
▁deliciousness	-11.2585
▁ill	-11.2587
▁Company	-11.2587
▁painful	-11.2587
▁allergies	-11.2594
les	-11.2596
▁twenty	-11.2597
how	-11.2598
▁delectable	-11.2606
▁Actually	-11.2607
▁Total	-11.2609
▁tater	-11.2613
▁Ever	-11.2614
▁Facebook	-11.2616
▁rear	-11.2619
▁carefully	-11.262
▁flow	-11.262
▁clerk	-11.2626
▁Express	-11.2627
▁dated	-11.2631
▁deciding	-11.2642
▁ingredient	-11.2642
sh	-11.265
owner	-11.265
▁Time	-11.265
▁bucket	-11.2652
▁pretentious	-11.266
▁tries	-11.2665
▁5/5	-11.2666
▁mis	-11.2671
▁mahi	-11.2672
▁drunken	-11.2672
▁Guess	-11.2675
Yes	-11.2677
▁screaming	-11.2682
ig	-11.2683
▁memory	-11.269
▁accepted	-11.269
▁waters	-11.269
▁cousin	-11.2695
▁Store	-11.2697
▁edges	-11.2697
▁therapist	-11.2697
▁warmer	-11.2697
▁5:30	-11.2698
▁LOL	-11.27
▁8:30	-11.2701
▁Tip	-11.2704
▁HAVE	-11.2706
▁challenging	-11.2712
▁bridge	-11.2713
men	-11.2714
▁attending	-11.2715
sorry	-11.2717
▁holidays	-11.272
▁Found	-11.2725
▁spaces	-11.2727
▁70	-11.2729
▁asks	-11.2743
▁timing	-11.2745
▁upper	-11.2748
cooked	-11.2749
▁October	-11.2749
▁midnight	-11.2755
▁tipped	-11.2758
ble	-11.2759
▁scale	-11.2764
▁3)	-11.2768
▁Turkey	-11.2769
▁toys	-11.2774
▁sunny	-11.2777
ler	-11.2781
▁agent	-11.2783
▁varied	-11.2783
▁FYI	-11.2785
▁corned	-11.2789
▁native	-11.2793
▁significant	-11.2796
▁operation	-11.2796
▁tops	-11.2796
▁bruschetta	-11.2796
▁solution	-11.2803
▁jelly	-11.2806
▁reviewer	-11.2807
▁inspired	-11.2809
▁combined	-11.2809
her	-11.2814
▁require	-11.2818
▁jobs	-11.2821
▁convinced	-11.2824
▁Ale	-11.2825
▁du	-11.2825
▁tongue	-11.2826
▁apples	-11.2826
new	-11.2827
▁GF	-11.283
▁rates	-11.2832
▁eight	-11.2832
▁handling	-11.2854
▁chow	-11.2858
▁encourage	-11.2858
▁eatery	-11.2861
▁Taste	-11.2868
▁shown	-11.2869
▁fishy	-11.2879
▁Auto	-11.288
bi	-11.2881
▁boss	-11.2882
▁pillows	-11.2883
▁unnecessary	-11.2885
▁Ma	-11.2895
▁wooden	-11.2896
▁scheduling	-11.2899
▁Geno	-11.29
▁zucchini	-11.2901
▁uses	-11.2901
ant	-11.2901
▁van	-11.2903
▁LOT	-11.2905
▁Hilton	-11.2908
chicken	-11.2909
▁til	-11.2912
▁disaster	-11.2921
▁walks	-11.2922
car	-11.2923
▁swimming	-11.2927
▁fear	-11.2928
ER	-11.2938
▁snob	-11.294
▁impress	-11.2941
▁BE	-11.2947
▁embarrassed	-11.2947
▁organization	-11.2951
▁layers	-11.2952
▁stops	-11.2956
▁accommodated	-11.296
▁activities	-11.296
▁land	-11.2962
▁horseradish	-11.2964
lin	-11.2969
▁sidewalk	-11.2972
▁pastrami	-11.2978
▁THEY	-11.2978
▁repeatedly	-11.2979
▁touched	-11.2984
▁sheets	-11.2985
▁becoming	-11.2986
▁movers	-11.299
▁executed	-11.2992
▁bargain	-11.2997
▁Recommend	-11.3
▁AGAIN	-11.3001
▁sorts	-11.3001
▁song	-11.3004
▁celebrating	-11.3007
▁dedicated	-11.3007
▁Rose	-11.3012
▁Sun	-11.3013
▁ATM	-11.3018
▁storage	-11.302
▁smiles	-11.3033
cor	-11.3035
▁Mar	-11.3036
▁raise	-11.3037
▁velvet	-11.3037
▁Avenue	-11.304
▁rainy	-11.3042
▁Wife	-11.306
▁allergy	-11.3067
▁holes	-11.307
▁bird	-11.3073
▁jar	-11.3084
▁accessories	-11.309
▁pedicures	-11.3091
▁assuming	-11.3093
▁lesson	-11.3096
▁overpowering	-11.3096
▁wonton	-11.3099
get	-11.3099
▁basement	-11.3101
▁l	-11.3104
▁Butter	-11.3104
▁Vegas	-11.311
▁greatly	-11.3111
▁placing	-11.3117
▁fitting	-11.3118
▁fruits	-11.3118
▁dipped	-11.3123
▁---	-11.3124
▁disrespectful	-11.3125
▁italian	-11.3125
▁Scott	-11.3126
too	-11.3126
▁proud	-11.3128
▁Deli	-11.313
▁scallop	-11.313
▁charred	-11.3132
▁direct	-11.3136
▁inconsistent	-11.3142
▁discuss	-11.3154
▁ratings	-11.3158
▁mocha	-11.3161
▁plaza	-11.3167
▁cheapest	-11.3168
▁panini	-11.317
▁China	-11.317
▁appeal	-11.3181
sized	-11.3182
▁chick	-11.3184
▁raving	-11.3188
▁anyways	-11.319
▁latest	-11.3191
▁Husband	-11.3192
▁Decor	-11.3193
▁exceptionally	-11.3195
▁kindly	-11.3209
▁Brian	-11.321
▁cater	-11.3212
▁scrumptious	-11.3221
▁lil	-11.3222
▁jalapeno	-11.3223
▁argue	-11.3232
▁hangout	-11.3239
▁surely	-11.3242
▁engaging	-11.3242
▁courtesy	-11.3246
▁hi	-11.325
▁ex	-11.3256
po	-11.3258
▁tours	-11.326
▁techs	-11.3264
▁Art	-11.3265
▁disappeared	-11.3267
▁whom	-11.3271
▁neighbor	-11.3272
▁adventure	-11.3277
▁definite	-11.3278
▁laundry	-11.3279
▁Gumbo	-11.3288
▁anybody	-11.3288
▁ideas	-11.3289
▁Sad	-11.3292
cha	-11.3292
▁wind	-11.3296
▁runny	-11.3297
▁ordinary	-11.3298
hi	-11.3303
Took	-11.3307
▁Poor	-11.3314
▁washing	-11.3323
▁pastor	-11.3326
▁Du	-11.3329
9	-11.3329
▁shelves	-11.333
▁miserable	-11.3337
▁cracked	-11.3343
▁exit	-11.3364
▁glaze	-11.3374
king	-11.3374
▁tri	-11.3377
▁Diner	-11.3379
▁caramelized	-11.3379
▁glazed	-11.3383
▁spin	-11.3386
▁Brazilian	-11.339
▁Kevin	-11.3392
▁Bistro	-11.3394
ak	-11.3396
▁Hawaiian	-11.3401
▁squeeze	-11.3404
▁patties	-11.3411
▁tamales	-11.3416
▁distancing	-11.3417
▁fixing	-11.3417
▁University	-11.3417
▁boutique	-11.342
▁lasted	-11.3421
▁homey	-11.3427
▁occupied	-11.3428
best	-11.3432
▁narrow	-11.3433
▁instructor	-11.3433
▁Aside	-11.344
▁painting	-11.3442
▁drain	-11.3445
▁Road	-11.3451
▁grub	-11.3456
▁squeezed	-11.347
▁Broad	-11.3472
▁airy	-11.3477
▁(2	-11.3489
20	-11.349
▁Should	-11.3493
▁guessing	-11.3493
▁Area	-11.3498
▁somebody	-11.3498
▁Whether	-11.3506
▁pissed	-11.3509
▁PS	-11.3516
▁luckily	-11.3517
▁r	-11.3519
▁Alfredo	-11.3521
about	-11.3523
▁karaoke	-11.3524
▁chew	-11.3525
▁booze	-11.3525
▁trio	-11.3527
▁packages	-11.3528
▁Depot	-11.3535
▁ho	-11.3538
▁smothered	-11.3542
▁suspect	-11.3544
▁Museum	-11.3545
▁Jeff	-11.3546
How	-11.3547
▁thoughtful	-11.3551
▁kimchi	-11.3552
▁watermelon	-11.3563
▁sells	-11.3566
▁constant	-11.3568
▁prep	-11.3571
▁Jason	-11.3573
▁supervisor	-11.3579
▁rule	-11.3583
▁Whatever	-11.3584
▁Nope	-11.3589
▁dump	-11.3589
▁limit	-11.3596
▁aged	-11.36
▁exhibit	-11.3602
▁letter	-11.3604
▁satisfaction	-11.3606
▁songs	-11.3606
tic	-11.3607
▁death	-11.3609
ville	-11.3609
Okay	-11.361
▁rose	-11.3616
nt	-11.3616
▁heater	-11.3619
▁confirmation	-11.362
▁therefore	-11.3621
▁arcade	-11.3623
▁couples	-11.3623
▁desire	-11.3625
▁dust	-11.3625
▁residents	-11.3628
▁toes	-11.3629
▁saut	-11.3631
▁shady	-11.3633
▁island	-11.3634
▁mein	-11.364
▁interaction	-11.3644
▁Mexico	-11.3651
▁renovated	-11.3653
▁tradition	-11.3654
▁wedge	-11.3654
▁Ashley	-11.3657
▁central	-11.3659
ze	-11.366
▁Valentine	-11.366
▁screwed	-11.3664
▁creole	-11.3665
ya	-11.3678
▁numbers	-11.3681
▁grace	-11.3688
▁bo	-11.369
▁attendant	-11.3691
▁tools	-11.3691
▁servings	-11.3694
▁Hall	-11.3696
▁reserve	-11.3697
▁quiche	-11.3697
▁pulling	-11.3702
▁merchandise	-11.3704
▁Eve	-11.3704
▁Started	-11.3709
▁incompetent	-11.3711
▁attractive	-11.3713
▁smokey	-11.3717
ang	-11.3719
▁Ambiance	-11.372
▁inventory	-11.3722
▁devoured	-11.3724
ated	-11.3724
▁accidentally	-11.3726
▁Donuts	-11.3727
▁physical	-11.3729
▁Wild	-11.373
Every	-11.3732
▁22	-11.3739
▁subtle	-11.3751
▁peaceful	-11.3751
▁newer	-11.3753
▁Margarita	-11.3754
▁subs	-11.3754
▁soak	-11.3755
▁exhibits	-11.3765
ring	-11.3766
An	-11.3775
▁endless	-11.3775
▁Truly	-11.3778
ten	-11.3783
▁Target	-11.3784
con	-11.3785
▁treasure	-11.3788
▁hoagies	-11.3791
both	-11.3793
▁fireplace	-11.3794
uite	-11.3795
▁FL	-11.3797
▁WORST	-11.3799
▁Central	-11.3799
▁Lee	-11.3804
OMG	-11.3804
▁chile	-11.3804
▁groceries	-11.3804
▁pico	-11.3809
▁Recently	-11.3816
▁healthier	-11.3817
▁Luke	-11.3818
▁knocked	-11.383
Definitely	-11.3832
?!?	-11.3832
▁hush	-11.3834
▁content	-11.3837
▁sing	-11.3837
▁opposed	-11.384
▁addressed	-11.3843
▁shampoo	-11.3844
▁squid	-11.3844
▁boneless	-11.3856
▁mold	-11.3858
▁stylists	-11.3864
▁di	-11.3867
▁minus	-11.387
ga	-11.387
▁4.5	-11.3871
▁corrected	-11.3871
▁Night	-11.3872
room	-11.3872
▁stains	-11.3877
▁cap	-11.3878
ge	-11.3879
▁grade	-11.3887
▁edamame	-11.3887
▁Normally	-11.3889
your	-11.3893
▁Onion	-11.3897
▁wipe	-11.3898
▁Has	-11.3898
▁instructors	-11.3904
▁highest	-11.391
vo	-11.3911
▁flower	-11.3912
eat	-11.3913
▁conditioning	-11.3926
▁connected	-11.3927
thru	-11.3928
▁approximately	-11.3929
▁Live	-11.3932
▁sweat	-11.3935
▁loss	-11.3942
▁commented	-11.3954
pedi	-11.3954
▁enormous	-11.3957
Never	-11.3959
▁messages	-11.396
▁trap	-11.3966
▁gear	-11.3967
▁jeans	-11.397
▁stunning	-11.3971
▁Toyota	-11.3979
▁blowing	-11.3979
▁nut	-11.398
Thank	-11.3981
▁doughnuts	-11.3983
▁milkshakes	-11.3983
▁favourite	-11.3986
▁dinning	-11.3986
▁upgraded	-11.3987
▁competent	-11.3992
▁hundreds	-11.3998
▁billing	-11.4003
▁stadium	-11.4004
▁military	-11.4009
▁industrial	-11.4014
▁warehouse	-11.4019
▁shells	-11.4022
▁master	-11.4024
▁smoothly	-11.4027
▁Tim	-11.4045
▁Burgers	-11.4047
▁jack	-11.4047
▁HIGHLY	-11.4057
▁Pi	-11.4059
▁dying	-11.4059
▁Reading	-11.4072
▁convention	-11.4074
▁15-20	-11.4075
▁supply	-11.4078
▁Anthony	-11.4085
cut	-11.4088
▁stays	-11.409
ha	-11.4091
▁outrageous	-11.4098
▁Fortunately	-11.41
▁resolved	-11.4101
▁9:30	-11.411
▁Prime	-11.4115
▁inches	-11.4118
▁piano	-11.4119
▁quesadillas	-11.4119
▁zone	-11.4123
▁Kids	-11.4128
ance	-11.413
▁amongst	-11.4131
▁couches	-11.4131
▁toddler	-11.4139
bo	-11.414
▁Mardi	-11.4141
▁frills	-11.4142
▁battered	-11.4143
Beautiful	-11.4144
▁Regardless	-11.4145
▁degree	-11.4145
▁arrangement	-11.415
▁frankly	-11.4152
▁delicate	-11.4153
0	-11.416
▁loaf	-11.4165
▁Coast	-11.4167
ating	-11.4168
▁whose	-11.417
▁Nails	-11.417
▁rewards	-11.4171
ice	-11.4174
▁hat	-11.4178
▁generic	-11.4193
▁se	-11.4196
Finally	-11.4196
▁opt	-11.4199
▁invited	-11.42
▁terminal	-11.4207
▁Stopped	-11.4207
▁Granted	-11.4211
▁priority	-11.4213
▁steam	-11.4215
▁discover	-11.4226
▁Full	-11.4227
▁bummer	-11.4232
▁screens	-11.4234
▁lackluster	-11.4238
▁nigiri	-11.4242
▁ruin	-11.4243
▁breads	-11.4244
fresh	-11.4244
▁Trust	-11.4248
▁Potato	-11.425
▁2016	-11.4252
▁vision	-11.4253
▁hitting	-11.4257
▁records	-11.4257
▁hop	-11.4264
▁Downtown	-11.4267
▁Boston	-11.4268
really	-11.4268
ned	-11.427
Friendly	-11.4272
▁cruise	-11.4276
workers	-11.4279
▁treatments	-11.4281
▁bottomless	-11.4287
Go	-11.4291
▁responsibility	-11.4298
▁Saint	-11.4307
▁overnight	-11.4307
▁Ne	-11.431
▁button	-11.4316
▁hunt	-11.4317
▁insanely	-11.432
▁seaweed	-11.4321
DO	-11.4324
▁packaged	-11.4326
▁everytime	-11.4328
▁navigate	-11.4332
id	-11.4339
▁bones	-11.4341
▁complimented	-11.4343
▁underwhelmed	-11.4344
▁lashes	-11.4348
▁restrictions	-11.4351
▁Yelpers	-11.4351
▁kinks	-11.4362
▁windshield	-11.4363
▁Ca	-11.4364
▁Between	-11.4364
▁Rib	-11.4366
▁mousse	-11.4366
▁salsas	-11.4369
▁carte	-11.4371
▁stressful	-11.4384
▁died	-11.4394
▁copy	-11.4398
▁statement	-11.4398
▁Kudos	-11.4399
▁tile	-11.4399
▁Light	-11.44
▁Pub	-11.4401
▁Ho	-11.4405
▁Guys	-11.4407
▁cajun	-11.4411
▁hallway	-11.4417
▁Coke	-11.4418
▁claims	-11.4419
▁gin	-11.4419
▁lay	-11.4419
year	-11.442
▁appetizing	-11.4424
bs	-11.4425
▁gripe	-11.4432
had	-11.4438
▁Real	-11.4439
▁ahi	-11.4444
▁bare	-11.4445
▁mole	-11.4451
▁Alex	-11.4455
▁laptop	-11.446
▁Mind	-11.4464
▁gratuity	-11.4467
▁news	-11.4468
▁breaking	-11.4469
▁Ribs	-11.447
▁Frank	-11.4471
▁pregnant	-11.4473
▁rabbit	-11.4473
▁banh	-11.4478
▁race	-11.448
▁Ka	-11.4489
▁ARE	-11.4492
ho	-11.4494
▁matters	-11.4501
di	-11.4501
▁Terminal	-11.4504
▁bug	-11.4505
▁bills	-11.4508
▁transaction	-11.451
▁Vegan	-11.451
▁Based	-11.4524
▁Servers	-11.4524
▁Ryan	-11.4528
ad	-11.4529
based	-11.4529
▁sensitive	-11.4532
▁November	-11.4537
where	-11.4541
▁grooming	-11.4545
▁outdoors	-11.4547
▁media	-11.4554
▁Cherry	-11.456
▁mirror	-11.4561
▁Tasty	-11.4573
▁Up	-11.4576
▁FREE	-11.4576
mp	-11.458
Some	-11.4581
▁Washington	-11.4582
▁kicked	-11.459
▁4/5	-11.4597
▁drinker	-11.4603
▁asian	-11.4607
▁allowing	-11.461
▁Brown	-11.4611
▁Shake	-11.4612
▁ANY	-11.4618
▁representative	-11.4627
▁Cheesecake	-11.4629
▁skimp	-11.4634
mins	-11.4635
Why	-11.4645
▁Watch	-11.4648
▁practices	-11.4648
▁scary	-11.4653
Visited	-11.4654
▁$300	-11.4654
IN	-11.4658
▁Personally	-11.4659
▁aggressive	-11.4667
▁wasting	-11.4668
▁refer	-11.467
va	-11.4679
ana	-11.4681
▁passionate	-11.4683
▁Publix	-11.4683
▁cities	-11.4683
▁lying	-11.4688
▁fence	-11.469
▁flavour	-11.4691
▁outdated	-11.4691
▁singing	-11.47
▁married	-11.4703
▁candle	-11.4704
▁tow	-11.4704
ster	-11.4708
▁Rittenhouse	-11.472
▁joined	-11.4721
ut	-11.4722
order	-11.4724
▁communicate	-11.4726
▁successful	-11.4726
▁cappuccino	-11.4726
?).	-11.4728
▁intended	-11.4729
▁alcoholic	-11.4733
▁delivers	-11.4734
▁tikka	-11.4734
▁Honda	-11.4734
▁processed	-11.4735
▁colored	-11.4738
▁ale	-11.474
▁Drive	-11.474
▁heavily	-11.475
▁sooooo	-11.475
▁Penn	-11.4751
▁Panera	-11.4756
▁presence	-11.4758
▁Google	-11.4768
▁certificate	-11.477
▁OR	-11.4773
▁frames	-11.4773
also	-11.4781
▁Reuben	-11.4782
▁truth	-11.4786
▁socks	-11.4786
▁surrounded	-11.4791
▁directed	-11.4795
▁sucker	-11.48
▁Royal	-11.4804
▁ultimately	-11.4807
▁losing	-11.4811
▁flies	-11.4814
▁10:30	-11.4815
▁BYO	-11.4817
▁apartments	-11.4826
▁charcuterie	-11.4826
▁artwork	-11.4827
▁EVERYTHING	-11.4827
▁Chick	-11.4827
▁lift	-11.4829
▁performance	-11.483
▁citrus	-11.483
ably	-11.4831
▁printed	-11.4833
▁Walking	-11.4836
▁festival	-11.4838
▁ending	-11.4843
▁Tavern	-11.4845
▁$10.	-11.4848
▁grabbing	-11.4854
water	-11.4856
▁lane	-11.4857
▁Robert	-11.4858
▁newly	-11.4861
▁Haven	-11.4864
ada	-11.4865
▁maintain	-11.4865
▁beets	-11.4867
▁upbeat	-11.487
▁pump	-11.4881
▁pear	-11.4883
▁comped	-11.4886
▁wasnt	-11.4889
▁foster	-11.489
▁nuggets	-11.4894
▁platters	-11.4895
▁district	-11.4897
io	-11.4898
▁Di	-11.4901
▁beaten	-11.4901
▁Drink	-11.4902
▁term	-11.4903
▁rolling	-11.4913
▁responsible	-11.4914
▁proof	-11.4914
▁decently	-11.4929
tip	-11.4929
▁performed	-11.493
▁cannoli	-11.4931
za	-11.4935
▁vegetarians	-11.4939
▁canceled	-11.4944
▁Pan	-11.4955
▁Ta	-11.4959
▁ceilings	-11.4961
priced	-11.4962
▁Things	-11.4962
▁curly	-11.4963
▁touristy	-11.4965
▁infused	-11.4969
45	-11.4973
▁warn	-11.4979
▁rushing	-11.499
iest	-11.4997
▁hollandaise	-11.4998
▁outlets	-11.4998
▁magical	-11.5001
▁brows	-11.5001
▁okra	-11.5003
▁camera	-11.5005
▁shock	-11.5006
▁11:30	-11.5007
▁Cute	-11.5009
▁recipes	-11.5012
▁Jimmy	-11.5014
▁chatted	-11.5015
▁kindness	-11.5016
▁enthusiastic	-11.5017
▁Ro	-11.5017
▁luggage	-11.5019
▁Cold	-11.5021
▁sampling	-11.5023
▁shipped	-11.5023
▁guard	-11.5025
▁cases	-11.5031
▁understandable	-11.5034
▁Brisket	-11.5037
▁Tennessee	-11.5039
▁grandmother	-11.5039
▁refunded	-11.5039
▁sh	-11.5044
▁hook	-11.5044
▁houses	-11.5045
▁applied	-11.5047
La	-11.5048
▁delighted	-11.5048
▁cheerful	-11.5049
▁blended	-11.506
▁flexible	-11.5063
▁frustration	-11.5067
▁streets	-11.5069
▁VIP	-11.507
manager	-11.507
▁Eric	-11.5072
▁Lemon	-11.5078
▁resolve	-11.5078
board	-11.5079
▁Looks	-11.5079
▁chilly	-11.5083
▁creating	-11.5088
:)	-11.5089
▁obnoxious	-11.5094
▁Walked	-11.5096
▁rye	-11.5096
ball	-11.51
wise	-11.5103
q	-11.5109
▁HORRIBLE	-11.5109
▁advertise	-11.5115
▁seeds	-11.512
▁press	-11.5123
▁technicians	-11.5126
ery	-11.5127
▁WHAT	-11.513
▁chargrilled	-11.5133
▁cigar	-11.5137
▁position	-11.5137
▁Factory	-11.5141
person	-11.5144
▁halfway	-11.5144
▁Local	-11.5144
▁discounts	-11.5151
▁wore	-11.5152
▁breweries	-11.5158
▁sourdough	-11.5158
▁buildings	-11.5158
▁obsessed	-11.5158
▁nonetheless	-11.5162
▁Arizona	-11.5163
▁patiently	-11.5164
▁recognize	-11.5165
▁eaters	-11.5169
▁uneven	-11.5169
▁shaped	-11.5175
▁el	-11.5195
▁Mango	-11.5201
▁brewed	-11.5203
▁plane	-11.5205
▁excuses	-11.5211
▁housekeeping	-11.5216
▁backed	-11.5218
▁porch	-11.5219
▁?	-11.5219
▁Yet	-11.5222
▁underneath	-11.5224
▁gun	-11.5224
▁vast	-11.5226
▁swing	-11.5226
▁George	-11.5226
▁preparing	-11.5228
▁rotating	-11.5228
▁pushing	-11.5229
▁iPhone	-11.5237
▁da	-11.5237
▁Wendy	-11.5244
▁Unless	-11.5248
▁mash	-11.525
▁crafted	-11.5251
▁$17	-11.5251
▁causing	-11.5253
▁slammed	-11.5257
▁belt	-11.5261
▁ppl	-11.5268
▁trout	-11.5274
ette	-11.5274
▁grandma	-11.5277
im	-11.5279
▁library	-11.5283
▁multi	-11.5283
????	-11.5283
▁Rangoon	-11.529
head	-11.5292
▁Ford	-11.5304
▁Delaware	-11.5307
▁September	-11.5308
ki	-11.5309
▁Within	-11.5309
▁fits	-11.531
Another	-11.5311
▁arrives	-11.5311
▁succulent	-11.5324
▁Lucky	-11.5327
▁warmed	-11.5331
▁Short	-11.5333
▁sirloin	-11.5336
▁bake	-11.5337
▁silly	-11.5341
▁thicker	-11.5344
▁Delivery	-11.5345
▁pairing	-11.535
▁acrylic	-11.5351
▁annual	-11.5353
▁hrs	-11.5355
▁Air	-11.5364
▁sketchy	-11.5366
▁poisoning	-11.5367
▁Head	-11.5369
▁freezing	-11.5371
▁cuz	-11.5375
▁Bartender	-11.5377
▁Care	-11.5377
▁bridal	-11.5378
▁Need	-11.5378
ita	-11.5381
▁girlfriends	-11.5383
▁Wasn	-11.5383
▁Ba	-11.5385
▁leftover	-11.5389
▁bummed	-11.5391
▁whoever	-11.5392
▁pouring	-11.5394
▁pricier	-11.5395
▁lean	-11.5401
▁oatmeal	-11.5403
▁reality	-11.5408
▁chances	-11.541
▁Cha	-11.544
▁admission	-11.5441
▁Beware	-11.5444
▁lavender	-11.5451
▁activity	-11.5454
▁settle	-11.5455
Re	-11.5457
▁Whenever	-11.5458
Cute	-11.5459
▁benches	-11.5459
▁disgusted	-11.5459
▁ER	-11.5461
ger	-11.5461
▁harder	-11.5462
▁serviced	-11.5466
▁skipped	-11.5471
▁Without	-11.5474
▁hundred	-11.5475
▁disorganized	-11.5475
▁reschedule	-11.5483
▁deviled	-11.5494
▁washer	-11.5497
▁Simple	-11.5498
▁junk	-11.55
ina	-11.55
ai	-11.5502
▁extreme	-11.5503
vi	-11.5508
▁immediate	-11.5511
▁sheet	-11.5514
▁European	-11.5516
▁HOT	-11.5516
▁Think	-11.5519
▁shoot	-11.552
▁ASAP	-11.5522
light	-11.5524
▁mission	-11.5527
work	-11.553
And	-11.5534
▁paste	-11.5538
▁cashiers	-11.5539
▁facing	-11.5542
▁Perfectly	-11.5548
ons	-11.555
▁baklava	-11.5556
▁dumb	-11.5561
▁seemingly	-11.5563
▁Ken	-11.5563
▁hike	-11.5566
▁loudly	-11.558
▁lacks	-11.5582
▁freshest	-11.5583
▁Clearly	-11.5589
Be	-11.559
▁breadsticks	-11.5591
By	-11.5591
▁plumbing	-11.5595
▁significantly	-11.5598
che	-11.5602
▁humor	-11.5604
▁traveled	-11.5612
▁Burrito	-11.5613
▁thankfully	-11.562
▁resist	-11.5621
▁2014	-11.5622
▁exercise	-11.5626
▁slide	-11.5628
▁Francisco	-11.563
▁Pepper	-11.563
▁bride	-11.5632
au	-11.5635
▁storm	-11.5642
▁snapper	-11.5643
▁verde	-11.5643
▁dumpling	-11.5647
▁debit	-11.5656
Today	-11.5657
▁purchases	-11.5664
▁Roast	-11.5665
▁Sausage	-11.5665
▁trick	-11.5667
▁Johnny	-11.5671
nice	-11.5673
▁remaining	-11.5677
▁mill	-11.5681
▁county	-11.5684
sp	-11.5685
▁lunches	-11.5688
▁District	-11.569
ul	-11.5693
worker	-11.5696
▁desperate	-11.5696
▁skilled	-11.5716
▁Cat	-11.5717
▁mary	-11.5719
▁Turns	-11.5721
▁spotless	-11.5724
▁gf	-11.5726
▁unsure	-11.573
▁Springs	-11.5733
▁hookah	-11.5734
again	-11.5736
▁Acme	-11.5738
▁triple	-11.5738
▁pistachio	-11.5745
▁4-5	-11.5748
▁Pet	-11.575
.5	-11.575
▁yell	-11.5754
▁lawn	-11.5755
▁cucumbers	-11.5758
right	-11.5762
▁Tso	-11.5765
▁Fair	-11.5765
▁torn	-11.5768
▁flip	-11.5768
▁soo	-11.5771
▁GM	-11.5772
▁loan	-11.5773
▁supposedly	-11.5774
ize	-11.5775
▁fills	-11.5775
▁Subway	-11.5777
▁displayed	-11.5786
▁reviewing	-11.5789
▁skewers	-11.5796
▁doughy	-11.5799
▁Am	-11.5799
▁extraordinary	-11.5799
▁covering	-11.5801
key	-11.5802
▁Fire	-11.5803
▁born	-11.5804
▁exist	-11.5805
▁stack	-11.5809
▁drag	-11.5809
▁wasabi	-11.5811
▁February	-11.5814
ti	-11.5816
▁EVERY	-11.5822
▁exquisite	-11.5823
▁cow	-11.583
▁grape	-11.5832
ver	-11.5833
▁marks	-11.5837
▁fruity	-11.5838
00	-11.5839
▁Corn	-11.5839
▁reported	-11.5845
▁Wouldn	-11.5846
▁efficiently	-11.5846
▁Neither	-11.5848
▁Buy	-11.5849
▁Orange	-11.5852
▁themed	-11.5855
▁bi	-11.5859
▁delivering	-11.5859
▁Unlike	-11.586
▁collard	-11.5864
▁calzone	-11.5864
▁(3	-11.5879
▁que	-11.5879
▁camp	-11.5881
▁Josh	-11.5881
▁Told	-11.5885
▁voicemail	-11.5886
▁questioned	-11.5887
▁Cheers	-11.5891
▁customize	-11.5892
sweet	-11.5898
love	-11.5898
▁babies	-11.5901
▁Calamari	-11.5902
▁covers	-11.5904
▁pleasing	-11.5905
▁Classic	-11.5908
▁Fitness	-11.591
He	-11.5917
▁lets	-11.5923
▁talent	-11.5927
▁unbelievably	-11.5927
▁ma	-11.5928
▁carried	-11.5932
▁crackers	-11.5932
▁wiped	-11.5932
use	-11.5934
▁randomly	-11.5939
▁McDonalds	-11.5941
▁Hospital	-11.5941
▁naturally	-11.5945
▁justify	-11.5949
▁bored	-11.5949
▁coffees	-11.5953
▁effect	-11.5953
▁pastas	-11.5954
▁1/4	-11.5955
▁occasional	-11.5955
▁BIG	-11.5956
▁hood	-11.5957
▁filter	-11.5958
▁Oyster	-11.5958
▁replacing	-11.5958
▁batch	-11.5959
▁Bakery	-11.5964
▁mass	-11.5964
▁Going	-11.5966
ft	-11.597
▁highway	-11.5971
▁Cash	-11.5973
▁directions	-11.5973
▁repeated	-11.5974
except	-11.5975
ence	-11.5976
▁friendliest	-11.5976
▁confidence	-11.5981
▁complicated	-11.5982
▁Year	-11.5982
▁Cheesesteak	-11.5983
▁quit	-11.5989
Overall	-11.5997
chi	-11.5999
▁Due	-11.6
▁ears	-11.6001
▁vacuum	-11.6004
▁increase	-11.6007
50	-11.6008
▁mobile	-11.6017
▁tends	-11.6017
ped	-11.6021
▁dash	-11.6026
▁Mc	-11.6038
▁removal	-11.6039
▁visible	-11.6039
▁confusion	-11.6039
check	-11.6041
▁Kelly	-11.6047
▁proximity	-11.6048
▁dime	-11.6049
▁deliciously	-11.605
▁comforting	-11.6051
▁Bi	-11.6056
▁baristas	-11.606
▁staring	-11.606
▁discounted	-11.6061
▁motel	-11.6064
▁Jazz	-11.6064
▁trusted	-11.6065
ator	-11.6069
▁Served	-11.6072
▁Waiter	-11.6078
▁SUPER	-11.608
hr	-11.6081
▁stretch	-11.6086
▁chosen	-11.6087
▁Creole	-11.6089
▁Instagram	-11.6093
▁adjust	-11.6096
▁candles	-11.6098
▁wound	-11.6098
▁brain	-11.61
ew	-11.6101
▁Filet	-11.6103
▁quinoa	-11.6107
▁discussed	-11.6108
▁witnessed	-11.6113
▁friendliness	-11.6117
▁sundae	-11.6117
Decent	-11.6119
▁allergic	-11.612
notch	-11.6121
restaurant	-11.6129
▁exposed	-11.613
▁clock	-11.6131
▁Lisa	-11.6133
▁napkin	-11.6136
▁Manhattan	-11.6138
▁cigarette	-11.614
▁Skip	-11.614
▁gentlemen	-11.6143
▁consultation	-11.6143
lly	-11.6146
▁sofa	-11.6147
▁depth	-11.6151
ini	-11.6155
▁fudge	-11.6157
▁woke	-11.6158
▁Justin	-11.616
▁automatically	-11.6161
▁engagement	-11.6161
▁inquired	-11.6164
▁ghost	-11.6166
▁spoken	-11.6166
▁Rolls	-11.6168
▁wake	-11.6169
▁Dunkin	-11.6172
ueen	-11.6175
▁oriented	-11.6176
▁arrangements	-11.6182
▁encounter	-11.6185
▁execution	-11.6188
▁Show	-11.6189
▁perform	-11.6191
▁browse	-11.6191
▁lunchtime	-11.6199
▁canal	-11.62
gi	-11.621
▁Simply	-11.6213
▁riding	-11.6214
▁lattes	-11.6214
spicy	-11.6215
▁brief	-11.6217
▁hated	-11.6218
▁medication	-11.6218
▁force	-11.6219
▁Del	-11.6223
▁boots	-11.6224
▁thousands	-11.6227
▁headache	-11.6228
▁fond	-11.6228
▁Mass	-11.6239
▁Trader	-11.6241
▁Ybor	-11.6243
▁separately	-11.6246
Co	-11.6248
▁Employees	-11.6248
▁fortunate	-11.625
▁anticipated	-11.6252
▁expectation	-11.6255
▁bold	-11.626
▁Enjoyed	-11.626
▁WE	-11.626
▁profile	-11.6265
.50	-11.6273
▁poutine	-11.6276
▁Third	-11.6276
▁peanuts	-11.6277
▁crusted	-11.6279
▁reheated	-11.6282
▁Pop	-11.6284
▁denied	-11.6285
▁playground	-11.6285
▁arms	-11.6289
▁radio	-11.629
▁Until	-11.6292
▁peace	-11.6294
▁lump	-11.6294
▁caesar	-11.6294
▁sits	-11.6299
▁Mine	-11.6299
▁beforehand	-11.6304
▁Noodles	-11.6305
▁updates	-11.6306
ach	-11.632
▁film	-11.632
▁croissants	-11.6323
▁resident	-11.6327
▁brakes	-11.6328
▁hilarious	-11.6336
▁availability	-11.6336
▁Buffet	-11.6337
▁delayed	-11.6338
▁Given	-11.6342
▁breaks	-11.6343
▁celery	-11.6345
▁Michelle	-11.6348
▁moments	-11.6351
▁stools	-11.6351
▁purple	-11.6352
▁jumped	-11.6358
▁carts	-11.636
ps	-11.6362
▁Jackson	-11.6364
▁bench	-11.6365
▁piled	-11.6365
▁Mahi	-11.6367
▁beats	-11.6367
▁MUCH	-11.6368
▁dripping	-11.6368
▁dr	-11.6368
ning	-11.6369
▁2018	-11.6369
▁advertising	-11.6373
▁Pre	-11.6374
▁exotic	-11.6375
ward	-11.6378
▁solely	-11.6379
▁finest	-11.6379
▁stole	-11.6381
▁Salt	-11.6385
▁sleeping	-11.6392
ata	-11.6396
▁Se	-11.6399
▁berry	-11.6403
▁port	-11.6405
ol	-11.6405
▁Stone	-11.6406
▁speedy	-11.6408
▁WiFi	-11.641
ray	-11.6411
▁overdone	-11.6418
▁Double	-11.6423
special	-11.6427
▁spirits	-11.6427
▁sorbet	-11.6429
▁reaction	-11.6434
▁largest	-11.6435
▁seek	-11.6437
▁bat	-11.644
▁burning	-11.6441
▁luxury	-11.6446
▁pinch	-11.6447
▁sticking	-11.6449
▁Country	-11.6449
▁foam	-11.645
Fun	-11.6451
something	-11.6452
▁cons	-11.6456
▁capacity	-11.6457
izing	-11.6459
▁apply	-11.6462
▁dangerous	-11.6465
ino	-11.6468
home	-11.6469
ron	-11.647
▁gras	-11.647
▁Ko	-11.6475
▁Key	-11.6476
ise	-11.6476
ris	-11.6478
▁Holy	-11.6486
▁$45	-11.6488
▁irritated	-11.649
ji	-11.6493
▁Wawa	-11.6499
▁sections	-11.651
▁appliances	-11.6514
▁Swiss	-11.6519
▁equal	-11.6521
jo	-11.6523
▁horrendous	-11.6523
▁tower	-11.6523
▁max	-11.6524
▁$150	-11.6526
▁norm	-11.6526
meat	-11.653
▁relief	-11.6532
▁spilled	-11.6534
▁Sparks	-11.6538
▁stuffing	-11.6543
▁string	-11.6546
▁Ra	-11.6546
▁grain	-11.6548
▁falls	-11.6552
▁holds	-11.6555
▁jacket	-11.6566
▁Tomato	-11.6566
▁catered	-11.6572
its	-11.6573
▁Brew	-11.658
▁matched	-11.6581
▁structure	-11.6584
around	-11.6585
▁roughly	-11.6589
mer	-11.6591
▁deserved	-11.6592
▁dietary	-11.6594
15	-11.6594
▁prevent	-11.6595
▁Tap	-11.6596
▁Da	-11.6596
▁melts	-11.6604
▁su	-11.6607
▁injury	-11.6608
▁buzz	-11.6608
▁uber	-11.6609
▁rides	-11.6618
▁baseball	-11.6623
▁closet	-11.6633
wa	-11.6638
▁overlooking	-11.6639
▁birds	-11.6642
gy	-11.6644
▁Hut	-11.6645
▁tissue	-11.6646
▁indoors	-11.665
▁apparent	-11.6653
▁Banana	-11.6655
▁finance	-11.666
▁YES	-11.666
ja	-11.6663
▁WITH	-11.6665
▁shorter	-11.6669
▁DC	-11.6671
▁Beans	-11.6675
ko	-11.6675
▁$500	-11.6676
▁cardboard	-11.6677
▁remain	-11.6677
▁national	-11.6677
▁aisle	-11.6681
▁assigned	-11.6685
▁relationship	-11.6686
..."	-11.6689
▁sons	-11.669
▁associates	-11.669
▁brulee	-11.6693
▁Seating	-11.6695
▁operated	-11.6698
▁target	-11.6704
▁skill	-11.6706
Where	-11.6714
▁salesperson	-11.6719
▁Hi	-11.6724
▁locker	-11.6728
ism	-11.6728
▁gyros	-11.6731
▁4-	-11.6732
▁martinis	-11.6735
▁chilled	-11.6747
▁signing	-11.6747
▁2013	-11.6754
▁GET	-11.6754
▁polenta	-11.6756
▁deserts	-11.6757
▁butcher	-11.6757
▁signage	-11.6764
▁painless	-11.6765
▁pa	-11.6767
▁Pot	-11.6769
▁Magazine	-11.6771
▁2017	-11.6772
▁amounts	-11.6776
▁sauteed	-11.6777
▁Mama	-11.6778
▁drenched	-11.6781
▁Def	-11.6786
▁drawn	-11.6786
▁Later	-11.6788
▁honesty	-11.6789
▁drizzled	-11.6789
▁Amy	-11.679
▁Per	-11.6792
▁inattentive	-11.6793
▁posting	-11.6793
▁turtle	-11.6798
▁3-	-11.6801
▁Style	-11.6803
▁notified	-11.6805
box	-11.6808
▁Sarah	-11.6813
▁exploring	-11.6815
▁speaks	-11.6823
▁lame	-11.6824
▁indicated	-11.6824
▁yo	-11.6824
▁adjacent	-11.6828
▁Silver	-11.6832
gan	-11.6832
▁lanes	-11.6837
▁application	-11.6844
▁attempts	-11.6845
sta	-11.6846
▁elderly	-11.6849
small	-11.6853
▁struggle	-11.6854
delicious	-11.6855
▁treating	-11.6859
▁refried	-11.6865
▁leaking	-11.6866
▁opens	-11.6871
ERO	-11.6871
▁Jessica	-11.6872
▁transfer	-11.6873
▁tears	-11.6874
▁Na	-11.6875
▁planet	-11.6876
▁fig	-11.6884
▁aisles	-11.6886
▁Beyond	-11.6887
▁shawarma	-11.6888
▁fourth	-11.6894
▁buffets	-11.6894
▁tricky	-11.6896
▁remodel	-11.6898
▁groomer	-11.6908
Getting	-11.6916
▁apologies	-11.6917
▁unassuming	-11.6917
▁fritters	-11.6923
▁pathetic	-11.6927
▁drawback	-11.6932
▁professionally	-11.6936
▁ka	-11.6943
▁peel	-11.6944
▁Jo	-11.6945
▁medicine	-11.6947
▁brioche	-11.6952
▁curbside	-11.6952
▁$70	-11.6957
▁bistro	-11.6964
▁crabs	-11.6966
▁warmly	-11.6966
▁skimpy	-11.697
▁arranged	-11.6972
▁NOTHING	-11.6973
▁Shame	-11.6975
▁handmade	-11.6976
▁cod	-11.6976
▁hide	-11.6977
▁commercial	-11.6977
▁jumbo	-11.6984
▁Rude	-11.6984
▁scoops	-11.6986
▁sweeter	-11.6988
▁Roasted	-11.6994
▁staples	-11.6995
▁boil	-11.6997
Found	-11.6998
▁remained	-11.7001
▁splurge	-11.7001
cho	-11.7002
▁Golden	-11.7006
▁scramble	-11.7006
▁cable	-11.7007
▁queen	-11.7009
▁2015	-11.7011
▁overbearing	-11.7016
▁chipped	-11.7016
▁tie	-11.7016
▁silver	-11.7023
▁category	-11.7026
have	-11.703
▁dare	-11.703
▁appropriately	-11.7031
▁Left	-11.7034
▁Fat	-11.7034
▁concrete	-11.7036
▁mornings	-11.7036
▁Gyro	-11.7038
▁hesitation	-11.7041
▁institution	-11.7041
▁steer	-11.7042
▁hockey	-11.7051
▁dislike	-11.7052
ow	-11.7053
▁crown	-11.7059
▁historical	-11.7062
▁Mushroom	-11.7073
▁trails	-11.7074
▁demand	-11.7077
▁solo	-11.7079
▁coating	-11.708
▁Palace	-11.708
▁pros	-11.7081
▁tamale	-11.7082
take	-11.7083
▁DON	-11.7085
▁renovation	-11.7088
Last	-11.7088
▁Coming	-11.7089
ES	-11.7095
▁attitudes	-11.7096
▁remains	-11.7099
Update	-11.71
▁trailer	-11.71
▁crusty	-11.7102
probably	-11.7103
▁rang	-11.7103
▁Waffle	-11.7104
▁procedures	-11.7104
▁sprinkled	-11.711
▁TIME	-11.7111
▁fryer	-11.7112
ella	-11.7112
Honestly	-11.7113
NO	-11.7113
der	-11.7122
▁glance	-11.7122
▁Cheap	-11.7125
▁hostesses	-11.7127
▁Guy	-11.7127
▁basics	-11.7135
▁ranging	-11.7135
▁active	-11.7136
▁$80	-11.714
...)	-11.7141
▁homeless	-11.7143
Yum	-11.7144
▁combos	-11.7148
▁expired	-11.7149
▁mug	-11.7156
▁adore	-11.7158
▁Ya	-11.7158
▁Might	-11.7159
▁whiz	-11.7161
quality	-11.7162
▁ur	-11.7163
▁task	-11.7163
▁Brussel	-11.7164
▁BTW	-11.7164
▁Salsa	-11.7167
▁guaranteed	-11.7168
med	-11.7168
▁crying	-11.7175
▁elevators	-11.7185
▁killed	-11.7185
▁herb	-11.7187
▁mojito	-11.7188
▁updating	-11.7191
▁sparkling	-11.7191
.......	-11.7193
Cool	-11.7197
still	-11.72
▁4:30	-11.7201
▁feast	-11.7206
▁Katie	-11.721
▁hospitable	-11.7211
▁Harbor	-11.7216
▁depends	-11.7217
▁ta	-11.7217
ical	-11.7222
▁remodeled	-11.7226
▁Ri	-11.7228
ass	-11.7231
ible	-11.7232
▁factory	-11.7233
▁slower	-11.7238
▁filed	-11.7244
▁alterations	-11.7245
▁wave	-11.7245
▁powdered	-11.7246
▁formal	-11.7248
▁Birthday	-11.7248
▁Rick	-11.7252
▁m	-11.7254
▁countless	-11.7258
▁mountain	-11.7258
▁Expect	-11.7266
▁Nutella	-11.7267
▁cast	-11.7268
lu	-11.7274
▁dreams	-11.7276
▁accordingly	-11.7276
ap	-11.7277
CELLENT	-11.7282
▁bulk	-11.7284
▁intense	-11.7285
▁expressed	-11.729
wow	-11.7296
▁matcha	-11.7296
ities	-11.7301
▁lifetime	-11.7306
▁Nachos	-11.7309
▁lamp	-11.7311
▁primary	-11.7313
▁leading	-11.7315
▁frites	-11.7318
qui	-11.7321
ard	-11.7321
▁PLEASE	-11.7323
▁Diego	-11.7323
▁bachelorette	-11.7324
dinner	-11.7326
▁baguette	-11.7326
▁source	-11.7333
▁Strawberry	-11.7335
▁thousand	-11.7342
▁Amazon	-11.7343
▁Wi	-11.7345
▁web	-11.7347
40	-11.7347
▁versus	-11.7348
▁drizzle	-11.7349
▁Milk	-11.7351
▁HAD	-11.7354
▁acting	-11.7354
▁Pass	-11.7356
▁maker	-11.7361
▁cravings	-11.7361
From	-11.7362
▁partial	-11.7364
yum	-11.7365
▁AWAY	-11.7365
▁Nevada	-11.7369
▁charbroiled	-11.7369
▁2-	-11.7374
▁RV	-11.7374
▁2019	-11.7379
▁praise	-11.7379
▁mo	-11.7381
▁casserole	-11.7384
▁smelling	-11.7386
▁colleagues	-11.7388
▁rescue	-11.739
▁Tons	-11.7395
▁evenings	-11.7396
ado	-11.7396
now	-11.7398
▁btw	-11.7398
▁classics	-11.7401
▁sausages	-11.7402
▁BS	-11.7403
▁teacher	-11.7407
port	-11.7411
▁Tri	-11.7411
▁Charlie	-11.7413
▁Years	-11.7414
▁Front	-11.7414
▁Halloween	-11.7415
▁condo	-11.7416
ious	-11.7417
▁connoisseur	-11.742
lan	-11.7421
▁tape	-11.7422
▁fabric	-11.7425
▁overlooked	-11.7426
▁stressed	-11.7427
▁coated	-11.7431
▁fuss	-11.7433
fil	-11.7435
▁worries	-11.7436
▁cranberry	-11.7437
▁Rob	-11.744
▁expertise	-11.7446
▁gator	-11.7456
▁Ed	-11.7456
aka	-11.746
ue	-11.7462
▁cobbler	-11.7462
▁title	-11.7462
▁Ranch	-11.7462
▁boarding	-11.7462
▁insult	-11.7474
▁wi	-11.7475
▁Pa	-11.7475
▁microwaved	-11.7476
hour	-11.7479
▁sweets	-11.7482
▁Ms	-11.7485
▁primarily	-11.7488
▁snap	-11.749
▁cry	-11.7498
▁supermarket	-11.75
▁$$	-11.7501
▁spit	-11.7501
▁catching	-11.7508
▁lake	-11.7512
ny	-11.7512
▁Baked	-11.7517
▁hosts	-11.7519
▁tartare	-11.7523
▁suddenly	-11.7526
▁AYCE	-11.7529
▁backyard	-11.7534
▁Cali	-11.7535
▁albeit	-11.754
▁quicker	-11.7544
▁Angeles	-11.7546
▁mechanics	-11.7547
▁slip	-11.7547
their	-11.7549
nothing	-11.755
▁journey	-11.7555
▁units	-11.7556
why	-11.756
▁chunk	-11.7564
▁Eye	-11.7564
▁stroll	-11.7565
▁electric	-11.7566
▁engaged	-11.7572
▁expand	-11.7573
▁laser	-11.7573
▁UPS	-11.7577
▁carrying	-11.7578
▁teachers	-11.7578
▁Latin	-11.7578
▁contained	-11.7579
▁reference	-11.758
▁material	-11.7583
▁guilty	-11.7583
▁beside	-11.7586
bb	-11.759
▁decades	-11.7593
▁200	-11.7594
ite	-11.7595
▁Veggie	-11.7601
are	-11.7602
rate	-11.7602
▁Andrew	-11.7606
▁Smoked	-11.7607
▁vendor	-11.7609
▁sessions	-11.761
▁differently	-11.7611
▁ounce	-11.7613
▁searched	-11.7616
▁23	-11.7621
▁tune	-11.7622
▁severe	-11.7628
▁v	-11.7633
ial	-11.7637
▁le	-11.7638
▁tempted	-11.764
▁upside	-11.7641
▁Gold	-11.7641
bu	-11.7642
▁cancellation	-11.7645
▁trend	-11.7648
▁pairs	-11.765
▁lousy	-11.765
▁leaf	-11.765
▁Authentic	-11.7651
▁OUT	-11.7654
60	-11.7655
▁BF	-11.7658
▁haircuts	-11.766
▁shy	-11.766
▁upfront	-11.7664
RE	-11.7666
▁experiencing	-11.7666
▁Belgian	-11.7667
▁requires	-11.7668
▁pea	-11.7668
table	-11.7672
tro	-11.7682
▁earn	-11.7682
▁dozens	-11.7683
▁overrated	-11.7684
▁greek	-11.7687
▁renting	-11.7688
▁designer	-11.7689
▁idiot	-11.769
hole	-11.7691
▁trivia	-11.7691
▁cu	-11.7693
▁hr	-11.7693
▁popping	-11.7694
▁Crawfish	-11.77
▁hearts	-11.77
▁creepy	-11.77
▁Considering	-11.7702
▁touches	-11.7704
▁antique	-11.7705
▁jalapenos	-11.7709
▁TN	-11.7712
▁progress	-11.7712
▁ugly	-11.7714
▁aroma	-11.7714
▁REAL	-11.7716
▁regards	-11.7717
▁privacy	-11.7719
▁paneer	-11.7725
▁player	-11.7727
▁owe	-11.7727
▁rounds	-11.7729
▁vermicelli	-11.7731
▁rosemary	-11.7735
▁professionals	-11.7736
nce	-11.7737
▁JUST	-11.7737
▁purse	-11.7738
)...	-11.7743
That	-11.7746
▁Reasonable	-11.7749
ria	-11.7753
▁Pulled	-11.7756
▁berries	-11.7764
Probably	-11.7767
wall	-11.777
▁Outside	-11.777
Pizza	-11.7783
▁CVS	-11.7783
think	-11.7785
▁j	-11.7786
▁secure	-11.7786
▁India	-11.7787
▁admitted	-11.7793
▁DE	-11.7794
.75	-11.78
▁displays	-11.7804
▁Doesn	-11.7807
▁Eastern	-11.7807
▁conditioner	-11.7809
/20	-11.781
▁thanked	-11.7812
▁Denny	-11.7815
▁cent	-11.7817
▁Gave	-11.7818
▁Li	-11.782
▁inquire	-11.7822
▁effective	-11.7825
▁eateries	-11.7828
▁stickers	-11.7831
▁Tex	-11.7838
▁diamond	-11.784
▁cuticles	-11.7841
▁drip	-11.7842
▁limp	-11.7842
ns	-11.7845
▁Point	-11.7845
▁winning	-11.7848
▁gesture	-11.7853
▁Anyone	-11.7853
▁sweetest	-11.7854
▁plays	-11.786
▁Dad	-11.7864
▁substantial	-11.7868
gg	-11.787
pre	-11.7871
▁fillings	-11.7872
▁trays	-11.7876
den	-11.7878
▁prove	-11.7878
▁Makes	-11.788
▁childhood	-11.788
▁STILL	-11.7881
▁infection	-11.7882
▁lab	-11.7883
);	-11.7883
▁Noodle	-11.7884
▁horribly	-11.7885
stone	-11.7888
▁seeking	-11.789
▁eel	-11.789
▁thrift	-11.7891
▁nurses	-11.7892
▁visitor	-11.7894
▁consideration	-11.7894
.25	-11.7895
▁legal	-11.7899
▁Plaza	-11.7901
▁someplace	-11.7908
▁complementary	-11.7912
Although	-11.7912
▁bao	-11.7915
▁overheard	-11.7916
▁nine	-11.7917
▁5-10	-11.792
▁pier	-11.7921
▁crumbs	-11.7926
▁niece	-11.7933
read	-11.7937
▁skinny	-11.7937
green	-11.7946
▁TWO	-11.7947
▁severely	-11.7947
▁whip	-11.7948
▁tremendous	-11.7953
▁Fe	-11.7955
▁hence	-11.7956
ung	-11.7956
lit	-11.7957
▁Adam	-11.7958
▁Men	-11.7962
▁Barrel	-11.7963
▁fur	-11.7963
▁Idaho	-11.7967
▁Station	-11.7971
▁Nobody	-11.7974
▁pounds	-11.7979
▁Ugh	-11.7983
▁requesting	-11.7984
▁loop	-11.799
▁STAY	-11.7995
▁croutons	-11.7996
▁indulge	-11.7996
▁Close	-11.7998
OR	-11.8003
ara	-11.8004
"...	-11.8006
▁map	-11.8008
▁guided	-11.801
▁Lovely	-11.8012
▁assisted	-11.8013
▁farmers	-11.8016
▁flan	-11.8018
▁google	-11.802
brunch	-11.8022
▁Sierra	-11.8023
▁Lu	-11.8023
▁gigantic	-11.8027
lunch	-11.8028
▁dill	-11.8029
▁Las	-11.803
▁stained	-11.8036
▁Bonus	-11.8038
▁scan	-11.8046
meh	-11.8048
▁renovations	-11.8048
▁garnish	-11.8049
▁taught	-11.8054
▁remarkable	-11.8054
▁towed	-11.8058
▁shine	-11.8061
▁scenery	-11.8066
▁Shack	-11.8067
▁Middle	-11.8068
cu	-11.8069
away	-11.8076
▁Gulf	-11.8076
▁perspective	-11.8087
St	-11.809
▁decisions	-11.8092
Only	-11.8093
▁boards	-11.8096
▁2020	-11.8098
▁Cup	-11.8098
▁tear	-11.8101
?!?!	-11.8105
▁stolen	-11.8106
▁suits	-11.8108
▁war	-11.8115
▁conditions	-11.8119
lb	-11.8119
▁Eventually	-11.812
▁Rachel	-11.8124
▁textures	-11.8124
▁Petersburg	-11.8126
▁nerve	-11.8127
▁passes	-11.813
▁Solid	-11.8135
▁reflect	-11.8139
▁Business	-11.814
looking	-11.8142
▁encouraged	-11.8147
▁measure	-11.8147
▁busier	-11.8149
▁addicted	-11.815
▁downright	-11.8152
▁Tuesdays	-11.8153
owned	-11.8157
▁Grits	-11.816
▁closes	-11.816
▁Plan	-11.8162
▁connect	-11.8164
yo	-11.8165
ab	-11.8166
▁acts	-11.8181
ure	-11.8181
▁micro	-11.8182
▁attack	-11.8183
▁Ray	-11.8183
Ate	-11.8184
▁Margaritas	-11.8185
▁diagnosed	-11.8187
▁sites	-11.8188
▁fooled	-11.8196
thank	-11.8197
▁vibrant	-11.8198
▁float	-11.8199
▁retro	-11.8199
Since	-11.82
▁chalk	-11.8201
▁1:30	-11.8203
▁aunt	-11.8215
▁cardio	-11.8215
▁spirit	-11.8216
▁contrast	-11.8216
▁pale	-11.823
▁gathering	-11.8231
CH	-11.8234
▁bulgogi	-11.8237
▁dang	-11.824
most	-11.824
▁walnut	-11.8245
▁Su	-11.8247
▁meets	-11.8249
▁dissatisfied	-11.8249
▁brie	-11.8249
Two	-11.825
EN	-11.8251
▁creativity	-11.8254
▁piercing	-11.8256
▁ashamed	-11.826
▁avoided	-11.8261
▁Ripple	-11.8265
▁Fox	-11.8269
▁anxiety	-11.8271
▁transferred	-11.8271
Small	-11.8273
▁wondered	-11.8277
real	-11.8279
▁scallion	-11.8282
▁hangover	-11.8284
▁trek	-11.8288
▁Jose	-11.8288
▁epic	-11.8288
eg	-11.829
▁Bank	-11.8293
▁clueless	-11.8296
ile	-11.8297
▁architecture	-11.8299
▁Chi	-11.8302
▁expanded	-11.8304
▁touching	-11.8306
▁imagined	-11.8309
▁Felt	-11.831
ST	-11.8312
run	-11.8328
▁granola	-11.8333
▁independent	-11.8341
▁bra	-11.8341
▁ultimate	-11.8344
ff	-11.8347
WOW	-11.8348
▁Ron	-11.8352
▁penne	-11.8354
▁Tasted	-11.8355
elle	-11.8356
▁lined	-11.8356
▁Coconut	-11.8357
▁brake	-11.8359
35	-11.8361
▁candied	-11.8361
sco	-11.8366
▁(4	-11.8367
▁Life	-11.8369
▁quirky	-11.8373
▁Town	-11.8374
▁accompanying	-11.8379
rays	-11.8381
▁h	-11.8382
▁excessive	-11.8382
▁alive	-11.8384
▁graduation	-11.8384
cent	-11.8389
▁inventive	-11.839
▁rabe	-11.839
amazing	-11.8393
make	-11.8395
▁props	-11.8395
▁iPad	-11.8397
Solid	-11.8397
▁fucking	-11.8399
▁wontons	-11.84
▁Jay	-11.84
rk	-11.8401
▁Box	-11.8409
▁chunky	-11.841
▁WTF	-11.8412
▁teach	-11.8412
▁Ruth	-11.8416
▁tenants	-11.8416
tan	-11.8418
then	-11.8426
Staff	-11.8426
▁smallest	-11.8427
▁Talk	-11.8431
▁iceberg	-11.8431
▁Summer	-11.8433
point	-11.8434
▁tint	-11.8434
▁label	-11.8437
▁Dry	-11.8439
▁carpets	-11.8439
▁4)	-11.8442
▁Avocado	-11.8443
▁ski	-11.8444
▁carries	-11.8445
):	-11.8452
▁Rooms	-11.8452
▁hiring	-11.8453
▁false	-11.8456
▁Bun	-11.8456
▁senior	-11.8458
▁ventured	-11.8458
eh	-11.8459
▁instant	-11.8467
▁wandering	-11.8468
▁needless	-11.8472
▁Grove	-11.8473
▁attempting	-11.8475
▁Social	-11.8478
▁decade	-11.848
▁weekdays	-11.8481
▁Fine	-11.8485
▁eh	-11.8486
▁estimated	-11.8489
▁Carne	-11.8492
▁manicures	-11.8493
▁Metairie	-11.8504
▁paella	-11.8504
▁Goleta	-11.8507
oli	-11.8508
▁goal	-11.8508
seasoned	-11.8511
▁outing	-11.8511
▁struggling	-11.8516
▁plated	-11.852
▁Palm	-11.8522
▁Appetizers	-11.8523
▁lamps	-11.8524
burger	-11.8525
▁Saw	-11.8526
▁dishwasher	-11.8527
▁Poke	-11.8527
▁slot	-11.8528
12	-11.8528
▁materials	-11.8532
▁taxi	-11.8534
▁surf	-11.8535
▁introduce	-11.8541
▁entertained	-11.8541
▁Decided	-11.8543
▁doughnut	-11.855
▁Rich	-11.855
▁parent	-11.8554
▁flawless	-11.8554
▁Hey	-11.8558
▁flavoring	-11.8559
▁award	-11.8559
▁feelings	-11.8567
▁seasonings	-11.8568
▁fajita	-11.8568
▁precautions	-11.8568
▁Walk	-11.857
▁downfall	-11.8572
▁$22	-11.8574
two	-11.8583
ip	-11.8585
▁therapy	-11.8585
rn	-11.8588
▁Completely	-11.8593
▁connection	-11.8597
▁cones	-11.8601
▁moon	-11.8601
▁shoulders	-11.8603
▁physically	-11.8606
vegan	-11.8607
▁floating	-11.8607
▁Chester	-11.8608
▁fondue	-11.8608
▁$2.50	-11.8614
▁outlet	-11.8616
▁2012	-11.8616
▁Saturdays	-11.8616
Meh	-11.8617
▁Brie	-11.8619
▁criticism	-11.862
▁!!!!	-11.862
▁smiled	-11.8623
▁compete	-11.8627
▁generously	-11.8634
▁Robin	-11.8637
▁becomes	-11.8638
▁MO	-11.8638
▁Brooklyn	-11.8639
▁Miss	-11.8639
▁taps	-11.8641
▁reminiscent	-11.8643
▁demeanor	-11.8649
ong	-11.8651
▁Wood	-11.8653
▁Nail	-11.8654
▁tartar	-11.8657
▁labeled	-11.866
▁concoction	-11.8661
▁liver	-11.8662
long	-11.8666
▁bleu	-11.8666
▁$75	-11.8667
▁crushed	-11.8668
since	-11.867
▁brush	-11.8672
okay	-11.8672
▁arguing	-11.8672
▁alarm	-11.8673
▁eyebrow	-11.8675
▁Lake	-11.8676
▁husbands	-11.8683
-1	-11.8683
▁individuals	-11.8684
▁aesthetic	-11.8684
▁Door	-11.8685
▁mat	-11.8688
Fi	-11.8691
▁Fridays	-11.8692
▁sticker	-11.8693
▁Amanda	-11.8693
▁cuban	-11.8693
▁DID	-11.8695
▁incorrectly	-11.8695
▁shopped	-11.8696
▁energetic	-11.8696
▁existed	-11.8696
▁recognized	-11.8698
▁flash	-11.8699
▁Monde	-11.8709
▁fuel	-11.8711
▁splitting	-11.8711
▁ST	-11.8713
▁bear	-11.8714
▁RE	-11.8715
▁swim	-11.8719
▁tests	-11.872
bread	-11.872
▁Week	-11.8724
Like	-11.8725
▁Tour	-11.8728
fe	-11.8729
▁Along	-11.8731
▁spiciness	-11.8743
▁guitar	-11.8744
ren	-11.8744
▁Hand	-11.8744
never	-11.8746
▁videos	-11.8748
▁yelpers	-11.875
▁separated	-11.8751
eye	-11.8753
▁consists	-11.8753
▁rubber	-11.8754
▁properties	-11.8755
▁justice	-11.8755
▁instance	-11.8756
▁Taylor	-11.8757
▁fighting	-11.8758
▁CC	-11.8759
▁chocolates	-11.8764
▁diced	-11.8764
▁IF	-11.8765
▁Yesterday	-11.8767
▁National	-11.8769
▁United	-11.8772
▁Cochon	-11.8775
▁complement	-11.8775
▁Virginia	-11.878
▁sugary	-11.8782
▁runner	-11.8783
75	-11.8789
▁drug	-11.8789
▁Bella	-11.879
▁international	-11.8791
▁meds	-11.8795
▁pimento	-11.8796
▁Caribbean	-11.8804
▁Canal	-11.8808
▁stiff	-11.8808
▁patronize	-11.8811
tter	-11.8811
tz	-11.8812
▁manger	-11.8814
▁compassionate	-11.8815
25	-11.8819
▁lies	-11.8821
▁hometown	-11.8821
▁Moving	-11.8823
▁500	-11.8824
▁salami	-11.8826
▁UPDATE	-11.883
▁Cal	-11.883
▁Jamaican	-11.8832
▁Ruby	-11.8833
▁anxious	-11.8835
Ba	-11.8842
▁FANTASTIC	-11.8846
▁regard	-11.8847
through	-11.8849
▁Speaking	-11.885
▁pizzeria	-11.8855
▁Does	-11.8858
▁speaker	-11.8859
done	-11.886
▁Phil	-11.8862
▁alike	-11.8863
▁sunday	-11.8864
▁Char	-11.8865
At	-11.8865
▁questionable	-11.8865
▁ol	-11.8866
▁Others	-11.8871
▁bento	-11.8873
▁Ethiopian	-11.8874
▁Angel	-11.8877
▁AFTER	-11.8879
▁Miami	-11.8879
▁useless	-11.888
▁mentioning	-11.8882
▁genius	-11.8888
▁plumber	-11.8888
▁Maria	-11.8889
▁determined	-11.8889
▁horchata	-11.8891
▁texted	-11.8893
▁Ga	-11.8897
▁interact	-11.8899
▁quotes	-11.8902
▁integrity	-11.8903
▁verify	-11.8906
▁Dirty	-11.8907
▁pours	-11.891
▁tattoos	-11.8912
▁designs	-11.8913
▁BACK	-11.8916
▁stuffy	-11.8918
▁Down	-11.8922
▁curds	-11.8922
▁fortune	-11.8925
▁Vet	-11.8925
SE	-11.8926
▁UP	-11.893
▁showers	-11.8932
did	-11.8941
▁RUDE	-11.8942
▁circumstances	-11.8942
gu	-11.8942
▁quarters	-11.8942
▁greater	-11.8943
▁sriracha	-11.8945
▁strength	-11.8945
▁attraction	-11.8949
wait	-11.8949
▁link	-11.895
▁aquarium	-11.8957
▁packing	-11.8963
▁Mongolian	-11.8963
▁cubes	-11.8965
▁Dim	-11.8966
Outstanding	-11.8968
▁hefty	-11.8969
▁alignment	-11.8971
▁Remember	-11.8974
▁unhelpful	-11.8975
She	-11.8977
▁Bon	-11.8978
▁horse	-11.898
▁omelets	-11.8982
▁browsing	-11.8982
▁shitty	-11.8982
fast	-11.8984
▁Americanized	-11.8987
▁OH	-11.899
▁Nicole	-11.8992
▁concierge	-11.8994
▁nap	-11.8998
▁Disappointed	-11.8999
Sorry	-11.9004
▁ceremony	-11.9005
▁Jeep	-11.9005
▁FROM	-11.9005
▁Run	-11.9011
▁fallen	-11.9015
▁shall	-11.9015
▁leads	-11.9017
▁cr	-11.9018
other	-11.9019
Hi	-11.9019
▁vary	-11.902
▁weights	-11.9023
▁Ten	-11.9023
▁24/7	-11.9024
▁humble	-11.9024
uff	-11.9024
non	-11.9026
▁Ham	-11.9028
▁Slow	-11.9028
▁assure	-11.9029
▁urgent	-11.903
30	-11.903
▁hubs	-11.9031
▁wandered	-11.9034
▁bothering	-11.9034
▁thinly	-11.9036
▁Northern	-11.9042
▁lessons	-11.9043
▁stove	-11.9044
▁technique	-11.9046
zo	-11.905
▁z	-11.905
▁pretend	-11.9051
▁latter	-11.9054
")	-11.9056
UR	-11.9058
▁sourced	-11.9059
▁Meanwhile	-11.906
▁aspects	-11.9062
▁circle	-11.9064
Man	-11.9065
▁buttermilk	-11.9067
▁scare	-11.9067
▁Grouper	-11.9068
▁churros	-11.9074
▁Farm	-11.9082
Please	-11.9083
▁BAD	-11.9092
▁1/3	-11.9093
▁surface	-11.9095
rri	-11.9096
▁parade	-11.9097
▁provider	-11.91
▁paintings	-11.91
▁vets	-11.9103
Ma	-11.9103
▁stared	-11.9104
▁flooring	-11.9105
▁educated	-11.9109
▁raining	-11.9111
▁profit	-11.9112
▁shack	-11.9114
▁Patrick	-11.9115
▁crabmeat	-11.9117
▁caprese	-11.9121
▁Sangria	-11.9121
▁rainbow	-11.9121
▁Vi	-11.9125
▁drafts	-11.9127
▁tasteful	-11.9128
▁strangers	-11.9129
▁officially	-11.9129
▁sparse	-11.9131
▁Eagle	-11.9131
▁conclusion	-11.9133
▁contemporary	-11.9133
▁urge	-11.9134
▁pipe	-11.914
▁USA	-11.9146
▁unorganized	-11.9146
▁Post	-11.9153
tain	-11.9153
▁blind	-11.9156
▁Pool	-11.9158
▁addictive	-11.9159
stars	-11.916
De	-11.9161
▁dear	-11.9162
▁Jan	-11.9163
ever	-11.9163
▁African	-11.9164
▁carb	-11.9165
▁safely	-11.9172
▁28	-11.9173
▁belongings	-11.9176
▁foie	-11.9177
▁stacked	-11.9177
▁splash	-11.9178
▁hazelnut	-11.9178
▁approved	-11.9179
ged	-11.9179
▁Martin	-11.9179
▁roommate	-11.918
▁Arrived	-11.918
▁dingy	-11.9184
▁meetings	-11.9184
▁Airport	-11.9189
▁Living	-11.9191
▁upcoming	-11.9194
ily	-11.9205
medium	-11.9206
▁cigars	-11.9207
▁Turkish	-11.9208
▁sophisticated	-11.9209
ther	-11.9209
ham	-11.9209
▁luke	-11.9213
▁gallo	-11.9213
▁yrs	-11.9215
▁halibut	-11.9219
▁Miller	-11.9225
▁weeknight	-11.9232
▁overcharged	-11.9233
▁alas	-11.9238
▁(1	-11.9241
site	-11.9243
▁Tree	-11.9243
▁hopping	-11.9244
▁Secondly	-11.9248
serve	-11.9248
▁excitement	-11.925
▁Phoenix	-11.9256
first	-11.9268
▁cereal	-11.9269
▁agreement	-11.9272
American	-11.9272
▁Masala	-11.9275
▁Enterprise	-11.9276
▁trainer	-11.9285
▁holy	-11.9287
▁fifteen	-11.9288
▁Port	-11.9288
▁converted	-11.9289
▁rely	-11.929
▁shave	-11.9293
▁innovative	-11.9294
▁hub	-11.9294
▁virtually	-11.9294
▁Holiday	-11.9295
▁hustle	-11.9297
▁wander	-11.9297
▁grey	-11.9301
▁Review	-11.9306
▁racist	-11.9306
ama	-11.9308
store	-11.9314
▁cha	-11.9317
▁reduced	-11.9319
▁adjusted	-11.9319
▁yr	-11.9319
▁Portion	-11.932
▁critical	-11.9322
▁harsh	-11.9323
▁convince	-11.9328
▁bull	-11.9329
boys	-11.9329
▁venues	-11.9331
▁Office	-11.9338
cream	-11.9341
▁embarrassing	-11.9342
▁Sandwiches	-11.9345
▁Gardens	-11.9347
▁ca	-11.9348
▁12:30	-11.935
▁packs	-11.9351
ag	-11.9352
▁creations	-11.9355
ations	-11.9358
▁permanent	-11.9362
▁Easter	-11.9362
▁increased	-11.9363
▁colleague	-11.9364
mar	-11.9367
▁odor	-11.9375
/18	-11.9376
▁alfredo	-11.9381
▁shank	-11.9381
▁TERRIBLE	-11.9382
▁Cobb	-11.9383
Place	-11.9385
▁Wash	-11.9386
▁Peter	-11.9387
▁Goat	-11.9388
▁straws	-11.9389
▁clubs	-11.939
▁Baby	-11.9392
pro	-11.9405
▁snag	-11.9406
▁cracker	-11.9408
▁Bud	-11.9409
▁pen	-11.941
▁basketball	-11.9413
▁outcome	-11.9413
▁theaters	-11.9413
▁IMO	-11.9416
▁Dunedin	-11.9419
▁nephew	-11.9419
py	-11.9421
▁Dip	-11.9421
▁Lauren	-11.9422
LOVE	-11.9424
▁Pricing	-11.9425
everything	-11.9425
▁mush	-11.9428
▁estate	-11.9432
▁abundance	-11.9434
▁BBB	-11.9443
▁deluxe	-11.9447
▁region	-11.9455
▁drum	-11.9456
▁Seemed	-11.9457
▁Han	-11.9458
▁racks	-11.9458
didn	-11.9461
▁Ahi	-11.9463
▁Ginger	-11.9463
ship	-11.9464
▁Spinach	-11.9465
▁turnover	-11.9466
▁subway	-11.9466
▁26	-11.9466
▁Urban	-11.9466
▁preferences	-11.947
LE	-11.947
▁discussion	-11.9472
▁tropical	-11.9476
▁butternut	-11.9477
▁soccer	-11.9477
▁Union	-11.9483
▁omg	-11.9484
▁blueberries	-11.9489
▁removing	-11.9495
▁Father	-11.9495
▁2:30	-11.9499
▁Paris	-11.9503
▁grapefruit	-11.9508
▁Fi	-11.951
Out	-11.9511
lie	-11.9513
▁Animal	-11.9514
Fresh	-11.9514
▁anti	-11.9515
▁bumper	-11.9515
▁conscious	-11.952
▁PI	-11.9521
▁indian	-11.9523
▁stare	-11.9523
▁Oak	-11.9531
▁broad	-11.9532
▁True	-11.9534
▁lip	-11.9535
5.00	-11.9535
almost	-11.9541
▁Sit	-11.9542
▁Put	-11.9544
▁Pick	-11.9553
▁moderately	-11.9554
ney	-11.9557
▁featuring	-11.9559
grilled	-11.956
▁Entrees	-11.9561
▁roots	-11.9561
▁Mad	-11.9562
▁blanket	-11.9562
▁Mon	-11.9562
ade	-11.9564
▁caf	-11.9566
Maybe	-11.9571
type	-11.9572
▁driveway	-11.9576
▁handy	-11.9577
▁authenticity	-11.9577
80	-11.9577
▁Warm	-11.9578
▁corners	-11.958
▁wilted	-11.9584
!!)	-11.9592
Being	-11.9592
▁Recommended	-11.9592
▁expense	-11.9594
▁jus	-11.9598
▁Interesting	-11.9602
▁beard	-11.9609
▁spotty	-11.9609
▁muscles	-11.9611
▁wherever	-11.9611
▁payments	-11.9613
▁27	-11.9613
▁motor	-11.9616
▁heaters	-11.962
▁bizarre	-11.9623
▁comfortably	-11.9623
▁landed	-11.9626
su	-11.9626
▁argued	-11.9628
▁Outback	-11.963
▁loads	-11.963
▁sever	-11.9635
▁Caf	-11.9639
ding	-11.964
hhh	-11.9641
▁Awful	-11.9642
▁rim	-11.9646
▁occurred	-11.9649
cing	-11.9649
▁Party	-11.965
ran	-11.9655
▁nailed	-11.9656
▁taxes	-11.9659
set	-11.9664
Perfect	-11.9667
▁heating	-11.9671
00.00	-11.9671
▁oddly	-11.9673
▁Mid	-11.9673
▁sport	-11.9675
▁loyalty	-11.9675
▁fro	-11.9676
will	-11.968
▁spicier	-11.9681
high	-11.969
▁$400	-11.9691
▁romaine	-11.9694
▁pat	-11.9694
▁oldest	-11.9698
▁distracted	-11.9702
▁Mt	-11.9703
▁Bartenders	-11.9704
Here	-11.9706
▁BMW	-11.9707
▁Flavor	-11.9707
▁explains	-11.9709
THE	-11.971
▁nacho	-11.9717
▁mu	-11.9717
▁slab	-11.9718
▁Lounge	-11.972
▁skirt	-11.9721
▁Jen	-11.9727
▁stout	-11.9734
▁Cocktails	-11.9734
▁frequented	-11.9738
▁apologizing	-11.9739
▁considerate	-11.9739
▁confit	-11.9739
▁Jambalaya	-11.9741
▁voucher	-11.9746
▁electrical	-11.9752
▁accent	-11.9753
▁cleaners	-11.9756
▁scrub	-11.9758
▁plug	-11.9758
vy	-11.9763
▁$5.	-11.9764
▁2021	-11.9764
Would	-11.9765
ware	-11.9766
Decided	-11.9767
▁realizing	-11.9768
▁fuck	-11.9771
minute	-11.9773
gen	-11.9774
▁promotion	-11.9777
▁Papa	-11.9779
▁stronger	-11.9782
▁descriptions	-11.9782
▁attractions	-11.9788
▁subject	-11.979
▁Mondays	-11.9793
▁Iced	-11.9793
▁stain	-11.9793
▁Andy	-11.9795
▁Blvd	-11.9798
▁1-2	-11.98
▁companions	-11.9807
▁Doctor	-11.9808
▁walnuts	-11.9809
▁Che	-11.9809
▁noticeable	-11.981
▁hurricane	-11.9811
▁Except	-11.9811
▁behold	-11.9811
▁standout	-11.9813
▁filing	-11.9814
▁Spice	-11.9821
▁series	-11.9825
▁Tire	-11.9826
▁bump	-11.9827
▁angel	-11.9827
▁Bern	-11.9831
▁distinct	-11.9834
▁contractor	-11.9835
▁fails	-11.9844
▁Stick	-11.9846
▁Iron	-11.9846
▁cloth	-11.985
▁Orlando	-11.9851
▁(5	-11.9853
Nothing	-11.9853
▁bustling	-11.9857
▁hotter	-11.9861
▁desperately	-11.9861
▁flair	-11.9864
AMA	-11.9864
Clean	-11.9866
▁contacts	-11.9869
▁lb	-11.9872
pan	-11.9873
▁survive	-11.9874
▁defiantly	-11.9877
▁impatient	-11.9877
▁pi	-11.9877
▁dan	-11.9883
▁Tofu	-11.9886
▁wheelchair	-11.9897
▁partially	-11.99
▁pecans	-11.9901
fa	-11.9901
▁musicians	-11.9903
▁Used	-11.9906
MA	-11.9907
▁immaculate	-11.9908
half	-11.9909
▁elements	-11.9909
▁Fountain	-11.991
▁transmission	-11.991
▁Sour	-11.9912
▁stall	-11.9914
▁revisit	-11.9915
▁tastebuds	-11.9917
▁1000	-11.9919
▁Mostly	-11.9922
▁$1.50	-11.9924
▁daycare	-11.9924
Holy	-11.9927
steak	-11.9937
yeah	-11.9938
▁Sky	-11.9938
▁MORE	-11.9943
▁collect	-11.9948
VE	-11.995
▁tzatziki	-11.995
▁Thought	-11.9952
▁Ja	-11.9953
▁prob	-11.9958
▁Tables	-11.9958
▁Dining	-11.9961
▁urban	-11.9962
▁flew	-11.9963
▁strictly	-11.9965
du	-11.9967
▁App	-11.9968
▁Dental	-11.997
▁rudeness	-11.997
▁rancheros	-11.9971
▁Salads	-11.9972
AL	-11.9973
▁shooting	-11.9977
▁Scallops	-11.9978
▁pollo	-11.9979
▁Japan	-11.9984
▁studying	-11.9986
▁winery	-11.9989
▁IV	-11.9989
▁Peruvian	-11.9991
11	-11.9993
▁suffer	-11.9995
▁International	-11.9998
▁jokes	-11.9998
▁coolest	-12.0002
▁ignoring	-12.0003
▁chaos	-12.0004
▁lenses	-12.001
▁locate	-12.0011
▁THEM	-12.0014
▁beloved	-12.0015
▁fixtures	-12.0017
▁flowing	-12.002
▁cleanest	-12.0021
▁Applebee	-12.0025
▁Outstanding	-12.0025
▁boxed	-12.0026
▁Cooked	-12.0026
▁escargot	-12.003
▁garlicky	-12.0031
▁calming	-12.0031
Seriously	-12.0032
▁samosas	-12.0033
▁habit	-12.0034
▁atop	-12.0036
▁Bri	-12.0039
Called	-12.004
mb	-12.0043
▁Nissan	-12.0043
▁assorted	-12.0043
▁crawl	-12.0044
mail	-12.0046
▁solve	-12.0046
▁Kinda	-12.0048
▁malt	-12.0049
▁atrocious	-12.005
month	-12.005
▁competitors	-12.0054
▁.....	-12.0054
▁aka	-12.006
▁EAT	-12.0061
▁tiki	-12.0064
▁caution	-12.0066
▁$20.	-12.0067
▁hunger	-12.0067
▁wheels	-12.0068
▁asleep	-12.0068
▁99	-12.0072
AN	-12.0074
▁Brewery	-12.0077
ug	-12.0083
▁boudin	-12.0084
▁boo	-12.0084
▁situated	-12.009
Unfortunately	-12.0093
SO	-12.0094
▁Daniel	-12.0096
!!!!!!!	-12.0097
▁Western	-12.0097
▁Moon	-12.0099
tch	-12.01
▁Seattle	-12.0104
bone	-12.0104
▁friendlier	-12.0106
ENT	-12.0111
▁Chile	-12.0112
With	-12.0116
▁lemongrass	-12.0118
▁Whiskey	-12.012
05	-12.012
▁Stephanie	-12.0121
▁unimpressed	-12.0124
▁carbs	-12.0127
salad	-12.0127
▁versions	-12.0127
▁poop	-12.0129
▁Hell	-12.0132
▁Cost	-12.0132
place	-12.0132
▁arch	-12.0135
▁personnel	-12.0136
▁ignorant	-12.0138
▁Rather	-12.0138
▁Kung	-12.0138
▁taro	-12.0146
▁udon	-12.0146
▁bday	-12.0146
▁improvements	-12.015
▁intention	-12.0152
▁stingy	-12.0152
▁Hattie	-12.0154
▁Enough	-12.0158
ola	-12.0161
▁vinyl	-12.0172
▁creamed	-12.0172
ign	-12.0177
▁kiosk	-12.0181
beef	-12.0182
▁apt	-12.0184
▁TJ	-12.0184
ez	-12.0184
▁hats	-12.0185
▁fri	-12.0187
▁forgetting	-12.0188
▁rangoon	-12.0188
▁deter	-12.0189
▁fishing	-12.019
ded	-12.0191
▁mayonnaise	-12.0192
▁getaway	-12.0194
▁chimichanga	-12.0195
▁Mu	-12.0197
/17	-12.0198
▁gyoza	-12.0212
▁gardens	-12.0213
Fast	-12.0218
▁Imagine	-12.0223
▁struck	-12.0226
▁Naan	-12.0228
▁kit	-12.0228
ple	-12.0228
▁Sugar	-12.0229
▁contacting	-12.0233
▁Friends	-12.0233
▁Lady	-12.0234
▁diagnosis	-12.0241
▁portioned	-12.0241
▁accompany	-12.0242
▁vi	-12.0243
▁heartbeat	-12.0247
▁absurd	-12.0251
▁Basil	-12.0253
▁IHOP	-12.0255
▁hardware	-12.0257
▁pressured	-12.026
▁ver	-12.026
▁quail	-12.0262
▁testing	-12.0263
▁eastern	-12.0265
▁Looked	-12.0265
▁hosted	-12.0265
▁jumping	-12.0266
zz	-12.0266
▁fettuccine	-12.0267
▁valuable	-12.0274
▁failure	-12.0274
▁Austin	-12.0275
▁extensions	-12.0277
▁nope	-12.0278
▁cob	-12.028
▁Part	-12.028
▁thirty	-12.0281
ica	-12.0287
▁cancer	-12.0288
▁kudos	-12.0288
▁foil	-12.0288
▁american	-12.0291
▁Pay	-12.0291
illa	-12.0292
fo	-12.0293
▁listing	-12.0294
▁HH	-12.0297
▁Sounds	-12.0301
oc	-12.0301
act	-12.0302
▁$$$	-12.0302
▁Amber	-12.0305
▁mixing	-12.0308
sion	-12.031
▁del	-12.0315
▁fresher	-12.0317
95	-12.0317
Having	-12.032
▁huevos	-12.0322
▁gulf	-12.0322
▁pin	-12.0323
▁viewing	-12.0324
field	-12.0325
▁arrogant	-12.0329
▁dealers	-12.033
▁lowest	-12.0335
hard	-12.034
▁scattered	-12.0343
▁quieter	-12.0353
▁Favorite	-12.0357
▁sanitizer	-12.0357
▁Ke	-12.0359
▁Cole	-12.036
▁remote	-12.0361
▁Vegetarian	-12.0362
▁Professional	-12.0364
▁palm	-12.0364
beer	-12.0365
▁dragon	-12.0366
ens	-12.0366
Omg	-12.0367
▁almonds	-12.0367
▁dente	-12.0368
▁operate	-12.0369
▁florist	-12.0371
▁proved	-12.0371
▁sexy	-12.0373
▁method	-12.0374
▁Sides	-12.0375
▁rotten	-12.0384
▁Cesar	-12.0385
▁curb	-12.0386
▁Under	-12.0389
▁habanero	-12.0391
▁turf	-12.0392
▁alert	-12.0399
plus	-12.0399
▁chaotic	-12.0405
▁NOW	-12.0412
▁stylish	-12.0412
▁interactive	-12.0412
▁Latte	-12.0413
▁Anna	-12.0418
Stayed	-12.0419
▁Ridiculous	-12.0423
▁financial	-12.0424
▁spaced	-12.0426
▁Carolina	-12.0426
▁omelettes	-12.0427
▁owns	-12.0428
▁coverage	-12.0428
▁magnificent	-12.0433
▁kabob	-12.0434
▁Asada	-12.0438
▁THANK	-12.0442
▁CAN	-12.0444
▁developed	-12.0445
▁Southwest	-12.0447
▁ive	-12.0449
▁THERE	-12.0449
Bar	-12.0449
pretty	-12.0451
▁Hills	-12.0453
▁proceeds	-12.0453
vin	-12.0455
▁Peanut	-12.0456
▁tang	-12.0457
kin	-12.0457
▁billed	-12.0461
▁relish	-12.0462
▁newest	-12.0465
bit	-12.0467
▁bubbles	-12.0469
▁intrigued	-12.0469
▁Original	-12.047
▁PERFECT	-12.047
ole	-12.0473
tle	-12.0474
ura	-12.0474
▁andouille	-12.0475
▁bookstore	-12.0476
▁Jennifer	-12.0479
▁tee	-12.0481
▁caffeine	-12.0482
▁pains	-12.0482
▁Stuffed	-12.0487
▁fillet	-12.0487
▁overlook	-12.0487
▁compelled	-12.0489
▁accommodations	-12.0492
▁gems	-12.0497
▁specialist	-12.0503
▁blamed	-12.0504
▁lox	-12.0505
▁Said	-12.0505
ky	-12.0505
▁rounded	-12.0506
shirt	-12.0507
▁Greg	-12.0509
▁promising	-12.051
▁pitch	-12.0513
ries	-12.0517
▁Juice	-12.0517
▁Lou	-12.0526
▁Outdoor	-12.0527
▁Soft	-12.0534
Thanks	-12.0535
tion	-12.0538
▁Kroger	-12.0538
▁transportation	-12.0539
▁sky	-12.0541
▁Surprisingly	-12.0541
▁plethora	-12.0545
▁packaging	-12.0546
▁Hair	-12.0546
▁8:00	-12.0546
Who	-12.0554
▁expertly	-12.0558
▁tummy	-12.056
▁Want	-12.0561
big	-12.0563
▁flakes	-12.0564
▁Grille	-12.0566
▁korean	-12.0569
▁Emily	-12.057
▁Bus	-12.0571
ep	-12.0573
▁48	-12.0575
▁Dis	-12.0576
▁com	-12.0579
tal	-12.0582
▁tent	-12.0582
▁Brought	-12.0583
Recently	-12.0585
▁benefits	-12.0586
▁biased	-12.059
always	-12.0593
▁understatement	-12.0595
▁shiny	-12.0596
▁Manayunk	-12.0597
hand	-12.0599
▁Russian	-12.0609
oe	-12.061
▁scones	-12.061
▁glowing	-12.0612
▁England	-12.0616
▁($2	-12.0618
net	-12.0618
▁smashed	-12.0619
roll	-12.0621
Most	-12.0622
▁Spot	-12.0623
▁baking	-12.0623
▁remotely	-12.0626
▁hamburgers	-12.0628
▁policies	-12.063
ugh	-12.0632
▁difficulty	-12.0632
▁era	-12.0633
stick	-12.0635
▁lotion	-12.0639
▁claws	-12.0639
Yummy	-12.0643
▁nu	-12.0647
pin	-12.0651
▁SUV	-12.0652
▁marketing	-12.0656
▁joking	-12.0657
▁Lowe	-12.0658
▁Casino	-12.0659
ear	-12.0659
▁20-30	-12.066
local	-12.0664
ups	-12.0665
▁sneak	-12.0666
▁sipping	-12.0667
▁inconvenient	-12.0667
▁adjustments	-12.0672
▁commitment	-12.0674
pers	-12.0674
▁Brewing	-12.0674
ming	-12.0678
ified	-12.068
▁protect	-12.068
▁Incredible	-12.068
TREMELY	-12.068
▁etouffee	-12.0681
▁fluke	-12.0688
▁Ni	-12.0688
pork	-12.069
▁sandwhich	-12.069
▁sudden	-12.0692
▁proceed	-12.0694
▁stones	-12.0695
tte	-12.0696
▁sweetheart	-12.0696
lay	-12.0697
▁Bean	-12.0698
white	-12.07
▁mildly	-12.0701
▁NE	-12.0702
▁Sean	-12.0703
▁dumped	-12.0704
▁ethnic	-12.0704
▁exists	-12.0705
▁Atlanta	-12.0709
▁speakers	-12.0711
▁masseuse	-12.0716
▁Clayton	-12.0716
▁Hu	-12.072
▁lap	-12.072
▁pointing	-12.0721
▁steaming	-12.0725
▁Play	-12.0728
▁climb	-12.0728
▁waxed	-12.073
▁Internet	-12.0731
▁nonsense	-12.0731
▁palette	-12.0731
▁crossed	-12.0731
Ca	-12.0732
▁3/4	-12.0734
bra	-12.0742
▁Sicilian	-12.0745
▁Hop	-12.0747
▁Pig	-12.0748
▁vent	-12.075
▁Eggplant	-12.0752
▁elevated	-12.0755
▁Max	-12.0757
Chicken	-12.0757
ties	-12.0759
ters	-12.0764
▁sporting	-12.0764
▁misleading	-12.0768
stop	-12.0768
▁listens	-12.0769
▁lentil	-12.0769
size	-12.0769
▁gain	-12.0773
▁automatic	-12.0774
▁preface	-12.0778
▁western	-12.0779
▁honored	-12.0783
▁blows	-12.0784
▁tacky	-12.0789
▁Arch	-12.0791
▁percent	-12.0792
▁ink	-12.0795
▁domestic	-12.0795
▁projects	-12.0796
▁buyer	-12.0796
49	-12.0796
▁resulted	-12.0796
bad	-12.0797
▁pur	-12.0799
▁3/5	-12.08
▁appointed	-12.0801
Walked	-12.0802
▁Wilmington	-12.0803
▁tilapia	-12.0803
▁artificial	-12.0803
▁Pancakes	-12.0805
▁Yep	-12.0805
▁tunes	-12.0808
▁esp	-12.0809
▁Houston	-12.081
▁enjoys	-12.0811
▁premises	-12.0812
▁PB	-12.0815
▁jukebox	-12.0817
▁Support	-12.082
▁shelter	-12.082
▁sisters	-12.0821
▁slider	-12.0823
▁Craft	-12.0824
▁Brentwood	-12.0824
▁Heather	-12.0828
▁Sales	-12.0828
cy	-12.083
▁Sum	-12.0832
▁Low	-12.0833
▁function	-12.0837
▁audience	-12.0839
▁definately	-12.0839
▁Brothers	-12.0845
▁capable	-12.0847
Mo	-12.0851
ache	-12.0854
▁Ritz	-12.0854
▁bro	-12.086
▁Hawaii	-12.086
got	-12.0862
▁soaking	-12.0863
▁Cannot	-12.0867
▁layered	-12.0868
▁Boys	-12.0868
Did	-12.0868
pi	-12.087
▁drying	-12.0872
bed	-12.0872
▁storefront	-12.0872
▁steady	-12.0875
▁avoiding	-12.0875
▁pillow	-12.0876
▁3:30	-12.0878
▁Mai	-12.088
▁comparing	-12.0883
▁Szechuan	-12.0884
▁Ocean	-12.0884
▁timer	-12.0886
▁brilliant	-12.0888
Everyone	-12.0889
▁appreciation	-12.089
▁sizzling	-12.089
▁wowed	-12.0891
▁faith	-12.0894
shrimp	-12.0896
▁debris	-12.0897
▁th	-12.0904
▁appalled	-12.0905
▁glorious	-12.0905
▁ro	-12.0908
▁ringing	-12.0911
die	-12.0911
▁wedges	-12.0911
▁equivalent	-12.0912
▁sauna	-12.0912
70	-12.0914
▁Homemade	-12.0917
filled	-12.0918
▁curries	-12.0919
low	-12.0921
elli	-12.0924
clock	-12.0925
▁puff	-12.0925
super	-12.0926
▁stepping	-12.0935
▁empanada	-12.0936
lol	-12.0937
▁dealerships	-12.0939
Now	-12.0943
▁dishonest	-12.0947
▁invoice	-12.0948
▁remake	-12.095
▁thinner	-12.0951
▁players	-12.0951
▁interacted	-12.0954
fully	-12.0957
▁determine	-12.0961
berry	-12.0962
▁dips	-12.0962
▁$24	-12.0962
▁techniques	-12.0965
▁consumed	-12.097
▁technology	-12.0971
▁brewing	-12.0971
▁tails	-12.0972
▁inappropriate	-12.0972
▁bound	-12.0973
ual	-12.0976
▁magazine	-12.0976
▁moderate	-12.0976
▁bouncer	-12.0978
▁OVER	-12.0979
▁gyms	-12.0981
▁markets	-12.0981
▁coma	-12.0981
ek	-12.0985
ied	-12.0988
▁byob	-12.0992
▁Platter	-12.0993
▁refilling	-12.0995
▁op	-12.0995
▁Melissa	-12.0996
▁fluid	-12.0997
clean	-12.0998
▁Banh	-12.1001
▁Fri	-12.1001
▁Cracker	-12.1002
▁hectic	-12.1003
must	-12.1005
▁Hyatt	-12.1007
Get	-12.1009
▁Hummus	-12.101
rt	-12.1011
-7	-12.1013
▁ne	-12.1013
▁styrofoam	-12.1015
▁Pennsylvania	-12.1015
▁science	-12.1015
▁laying	-12.1016
▁Read	-12.1017
-10	-12.1019
▁id	-12.1019
▁evident	-12.102
▁Van	-12.1022
▁Eats	-12.1034
Visiting	-12.1037
▁biryani	-12.1037
▁tin	-12.1039
▁extras	-12.1041
thanks	-12.1041
staff	-12.1043
▁Baja	-12.1045
▁puree	-12.1047
lar	-12.1048
▁brussels	-12.1051
▁Dark	-12.1054
▁Off	-12.1057
▁Gross	-12.1059
▁fo	-12.1061
▁polished	-12.1062
ix	-12.1063
▁Sha	-12.1065
▁tvs	-12.1065
▁seed	-12.1065
▁existing	-12.1066
care	-12.1067
▁Heights	-12.1067
▁utterly	-12.1068
▁throat	-12.1074
▁trustworthy	-12.1074
▁Walgreens	-12.1075
▁satisfactory	-12.1075
▁scream	-12.1076
full	-12.1079
▁Gotta	-12.108
▁capers	-12.1082
▁Potatoes	-12.1084
▁bursting	-12.1085
-2	-12.1095
▁facials	-12.1105
Big	-12.1107
▁forms	-12.1107
▁supreme	-12.1109
▁celebrated	-12.1113
▁Rd	-12.1113
regular	-12.1117
ions	-12.1118
▁climbing	-12.1124
▁spotted	-12.1125
KE	-12.1127
▁AAA	-12.1128
▁yolk	-12.1132
-4	-12.1136
▁trial	-12.1136
▁certified	-12.1137
▁Jane	-12.1139
shop	-12.1139
▁acoustics	-12.114
▁teenagers	-12.1141
▁slept	-12.1141
▁peeve	-12.1142
▁pitchers	-12.1143
gar	-12.1148
▁channel	-12.1152
▁Yay	-12.1153
Extremely	-12.1156
▁mugs	-12.1162
▁shabby	-12.1164
▁tags	-12.1166
ory	-12.1167
fire	-12.1167
ay	-12.1168
▁$3.50	-12.1169
▁Health	-12.117
▁operating	-12.1171
▁Sprouts	-12.1173
▁transition	-12.1177
▁SF	-12.1179
▁Miso	-12.1181
▁Laura	-12.1181
▁chutney	-12.1185
▁disease	-12.1186
▁designated	-12.1187
school	-12.1193
▁scone	-12.1193
▁tavern	-12.1196
▁Nonetheless	-12.1201
▁te	-12.1207
▁appreciative	-12.1209
▁bubbly	-12.1209
▁5-6	-12.1209
▁lick	-12.121
▁FRESH	-12.1211
▁Kyle	-12.1212
▁tipping	-12.1212
▁Reasonably	-12.1213
▁surgeon	-12.1217
▁slimy	-12.1219
▁Pinot	-12.1226
▁Lime	-12.1226
▁overpowered	-12.1226
▁ti	-12.1232
▁drops	-12.1233
▁barrier	-12.1233
▁neglected	-12.1233
▁trainers	-12.1235
▁Strip	-12.1237
▁expansive	-12.1239
/16	-12.1241
▁$19	-12.1241
▁discussing	-12.1242
▁relative	-12.1244
▁Crazy	-12.1245
▁perk	-12.1245
▁jersey	-12.1247
▁Festival	-12.1247
Awful	-12.1247
je	-12.1248
▁mystery	-12.1249
▁inter	-12.1261
/10	-12.1262
▁filler	-12.1262
▁Steakhouse	-12.1264
▁image	-12.1265
▁warmth	-12.1266
wine	-12.1268
▁hosting	-12.1274
▁gallery	-12.1277
▁Um	-12.128
▁cutest	-12.1283
▁closely	-12.1285
▁9:00	-12.1285
▁official	-12.1286
▁Hostess	-12.1289
▁Karen	-12.1289
ened	-12.129
▁trimmed	-12.1292
▁Sa	-12.1295
van	-12.1301
ium	-12.1302
▁surroundings	-12.1305
▁affect	-12.1305
drink	-12.1306
▁Harry	-12.1308
ico	-12.1309
▁counting	-12.1312
▁KFC	-12.1315
▁Smith	-12.1317
▁individually	-12.1317
▁Crust	-12.1319
▁dimly	-12.1319
▁wishing	-12.1322
coming	-12.1323
▁lengthy	-12.1324
nny	-12.1324
▁Massage	-12.1325
▁gray	-12.1326
ph	-12.1328
▁DEFINITELY	-12.133
▁Paid	-12.1331
▁Desserts	-12.1332
▁curtains	-12.1334
▁Meh	-12.1335
ju	-12.1339
▁friday	-12.1346
▁comedy	-12.1349
nk	-12.1352
▁Dutch	-12.1353
▁swamp	-12.1357
ub	-12.1359
▁OJ	-12.137
▁Cut	-12.1371
▁mule	-12.1372
▁saturday	-12.1376
▁leche	-12.1377
▁$90	-12.1377
▁faced	-12.138
▁sa	-12.1382
▁burrata	-12.1384
Over	-12.1385
▁cordial	-12.1392
▁Creek	-12.1399
bel	-12.1399
rie	-12.14
▁Forget	-12.14
▁Experience	-12.1403
rice	-12.1403
▁kiddos	-12.1403
▁worthwhile	-12.1404
▁graciously	-12.1405
▁BEWARE	-12.1406
▁Bridge	-12.1414
▁resturant	-12.1415
Used	-12.1418
▁Belly	-12.142
▁YELP	-12.1422
▁redo	-12.1423
▁Anything	-12.1425
▁Ph	-12.1427
▁Oreo	-12.1432
▁succeed	-12.1433
▁lash	-12.1433
▁Chuck	-12.1436
▁Maple	-12.1438
▁sufficient	-12.1443
▁Steaks	-12.1445
▁enthusiasm	-12.1445
Still	-12.1446
▁afterward	-12.1447
▁adjustment	-12.1447
▁greets	-12.1449
▁Tower	-12.1455
sauce	-12.146
▁errands	-12.146
▁Martini	-12.146
▁dismissive	-12.1462
tes	-12.1462
▁quest	-12.1464
18	-12.1465
▁Works	-12.1467
▁Julie	-12.1468
cal	-12.1473
▁Bagel	-12.1475
▁brownies	-12.1476
▁dug	-12.1477
▁communicated	-12.1479
ob	-12.148
▁Ar	-12.1481
▁border	-12.1484
▁monster	-12.1484
Hey	-12.1486
90	-12.1497
▁feeding	-12.1498
▁sir	-12.1498
▁Hampton	-12.15
▁reduction	-12.15
▁lbs	-12.1501
▁pest	-12.1501
000	-12.1508
▁tool	-12.1508
▁WRONG	-12.1509
▁Richard	-12.1516
▁personalized	-12.1519
tail	-12.152
▁matching	-12.1521
while	-12.1521
coffee	-12.1525
ide	-12.1525
▁Truck	-12.1532
▁baba	-12.1532
▁groomed	-12.1535
▁biggie	-12.1536
▁regional	-12.1536
shirts	-12.1538
▁Disappointing	-12.1539
▁(?)	-12.1539
Ro	-12.1542
touff	-12.1543
▁blocked	-12.1544
▁Chestnut	-12.1546
▁fennel	-12.1546
▁Vanilla	-12.1546
▁Mayo	-12.1547
▁Guacamole	-12.1548
ks	-12.1549
server	-12.1549
week	-12.1549
▁easiest	-12.1554
▁STARS	-12.1554
▁Cap	-12.1555
▁baskets	-12.156
▁Mrs	-12.156
air	-12.156
CO	-12.1561
▁staffing	-12.1561
▁belong	-12.1561
▁tidy	-12.1563
▁PO	-12.1565
▁buttered	-12.1565
▁Extra	-12.1567
▁league	-12.157
▁interview	-12.157
▁coloring	-12.1571
▁reaching	-12.1573
▁beg	-12.1576
▁meantime	-12.1576
▁Rum	-12.1577
▁horror	-12.1577
▁essential	-12.1578
▁2011	-12.1578
▁Bobby	-12.1582
▁Bravo	-12.1584
▁Sub	-12.1585
▁Margherita	-12.1585
▁HOWEVER	-12.1593
▁decoration	-12.1595
▁Gluten	-12.1598
/15	-12.1605
28	-12.1607
▁birth	-12.1607
▁height	-12.1607
▁produced	-12.1607
▁Studio	-12.1609
▁coats	-12.1609
▁household	-12.1611
▁neon	-12.1611
▁production	-12.1613
▁useful	-12.1613
TH	-12.1614
▁boats	-12.1615
▁committed	-12.1617
▁unreal	-12.1618
▁education	-12.162
▁addicting	-12.1621
▁core	-12.1622
▁tastier	-12.1625
▁Sch	-12.1626
▁Danny	-12.1628
▁travels	-12.1629
▁blackberry	-12.1634
▁Liberty	-12.1634
ls	-12.1634
▁temporary	-12.1638
▁je	-12.164
hh	-12.1644
▁chi	-12.1645
▁observed	-12.1645
▁$28	-12.1648
IC	-12.1649
▁En	-12.1654
▁condiment	-12.1655
▁Melt	-12.1656
ordered	-12.1663
▁pee	-12.1665
▁floral	-12.1665
ative	-12.1665
▁hygienist	-12.1668
▁substance	-12.1672
▁gallon	-12.1673
▁overflowing	-12.1674
▁device	-12.1676
▁reputable	-12.168
▁log	-12.1681
▁95	-12.1684
Made	-12.1684
▁Dragon	-12.1685
▁freakin	-12.1687
▁Jerry	-12.1688
▁manufacturer	-12.1689
large	-12.1691
▁tastings	-12.1691
▁impact	-12.1692
▁Group	-12.1692
▁hose	-12.1694
▁chest	-12.1695
▁granted	-12.1695
-3	-12.1695
▁ripe	-12.1698
▁gratin	-12.1705
▁France	-12.1706
▁guessed	-12.1707
24	-12.1707
▁beignet	-12.1708
▁lid	-12.1709
▁Ann	-12.1711
ford	-12.1711
▁steel	-12.1711
100	-12.1714
▁overhead	-12.1716
▁ac	-12.1717
▁compassion	-12.1718
ked	-12.1718
▁Christian	-12.172
hu	-12.172
▁65	-12.1724
▁nostalgic	-12.1727
▁Giant	-12.1727
▁borderline	-12.1727
▁Bathrooms	-12.1734
▁faucet	-12.1735
▁summary	-12.1735
state	-12.1735
▁continually	-12.1735
▁gut	-12.1736
▁Trail	-12.1737
▁zip	-12.1737
app	-12.1737
late	-12.1737
uck	-12.1743
▁abundant	-12.1743
course	-12.1744
▁ole	-12.1744
▁pairings	-12.1748
▁Omg	-12.1749
▁partake	-12.1751
▁sole	-12.1752
▁inspected	-12.1755
▁Casa	-12.1757
▁efforts	-12.1757
▁complemented	-12.1757
ches	-12.1759
▁opportunities	-12.1759
▁caliber	-12.1759
▁parlor	-12.1759
▁Guinness	-12.1767
▁Pinellas	-12.1767
▁Midtown	-12.1768
▁tested	-12.1771
▁creates	-12.1773
without	-12.1773
tru	-12.1777
Even	-12.1778
▁groom	-12.1779
ano	-12.1781
▁urine	-12.1783
▁mellow	-12.1784
▁consumer	-12.1786
▁pate	-12.1786
▁Sabrina	-12.1787
▁Far	-12.1788
▁Oil	-12.1788
▁Nor	-12.1795
zy	-12.1796
▁Wal	-12.1796
▁Ate	-12.1799
▁Mission	-12.1799
▁Pollo	-12.1802
▁stream	-12.1802
▁signal	-12.1804
▁Fa	-12.1804
▁blank	-12.1805
01	-12.1807
▁Memorial	-12.1808
▁(6	-12.1809
▁bouquet	-12.1812
▁Walnut	-12.1815
▁bustle	-12.1819
▁Carl	-12.1823
▁span	-12.1825
esque	-12.1825
rated	-12.1827
▁sealed	-12.1828
▁modest	-12.183
▁Cheddar	-12.1831
▁Certainly	-12.1834
▁dull	-12.1838
▁redone	-12.1839
▁Kobe	-12.1841
▁mirrors	-12.1843
▁upcharge	-12.1845
▁offended	-12.1845
Ha	-12.1846
▁margherita	-12.1847
▁flavours	-12.1847
▁threatened	-12.1849
▁satay	-12.1849
▁300	-12.185
tra	-12.185
▁inner	-12.185
ane	-12.185
▁offices	-12.1851
▁specialties	-12.1851
Car	-12.1852
▁dock	-12.1854
ru	-12.1855
▁residential	-12.1855
▁longest	-12.1856
▁sanitary	-12.1858
chef	-12.1858
cr	-12.1858
▁es	-12.1859
▁Panda	-12.1862
▁struggled	-12.1862
▁oils	-12.1863
▁crammed	-12.1863
▁($1	-12.1865
▁$250	-12.1867
▁cameras	-12.1867
▁heels	-12.1871
▁Peppermill	-12.1871
▁Sesame	-12.1871
▁skins	-12.1872
book	-12.1872
▁tso	-12.1877
▁32	-12.1879
▁swordfish	-12.1879
▁Pappy	-12.1879
Second	-12.1882
▁hipsters	-12.1884
▁Caramel	-12.1887
▁Larry	-12.1888
▁bison	-12.1888
▁freak	-12.1889
perfect	-12.1893
▁encouraging	-12.1895
▁remoulade	-12.1895
▁network	-12.1895
▁swiss	-12.1895
▁Steven	-12.1898
▁LONG	-12.1898
▁Famous	-12.19
ology	-12.1901
▁peeling	-12.1903
▁sp	-12.1905
▁Sara	-12.1907
▁suburbs	-12.1909
▁hallways	-12.1911
▁Mel	-12.1914
family	-12.1914
▁knee	-12.1919
mas	-12.1919
▁oasis	-12.192
▁Ci	-12.192
▁tempting	-12.192
▁clearing	-12.1923
▁rudest	-12.1931
▁chalkboard	-12.1936
▁Fest	-12.1936
▁guides	-12.1942
▁guidance	-12.1944
▁pots	-12.1946
unless	-12.1947
▁Tu	-12.1947
please	-12.195
▁yea	-12.1951
▁wrapping	-12.1953
▁kabobs	-12.1953
▁potentially	-12.1958
▁bid	-12.1958
▁truffles	-12.1959
▁accustomed	-12.196
▁judging	-12.196
▁Tina	-12.1964
▁sincere	-12.1964
▁switching	-12.1965
▁leasing	-12.1968
▁calorie	-12.197
▁rap	-12.1971
▁redeeming	-12.1972
hey	-12.1974
cia	-12.1975
IT	-12.1978
▁wit	-12.1978
Un	-12.198
▁disagree	-12.1982
▁compensate	-12.1983
▁marble	-12.1983
▁linguine	-12.1985
▁Meridian	-12.1986
era	-12.1987
cher	-12.1993
▁NEW	-12.1997
pay	-12.2
▁radish	-12.2
▁Value	-12.2001
▁Wayne	-12.2002
▁faves	-12.2005
▁oat	-12.2008
▁Creme	-12.2009
▁inexperienced	-12.2009
▁surprises	-12.201
aged	-12.2012
▁TIP	-12.2015
thing	-12.2016
▁reward	-12.2016
▁RECOMMEND	-12.2017
▁registers	-12.2017
ec	-12.202
▁na	-12.2021
▁Jam	-12.2024
▁hashbrowns	-12.2024
▁bait	-12.2027
ku	-12.2029
▁tied	-12.203
▁rotate	-12.2032
kind	-12.2032
▁decline	-12.2033
▁digress	-12.2034
▁7:00	-12.2034
▁Tender	-12.2034
▁artichokes	-12.2037
▁Sand	-12.2038
pizza	-12.2038
▁compensation	-12.2042
▁Ambience	-12.2046
▁Valet	-12.2052
cc	-12.2056
▁gosh	-12.2058
▁broiled	-12.2058
▁cemetery	-12.2058
▁precious	-12.2059
▁Biscuits	-12.2061
▁Memphis	-12.2066
▁alternatives	-12.2068
▁Unbelievable	-12.2068
definitely	-12.207
ered	-12.2071
▁suited	-12.2074
▁bin	-12.2074
▁strike	-12.2077
▁mode	-12.2078
tu	-12.2079
LA	-12.208
▁cigarettes	-12.2081
▁Jerk	-12.2082
▁Erin	-12.2082
▁definition	-12.2083
▁Juan	-12.2084
▁Tell	-12.2084
▁pond	-12.2091
▁shortage	-12.2091
▁Cu	-12.2093
vers	-12.2098
▁demanded	-12.2099
▁naked	-12.2099
ack	-12.2103
▁Plate	-12.2104
▁bud	-12.2105
▁television	-12.2108
▁Ex	-12.2112
▁illegal	-12.2113
▁logo	-12.2114
-6	-12.2114
▁continuing	-12.2116
▁shorts	-12.2116
▁mar	-12.2117
wn	-12.2117
▁scent	-12.212
▁patch	-12.212
Le	-12.2122
▁Sal	-12.2124
▁Louie	-12.2125
▁wiz	-12.2126
ken	-12.2128
▁suggesting	-12.2132
▁Desert	-12.2132
▁photographer	-12.2133
But	-12.2134
Highly	-12.2137
▁USE	-12.2141
▁festive	-12.2143
▁freeze	-12.2144
▁1-	-12.2147
rick	-12.215
EL	-12.2152
▁strict	-12.2152
▁associated	-12.2153
▁rocked	-12.2157
▁School	-12.2157
▁resolution	-12.2157
▁Fu	-12.2157
▁Au	-12.2161
rare	-12.2162
▁Bed	-12.2163
▁teens	-12.2164
▁foodies	-12.2165
▁bakeries	-12.2166
▁Use	-12.2172
▁scampi	-12.2173
dis	-12.2173
▁ORDER	-12.2173
▁continuously	-12.2174
gr	-12.2176
▁audio	-12.2176
vegetarian	-12.2177
▁Captain	-12.2178
▁thirsty	-12.2178
▁solved	-12.2179
▁tu	-12.218
▁artisan	-12.2181
▁battle	-12.2182
▁alongside	-12.2183
▁Hash	-12.2183
▁joe	-12.2186
▁element	-12.2191
▁Less	-12.2193
Happy	-12.2194
▁rec	-12.2196
US	-12.2197
▁figuring	-12.2199
▁release	-12.2199
▁warrant	-12.22
▁brave	-12.2205
ging	-12.2206
▁intend	-12.2209
usually	-12.221
65	-12.2216
▁imported	-12.2217
▁healing	-12.2218
cur	-12.222
▁indication	-12.2224
▁electronic	-12.2226
▁destroyed	-12.2234
▁Hurricane	-12.2235
val	-12.2236
▁Friend	-12.2236
▁happiness	-12.224
▁Tikka	-12.224
▁rectify	-12.224
▁torta	-12.2246
▁creation	-12.225
▁plump	-12.2251
▁handing	-12.2251
▁packets	-12.2253
▁CO	-12.2255
▁Grab	-12.2255
▁unbeatable	-12.2257
▁froyo	-12.2257
▁neighboring	-12.226
▁Ordering	-12.226
▁valid	-12.2265
▁financing	-12.2265
▁sauerkraut	-12.2265
▁med	-12.2267
▁recovery	-12.2276
▁tres	-12.2278
▁Land	-12.2279
▁teaching	-12.2282
▁rubbed	-12.2282
▁pints	-12.2283
▁cabinets	-12.2284
▁promises	-12.2285
▁Mill	-12.2286
▁equipped	-12.2286
▁script	-12.2287
▁Mississippi	-12.2291
▁substituted	-12.2291
▁instructed	-12.2292
▁Overpriced	-12.2293
▁continental	-12.2294
▁smoker	-12.2297
▁Wrap	-12.2299
Pros	-12.2307
▁Tiffany	-12.231
▁spite	-12.2311
ud	-12.2314
▁TOO	-12.2314
▁saucy	-12.2316
▁straightforward	-12.2316
▁tiles	-12.2318
front	-12.232
▁Europe	-12.2324
▁mouse	-12.2325
▁judgement	-12.2325
▁Yoga	-12.2326
warm	-12.2326
▁texting	-12.2327
▁Brick	-12.2328
0,000	-12.2328
▁Gi	-12.2332
▁reads	-12.2333
▁umbrellas	-12.2334
▁Six	-12.2334
▁Therefore	-12.2334
▁5:00	-12.2336
▁Chop	-12.2339
▁Bang	-12.2341
gs	-12.2341
▁sounding	-12.2341
▁exhausted	-12.2344
▁Master	-12.2357
▁Foster	-12.2358
▁avail	-12.2359
▁CUSTOMER	-12.2366
▁soothing	-12.2367
▁6:00	-12.2368
Sunday	-12.2371
▁rehearsal	-12.2375
▁forgettable	-12.2385
▁flu	-12.2385
▁Yo	-12.2387
▁lips	-12.2388
▁scallions	-12.2388
▁Nevertheless	-12.2392
▁tenant	-12.2396
▁29	-12.2398
▁Sitting	-12.2398
▁monkey	-12.2401
▁slap	-12.2403
▁Wa	-12.2403
▁forks	-12.2405
▁Jean	-12.2405
55	-12.2409
▁Find	-12.241
▁skate	-12.2414
▁efficiency	-12.2417
▁brow	-12.2418
cake	-12.242
▁Joey	-12.2421
▁Weird	-12.2423
▁Kid	-12.2428
Simply	-12.2431
▁barrel	-12.2434
▁horrific	-12.2434
▁55	-12.2436
▁delays	-12.2436
▁pine	-12.2438
▁counted	-12.244
Enjoyed	-12.2441
▁Stella	-12.2442
▁dept	-12.2443
▁returns	-12.2443
▁Midwest	-12.2443
▁spouse	-12.2443
self	-12.2445
▁haunted	-12.2445
▁prescriptions	-12.2448
▁Sign	-12.2448
▁outfit	-12.245
qu	-12.2451
▁Marsala	-12.2451
▁hug	-12.2452
▁relleno	-12.2455
▁opinions	-12.2457
▁11:00	-12.246
▁Verde	-12.2461
RA	-12.2462
▁gay	-12.2464
▁altogether	-12.2469
zi	-12.2469
▁unsafe	-12.247
▁dentists	-12.2471
▁dresser	-12.2472
▁plum	-12.2472
▁Tahoe	-12.2474
▁cashew	-12.2474
▁31	-12.2475
▁Mini	-12.2476
▁extend	-12.2477
ERS	-12.2479
▁Jon	-12.248
▁cave	-12.2482
seriously	-12.2482
▁pages	-12.2485
▁Thomas	-12.2488
▁Monkey	-12.2494
▁Haha	-12.2495
26	-12.2497
ect	-12.2498
awesome	-12.2499
?),	-12.2502
▁slim	-12.2502
bing	-12.2504
▁Te	-12.2506
pop	-12.251
▁Wrong	-12.2511
▁bolognese	-12.2511
doba	-12.2515
▁Bear	-12.2519
om	-12.252
▁Corner	-12.2523
▁smack	-12.2524
▁passenger	-12.2524
▁curtain	-12.2526
▁achieve	-12.2527
▁cured	-12.2528
▁tier	-12.2532
ueso	-12.2535
▁century	-12.2537
▁stalls	-12.2537
▁Ti	-12.2537
pp	-12.2539
▁retired	-12.2541
fun	-12.2541
Located	-12.2542
▁camper	-12.2543
▁vegans	-12.2544
▁fold	-12.2544
▁Yuck	-12.2545
▁KNOW	-12.2546
etc	-12.2547
▁pops	-12.2547
▁scratches	-12.255
literally	-12.2551
▁engage	-12.2553
▁yellowtail	-12.2555
▁locks	-12.2555
▁positives	-12.2557
▁divey	-12.256
▁meticulous	-12.2561
▁hotdog	-12.2563
▁papers	-12.2563
▁flagged	-12.2563
▁GPS	-12.2563
▁relaxation	-12.2565
▁macaroons	-12.2568
▁bu	-12.2569
▁Verizon	-12.2572
▁shaking	-12.2572
▁10:00	-12.2574
▁Metro	-12.2575
▁components	-12.2576
▁reccomend	-12.258
▁marrow	-12.258
▁bleeding	-12.2583
▁speciality	-12.2583
▁moms	-12.2585
▁Whoever	-12.2585
iv	-12.2586
▁reminder	-12.2591
▁States	-12.2597
▁scotch	-12.2598
▁ju	-12.2598
▁THEN	-12.2599
▁technically	-12.26
▁supportive	-12.26
▁awkwardly	-12.2602
ala	-12.2603
▁costumer	-12.2605
▁pads	-12.2606
ask	-12.2606
▁darker	-12.2606
▁rowdy	-12.2607
▁pomegranate	-12.2607
▁darts	-12.2608
▁BJ	-12.2609
▁(2)	-12.261
▁Girl	-12.261
▁Boo	-12.2613
▁ramp	-12.2616
▁clearance	-12.2617
▁Biscuit	-12.2617
▁War	-12.262
▁jewel	-12.2621
▁res	-12.2623
▁2:	-12.2625
▁Jordan	-12.2627
▁transport	-12.2628
▁inspect	-12.2631
▁hyped	-12.2633
▁Maryland	-12.2634
▁established	-12.2637
ction	-12.2639
ight	-12.264
▁$8.	-12.2641
extra	-12.2641
▁intimidating	-12.2643
▁raves	-12.2646
▁British	-12.265
▁Dollar	-12.265
▁pools	-12.2651
▁80'	-12.2654
existent	-12.2655
▁memorabilia	-12.2658
▁potstickers	-12.2658
▁Pure	-12.2663
▁computers	-12.2665
▁Dar	-12.2665
city	-12.2666
▁teenage	-12.2677
22	-12.2678
▁math	-12.2679
▁sheer	-12.2679
part	-12.2679
/21	-12.2681
went	-12.2683
▁Appetizer	-12.2687
▁Drunken	-12.2688
El	-12.2689
▁Typically	-12.2692
aid	-12.2692
▁gum	-12.2693
ick	-12.2693
▁seal	-12.2694
▁ba	-12.2695
▁rug	-12.27
▁therapists	-12.27
▁Son	-12.2702
▁Broccoli	-12.2702
▁seitan	-12.2702
▁Eddie	-12.2703
PA	-12.2708
▁growler	-12.2709
▁Dec	-12.2709
▁Kate	-12.271
▁Lexus	-12.2711
▁bahn	-12.2711
▁prix	-12.2711
▁grapes	-12.2712
▁roller	-12.2712
▁village	-12.2714
▁spoons	-12.2717
authentic	-12.2717
▁kebab	-12.2717
▁cotton	-12.272
▁guidelines	-12.272
▁Susan	-12.2724
mores	-12.2725
▁dressings	-12.2725
-5	-12.2726
▁swirl	-12.2728
▁101	-12.2734
▁suffered	-12.2735
▁Bur	-12.2737
same	-12.2739
price	-12.2739
▁appliance	-12.2744
▁donate	-12.2746
▁english	-12.2746
17	-12.2751
▁caters	-12.2754
▁Veal	-12.2756
▁Book	-12.2757
▁Har	-12.2761
▁2010	-12.2761
▁laws	-12.2762
▁luxurious	-12.2764
ona	-12.2764
▁Limited	-12.2768
▁valued	-12.277
▁Tarpon	-12.2772
▁Treat	-12.2773
▁kicking	-12.2773
▁Somehow	-12.2775
▁ghetto	-12.2776
under	-12.2777
▁Met	-12.278
▁CBD	-12.2782
▁doggie	-12.2784
▁digital	-12.2785
▁AWFUL	-12.2786
▁gamble	-12.279
▁Heaven	-12.2793
▁Bass	-12.2793
fer	-12.2794
▁dreaming	-12.2794
▁Medium	-12.2795
▁bumped	-12.2796
ess	-12.2797
▁managing	-12.28
▁Disgusting	-12.28
▁gather	-12.2807
▁advisor	-12.2808
▁peaches	-12.2812
▁Average	-12.2812
▁FAR	-12.2812
▁deeply	-12.2814
▁Macy	-12.2814
▁parks	-12.2817
Pro	-12.2817
▁rentals	-12.2818
▁Butcher	-12.2823
▁cabinet	-12.2824
▁DD	-12.2826
▁Furthermore	-12.2826
corn	-12.2827
ui	-12.2829
▁humid	-12.2833
▁sweating	-12.2837
14	-12.2841
▁THREE	-12.2843
▁gown	-12.2846
▁Kale	-12.2849
500	-12.285
▁Brad	-12.2854
▁specially	-12.2859
▁Ravioli	-12.2861
▁grumpy	-12.2861
▁hiking	-12.2861
▁cultural	-12.2867
▁Combo	-12.287
▁rag	-12.2874
▁insulting	-12.2877
AT	-12.2877
used	-12.2878
▁Circus	-12.2879
▁fe	-12.2881
▁redfish	-12.2884
▁shi	-12.2885
▁communal	-12.2888
▁styling	-12.2888
▁Sonoran	-12.2888
/5	-12.289
▁pups	-12.289
▁cheat	-12.289
▁Easily	-12.2892
▁Seminole	-12.2897
▁Pumpkin	-12.29
▁fab	-12.2902
vis	-12.2904
▁Immediately	-12.2906
▁Dumplings	-12.2908
▁Wanted	-12.2911
▁ultra	-12.2914
▁foreign	-12.2914
▁tanning	-12.2915
▁supper	-12.2915
ese	-12.2916
▁$65	-12.2919
▁begins	-12.292
▁savor	-12.2921
▁Blueberry	-12.2924
▁merely	-12.2925
▁negatives	-12.2928
han	-12.293
▁protection	-12.2933
come	-12.2936
▁breaker	-12.2939
bartender	-12.294
▁outer	-12.2941
▁nestled	-12.2941
▁Jake	-12.2942
▁owed	-12.2942
▁plantain	-12.2942
▁tube	-12.2948
TA	-12.2949
▁MONEY	-12.295
▁lawyer	-12.295
▁reno	-12.2958
▁kicker	-12.2967
▁university	-12.2968
▁Mussels	-12.297
▁airline	-12.2976
▁unreasonable	-12.2977
▁investment	-12.2978
▁Unique	-12.2979
▁workouts	-12.2979
lle	-12.2979
▁mama	-12.2982
▁soooooo	-12.2982
dry	-12.2983
▁unappetizing	-12.2986
▁couldnt	-12.2989
ans	-12.299
▁lava	-12.2991
▁Chang	-12.2991
▁tampa	-12.2993
▁Pudding	-12.2995
▁disrespect	-12.2996
mind	-12.2997
wi	-12.2997
▁interrupted	-12.2998
▁identify	-12.3
▁suffering	-12.3002
▁bitch	-12.3002
Mart	-12.3002
sha	-12.3003
▁claiming	-12.3004
▁Team	-12.3004
bus	-12.3005
▁roomy	-12.3006
▁1:	-12.301
hy	-12.301
▁reduce	-12.3014
ments	-12.3017
▁schnitzel	-12.3021
own	-12.3025
▁blankets	-12.3027
▁Mae	-12.303
▁Pep	-12.3031
▁accomodating	-12.3031
▁survey	-12.3031
pri	-12.3031
▁fa	-12.3033
look	-12.3035
▁bon	-12.3035
once	-12.3036
▁HVAC	-12.304
▁pictured	-12.3041
▁diagnostic	-12.3043
▁Tyler	-12.3044
▁CASH	-12.3045
▁According	-12.3045
▁sincerely	-12.3052
▁Cakes	-12.3053
leg	-12.3053
would	-12.3055
▁FINALLY	-12.3056
▁fixings	-12.3056
▁contain	-12.3057
▁landmark	-12.3059
▁role	-12.3062
▁(10	-12.3063
ea	-12.3064
▁Pastor	-12.3066
▁cough	-12.3067
▁attorney	-12.3068
hhhh	-12.3071
gin	-12.3072
▁compares	-12.3073
▁Busch	-12.3074
▁Start	-12.3077
▁Truffle	-12.3077
▁jet	-12.3083
▁symptoms	-12.3083
yelp	-12.3084
▁aftertaste	-12.3086
Mex	-12.3087
▁Hibachi	-12.3088
▁manners	-12.3089
▁Pit	-12.309
▁Bathroom	-12.309
▁concession	-12.3096
▁freeway	-12.3097
▁posters	-12.3098
▁RIGHT	-12.31
▁folded	-12.31
▁Fabulous	-12.3101
▁Chase	-12.3101
▁HE	-12.3102
▁Pike	-12.3105
mark	-12.3105
▁offensive	-12.3107
▁Columbia	-12.3113
▁Missouri	-12.3113
▁consultant	-12.3114
cool	-12.3115
▁Cab	-12.3116
fu	-12.3122
▁TSA	-12.3123
▁THEIR	-12.3131
▁tandoori	-12.3132
CU	-12.3132
▁transported	-12.3136
▁AVOID	-12.3139
▁uncle	-12.314
▁Mercedes	-12.3141
▁unsatisfied	-12.3141
▁cycle	-12.3145
▁trolley	-12.315
ets	-12.3153
lock	-12.3156
▁Sports	-12.3157
▁dispute	-12.3159
▁Row	-12.316
▁Funny	-12.3163
▁showroom	-12.3163
▁hopeful	-12.3165
▁Young	-12.3165
rr	-12.3167
▁sans	-12.3168
play	-12.3168
▁Todd	-12.3171
▁diagnose	-12.3171
▁Power	-12.3172
▁asset	-12.3173
▁Katrina	-12.3173
▁Fruit	-12.3173
▁crawling	-12.3174
▁Starr	-12.3174
▁Pineapple	-12.3177
▁DMV	-12.3177
than	-12.318
▁Earth	-12.3181
▁variations	-12.3182
▁rad	-12.3184
cker	-12.3185
▁breathe	-12.3186
▁calzones	-12.319
lots	-12.3192
len	-12.3193
bird	-12.3195
▁talks	-12.3195
art	-12.3195
▁TRY	-12.3196
▁$6.	-12.3198
▁coach	-12.32
▁invest	-12.3201
▁birthdays	-12.3203
mos	-12.3203
▁MA	-12.3206
▁Fishtown	-12.3207
▁upsell	-12.3212
▁Hub	-12.3212
Saturday	-12.3213
▁folk	-12.3213
▁flea	-12.3214
▁pe	-12.3219
being	-12.3219
▁admittedly	-12.3223
▁Mountain	-12.3223
▁Commander	-12.3225
▁Owners	-12.3226
ena	-12.323
▁Fl	-12.3231
excellent	-12.3231
▁Waiting	-12.3232
hop	-12.3232
▁Kee	-12.3233
▁goodbye	-12.3234
▁Crystal	-12.3235
chu	-12.3239
thin	-12.324
▁poppers	-12.324
▁knocking	-12.3242
▁Bru	-12.3242
▁collar	-12.3243
▁seamless	-12.3249
▁Bought	-12.3256
▁Wednesdays	-12.3257
▁Pe	-12.3258
Yeah	-12.3258
▁sprinkles	-12.3258
▁killing	-12.3259
▁paradise	-12.326
▁shrugged	-12.3269
▁sliding	-12.3272
▁Gary	-12.3273
▁void	-12.3279
▁meter	-12.3282
▁competitor	-12.3282
date	-12.3283
fine	-12.3284
▁chase	-12.3287
▁noticing	-12.3287
▁chopsticks	-12.3288
▁performing	-12.3288
▁Morgan	-12.3288
▁roaches	-12.3289
▁ci	-12.3289
▁episode	-12.3297
▁Ted	-12.3297
▁Wok	-12.3303
▁munch	-12.3306
▁explosion	-12.3306
▁blessed	-12.331
▁brothers	-12.331
show	-12.3313
▁$26	-12.3314
▁defensive	-12.3316
▁unpretentious	-12.3316
▁advanced	-12.3317
▁handles	-12.3317
▁sentence	-12.3318
BB	-12.3322
▁$120	-12.3323
▁tournament	-12.3325
▁$55	-12.3325
▁characters	-12.3329
▁waitlist	-12.3333
▁redeem	-12.3335
▁papaya	-12.3335
▁relieved	-12.3339
▁bleach	-12.3339
▁gates	-12.3341
▁receipts	-12.3342
shell	-12.3342
drinks	-12.3343
▁bow	-12.3349
▁BR	-12.335
AR	-12.3351
▁valley	-12.3353
▁Ku	-12.3361
▁robust	-12.3362
▁bicycle	-12.3362
nic	-12.3363
▁Edit	-12.3365
▁doesnt	-12.3366
ori	-12.3367
▁describing	-12.3372
▁Throughout	-12.3372
Boy	-12.3378
every	-12.338
ending	-12.3381
mouth	-12.3381
▁Oscar	-12.3381
▁galore	-12.3381
▁immensely	-12.3382
▁escorted	-12.3383
▁Aaron	-12.3384
▁hates	-12.3388
▁AS	-12.339
AS	-12.3395
▁chemical	-12.3397
Mi	-12.3397
▁visual	-12.3398
▁$27	-12.3398
▁Standard	-12.3399
smoking	-12.34
▁Canadian	-12.34
▁unfamiliar	-12.34
▁fulfill	-12.34
▁digging	-12.34
▁Thin	-12.3401
▁cowboy	-12.3401
▁Anytime	-12.3406
▁registration	-12.3409
▁cure	-12.341
▁carrier	-12.341
▁Prince	-12.3412
▁attract	-12.3414
▁customized	-12.343
▁sang	-12.3432
sure	-12.3433
▁Circle	-12.3435
▁thoughts	-12.3436
▁Bu	-12.3437
▁contains	-12.3437
▁razor	-12.3438
▁Harrah	-12.3438
Bad	-12.3444
▁Choice	-12.3447
▁invite	-12.3447
▁brag	-12.345
▁stray	-12.345
lee	-12.3451
▁musical	-12.3452
▁interactions	-12.3456
▁assessment	-12.3457
▁Dogs	-12.3458
▁Multiple	-12.3458
▁Peach	-12.3458
▁$23	-12.3459
aki	-12.346
▁melting	-12.3461
▁steakhouses	-12.3463
▁stumble	-12.3466
▁decaf	-12.3469
▁dent	-12.3473
▁woods	-12.3476
▁macarons	-12.3476
▁hiding	-12.3477
Con	-12.3478
▁fu	-12.3481
▁ge	-12.3481
▁styled	-12.3481
EST	-12.3483
▁piss	-12.3483
▁flounder	-12.3485
▁agency	-12.3485
▁crime	-12.3485
▁acai	-12.3486
▁misses	-12.349
▁Root	-12.3491
ppy	-12.3492
▁pockets	-12.3493
▁Period	-12.3494
▁Ribeye	-12.3494
▁novelty	-12.3494
▁visually	-12.3497
▁consume	-12.3499
▁Ace	-12.3504
ito	-12.3508
vent	-12.3512
▁backwards	-12.3514
▁Damn	-12.3514
▁Bird	-12.3514
▁candies	-12.3517
od	-12.3519
cold	-12.352
ale	-12.352
▁remedy	-12.3523
Incredible	-12.3523
▁roti	-12.3523
ash	-12.3526
▁Fred	-12.3526
▁selecting	-12.353
ization	-12.353
▁Typical	-12.3532
▁Popeyes	-12.3533
13	-12.3535
▁Labor	-12.3536
▁concerts	-12.3537
▁facts	-12.3539
▁jaw	-12.3539
▁brushed	-12.354
▁pep	-12.3541
▁Plumbing	-12.3542
▁upsetting	-12.3545
ric	-12.3545
▁Twice	-12.3546
▁documents	-12.3546
▁burst	-12.3547
16	-12.3549
▁attire	-12.3551
▁vote	-12.3551
▁southwest	-12.3551
Friday	-12.3552
▁breathing	-12.3556
▁Soul	-12.3557
▁Fry	-12.356
▁Subaru	-12.3561
▁faint	-12.3561
▁pits	-12.3562
▁busiest	-12.3562
▁$7.	-12.3566
bal	-12.3569
lic	-12.3569
▁5)	-12.357
▁trunk	-12.357
▁guava	-12.357
▁unknown	-12.3571
▁Ross	-12.3571
▁Ultimately	-12.3571
▁careless	-12.3573
▁travelers	-12.3574
▁Dale	-12.3575
▁Pita	-12.3577
▁critique	-12.358
▁isnt	-12.358
▁uni	-12.3585
▁Disney	-12.3589
▁London	-12.3589
▁BOMB	-12.3589
tta	-12.359
▁inspector	-12.3591
here	-12.3597
▁accepting	-12.3599
pu	-12.36
▁flare	-12.3601
gue	-12.3601
mostly	-12.3604
rib	-12.3604
uring	-12.3604
▁acrylics	-12.3604
Will	-12.3605
▁et	-12.3606
▁skewer	-12.3608
▁carryout	-12.3608
▁bamboo	-12.3609
▁waist	-12.3609
▁gummy	-12.3609
ari	-12.361
▁Cho	-12.3613
▁Yelper	-12.3614
▁$1000	-12.3615
▁passable	-12.3617
▁portobello	-12.3618
▁submitted	-12.3618
▁nearest	-12.3619
▁Rita	-12.3621
▁Mor	-12.3622
▁Seasons	-12.3623
▁uniform	-12.3626
list	-12.3627
▁sunglasses	-12.3628
Poor	-12.363
▁Si	-12.3631
happy	-12.3633
▁enjoyment	-12.3635
▁prints	-12.3637
▁functional	-12.3637
▁BEFORE	-12.3637
▁miracle	-12.3637
▁Cookie	-12.3645
fries	-12.3647
▁muffuletta	-12.3647
▁drew	-12.3647
▁dusty	-12.3655
▁argument	-12.3657
▁Attentive	-12.3657
des	-12.3659
▁ch	-12.3659
▁physician	-12.3664
▁Suites	-12.3664
▁Cuisine	-12.3666
▁aforementioned	-12.3666
▁Compare	-12.3666
uc	-12.3669
▁tracking	-12.3669
▁Bomb	-12.367
▁Wing	-12.367
▁whites	-12.3671
▁DONT	-12.3673
▁Media	-12.3675
▁tastiest	-12.3676
▁suburban	-12.3676
▁Mule	-12.3676
▁intrusive	-12.3679
sch	-12.3685
▁hankering	-12.3686
▁cluster	-12.3686
walk	-12.3686
OL	-12.3686
▁flank	-12.3686
▁PF	-12.369
▁farther	-12.369
▁Cor	-12.3695
▁affair	-12.3695
▁utilize	-12.3696
▁chatty	-12.3697
taste	-12.3698
▁bent	-12.3698
TS	-12.3699
▁foul	-12.37
pot	-12.3701
miss	-12.3701
win	-12.3705
cat	-12.3705
▁mats	-12.371
▁eve	-12.3713
▁ko	-12.3715
▁cops	-12.3716
▁proteins	-12.3721
iki	-12.3722
▁souvenir	-12.3722
▁CLEAN	-12.3724
▁sleek	-12.3724
▁wiping	-12.3724
▁Sears	-12.3725
▁mistaken	-12.3729
▁costing	-12.373
▁mud	-12.373
▁stealing	-12.3731
▁curd	-12.3732
▁carafe	-12.3734
▁departure	-12.3734
▁Delish	-12.3736
nna	-12.3738
▁sprout	-12.3742
pet	-12.3743
▁spell	-12.3746
putting	-12.3746
▁hurting	-12.3748
rin	-12.375
▁washes	-12.375
rio	-12.3751
▁remainder	-12.3754
▁Wesley	-12.3756
ically	-12.3756
teen	-12.3757
Waited	-12.3757
▁Chapel	-12.3758
▁mor	-12.3762
▁nostalgia	-12.3763
Ho	-12.3763
▁($	-12.3765
▁chemicals	-12.3768
▁tennis	-12.3773
Customer	-12.3774
another	-12.3775
open	-12.3776
▁Linda	-12.3776
▁Jesus	-12.3777
▁educational	-12.3779
▁Kia	-12.3779
▁Ki	-12.378
▁reluctant	-12.378
ux	-12.3783
▁pampered	-12.3784
▁estimates	-12.3788
▁sl	-12.3791
▁cautious	-12.3792
bacon	-12.3794
▁readily	-12.3794
▁Capital	-12.3794
▁loaner	-12.3796
BEST	-12.3797
-9	-12.38
▁umbrella	-12.3801
▁remodeling	-12.3801
Bo	-12.3805
▁jars	-12.3808
▁Pretzel	-12.3812
▁deceiving	-12.3812
▁intriguing	-12.3812
▁rigatoni	-12.3812
▁Deep	-12.3812
▁passport	-12.3813
▁Pearl	-12.3813
▁savings	-12.3814
▁altered	-12.3815
▁posts	-12.3817
▁pole	-12.3818
▁Jamie	-12.3818
▁curt	-12.3819
▁lining	-12.382
▁muscle	-12.3821
▁Billy	-12.3822
▁delightfully	-12.3824
▁Welcome	-12.3829
▁Den	-12.383
▁swap	-12.3831
▁buddies	-12.3831
▁remembers	-12.3832
▁roach	-12.3834
▁scratched	-12.3834
Star	-12.3834
▁deliveries	-12.3835
▁tailor	-12.3837
▁5-7	-12.3838
dge	-12.384
▁enhance	-12.3849
▁Saigon	-12.3851
▁glue	-12.3852
Lo	-12.3852
▁jerky	-12.3855
▁singer	-12.3856
▁Heart	-12.3857
mate	-12.3858
▁scalp	-12.3859
▁carpaccio	-12.3861
rage	-12.3861
via	-12.3861
waitress	-12.3861
▁fest	-12.3864
▁threading	-12.3865
▁PJ	-12.3865
▁Initially	-12.3866
▁Stromboli	-12.3871
▁inclined	-12.3873
▁uncooked	-12.3873
▁slots	-12.3873
▁chewing	-12.3874
▁Pier	-12.3875
Hot	-12.3876
▁doll	-12.3878
▁Ram	-12.3878
▁Em	-12.3879
▁parmigiana	-12.3881
▁urgency	-12.3881
▁Bull	-12.3881
▁Yellow	-12.3883
▁novel	-12.3886
ingly	-12.3889
▁praline	-12.389
ced	-12.3891
▁Megan	-12.3892
▁Rocky	-12.3892
▁stranger	-12.3899
▁referring	-12.3901
Na	-12.3901
▁overwhelmingly	-12.3905
▁MANY	-12.391
▁loading	-12.3917
laws	-12.3919
▁Fall	-12.3919
▁IPAs	-12.392
▁Filipino	-12.392
▁jasmine	-12.392
▁avid	-12.392
▁contest	-12.392
ington	-12.3921
▁sin	-12.3927
▁ounces	-12.3928
▁aid	-12.3928
"?	-12.393
▁landscaping	-12.393
▁oxtail	-12.393
▁Stephen	-12.3931
▁regretted	-12.3933
Come	-12.3935
▁:/	-12.3937
▁indifferent	-12.3937
tea	-12.3937
▁Casual	-12.3937
▁Chorizo	-12.394
▁requirements	-12.3944
▁puffs	-12.3945
▁fixe	-12.3947
▁lite	-12.3949
▁snapped	-12.395
turn	-12.3952
better	-12.3952
▁$12.	-12.396
ute	-12.3964
▁$15.	-12.3967
oooo	-12.3967
▁fifth	-12.397
uf	-12.397
▁Kong	-12.3971
▁Around	-12.3974
▁Diet	-12.3977
▁lassi	-12.3983
▁Tech	-12.3987
TER	-12.399
▁Waste	-12.3994
Ra	-12.3995
▁louder	-12.3995
▁wary	-12.3998
▁CAR	-12.4
▁grandson	-12.4
oon	-12.4002
▁accused	-12.4002
▁instruction	-12.4002
▁Vegetable	-12.4003
▁installing	-12.4004
▁matches	-12.4008
▁Camp	-12.4009
spa	-12.4012
▁errors	-12.4018
▁nickel	-12.402
▁AN	-12.4023
▁goals	-12.4029
▁rat	-12.4029
Al	-12.4031
▁suitable	-12.4032
▁Major	-12.4033
▁sal	-12.4038
▁lifestyle	-12.4039
▁COLD	-12.4039
▁Chip	-12.4041
▁channels	-12.4045
hrs	-12.4046
▁li	-12.4048
▁furnace	-12.4049
egg	-12.4051
ump	-12.4052
▁Carlos	-12.4058
▁outta	-12.4058
▁barbeque	-12.4059
Three	-12.4062
Da	-12.4063
visit	-12.4063
▁televisions	-12.4069
▁Gorgonzola	-12.4069
▁focaccia	-12.4069
▁Morning	-12.4069
▁prawns	-12.4071
▁adopted	-12.4073
▁wins	-12.4075
▁Mart	-12.4077
▁;-)	-12.4079
----------------	-12.408
▁specify	-12.4081
▁accompaniment	-12.4081
▁crystal	-12.4081
▁slack	-12.4085
▁Arnold	-12.4089
▁automated	-12.4089
▁bibimbap	-12.4089
▁systems	-12.409
▁Nancy	-12.409
▁clarify	-12.409
▁lifting	-12.4091
▁approachable	-12.4091
▁believed	-12.4096
▁ordeal	-12.4098
▁overdue	-12.4099
▁barbers	-12.4099
▁Blackened	-12.41
▁thumb	-12.4101
▁pong	-12.4101
shi	-12.4103
▁Gate	-12.4105
▁shortcake	-12.4106
lp	-12.4107
▁silence	-12.411
▁Body	-12.411
▁$21	-12.4114
??)	-12.4114
▁panel	-12.4118
▁Cindy	-12.412
TE	-12.412
▁referral	-12.4122
▁approval	-12.4124
▁Mex	-12.4127
▁Generous	-12.413
▁sweetened	-12.413
▁disappear	-12.4133
▁rows	-12.4133
▁reopened	-12.4133
▁Elite	-12.4136
▁Visit	-12.4136
▁faux	-12.414
▁Theater	-12.4141
▁Fishers	-12.4142
UPDATE	-12.4143
▁sch	-12.4145
▁tortellini	-12.415
▁Dallas	-12.415
▁tolerate	-12.4151
▁elbow	-12.4152
▁accounts	-12.4152
▁Falafel	-12.4152
▁Game	-12.4153
bell	-12.4154
▁Eating	-12.4154
07	-12.4157
▁Pacific	-12.416
▁northern	-12.416
last	-12.4161
▁hurts	-12.4161
▁Modern	-12.4165
▁upgrades	-12.4169
▁someday	-12.4171
piece	-12.4174
▁Spent	-12.4178
▁sprinkle	-12.4184
▁combine	-12.4184
?!)	-12.4185
▁disturbing	-12.4187
▁guns	-12.4188
Are	-12.4188
▁weigh	-12.419
▁necklace	-12.4191
▁Stout	-12.4191
▁leisurely	-12.4191
▁pun	-12.4192
▁tostada	-12.4193
▁thigh	-12.4194
▁chin	-12.4195
del	-12.4196
dog	-12.4199
▁blinds	-12.4199
▁payed	-12.42
▁Prussia	-12.4201
▁career	-12.4202
prepared	-12.4203
af	-12.4207
▁fewer	-12.4207
▁HOUR	-12.4209
▁View	-12.4211
/14	-12.4212
▁Parm	-12.4212
▁breakfasts	-12.4213
mini	-12.4215
▁links	-12.4216
▁promote	-12.4219
▁Willie	-12.4222
▁bur	-12.4222
▁echo	-12.4222
sometimes	-12.4224
RR	-12.4227
▁casinos	-12.4227
▁idiots	-12.4228
unk	-12.423
▁toffee	-12.4231
▁Jewish	-12.4231
bla	-12.4232
▁DAY	-12.4232
▁flush	-12.4232
▁pipes	-12.4233
▁Everybody	-12.4237
sell	-12.4237
▁Bro	-12.4237
▁frequenting	-12.4238
▁mental	-12.4239
▁Cinnamon	-12.4241
▁cherries	-12.4241
press	-12.4248
ban	-12.4248
dr	-12.4251
▁Pepsi	-12.4252
▁Vista	-12.4252
▁housemade	-12.4253
▁Taiwanese	-12.4254
served	-12.4254
▁situations	-12.4256
ou	-12.4257
▁banquet	-12.4259
▁COME	-12.4261
▁Smoke	-12.4261
▁$600	-12.4263
ula	-12.4266
pic	-12.4269
▁picks	-12.4272
▁tanks	-12.4273
▁Polish	-12.4274
▁Par	-12.4274
▁Chai	-12.4275
Mexican	-12.4276
ability	-12.4276
▁utter	-12.4276
▁licking	-12.4276
▁wineries	-12.4277
working	-12.4277
zza	-12.4278
▁Liz	-12.4279
▁cane	-12.428
▁sex	-12.428
▁briefly	-12.4288
▁$5.00	-12.4288
▁(8	-12.429
▁dollop	-12.4293
▁fanatic	-12.4293
▁evidence	-12.4294
any	-12.4295
life	-12.4299
▁frittata	-12.4303
▁consult	-12.4303
▁Resort	-12.4303
▁capture	-12.4304
▁Flavors	-12.4304
▁marvelous	-12.4305
mont	-12.4307
▁linens	-12.4308
▁jams	-12.4308
▁dose	-12.4308
licious	-12.4312
▁devour	-12.4314
▁vietnamese	-12.4315
29	-12.4317
▁Public	-12.4317
-20	-12.4318
▁Bra	-12.432
▁Moe	-12.4321
▁Ju	-12.4321
fall	-12.4323
▁Moscow	-12.4323
▁Castle	-12.4324
▁Danielle	-12.4324
▁participate	-12.4324
traditional	-12.4327
▁Pleasant	-12.4328
zing	-12.4329
▁Tan	-12.433
▁Pao	-12.433
▁dosa	-12.4331
▁hairdresser	-12.4334
▁gritty	-12.4334
▁reset	-12.4336
▁Trying	-12.4336
▁midtown	-12.4337
▁existent	-12.4338
........	-12.4339
▁Eagles	-12.434
▁hunting	-12.4342
▁diversity	-12.4344
▁motorcycle	-12.4344
▁newspaper	-12.4344
▁Catfish	-12.4344
▁contractors	-12.4345
▁warming	-12.4346
▁petite	-12.4348
▁plugs	-12.4356
hoo	-12.4356
▁mixes	-12.4356
▁Brittany	-12.4357
crab	-12.4358
Fabulous	-12.4358
▁runners	-12.4363
▁si	-12.437
GO	-12.4372
Gr	-12.4374
▁ft	-12.4374
▁unwilling	-12.4375
▁Bee	-12.4378
print	-12.4382
▁detailing	-12.4382
▁poboys	-12.4382
Bu	-12.4384
▁criminal	-12.4385
▁sponge	-12.4385
▁Ceviche	-12.4385
ique	-12.4388
eo	-12.4394
▁crooked	-12.4396
▁Often	-12.4397
▁pallet	-12.4397
▁substitutions	-12.4398
▁distracting	-12.44
▁tracks	-12.4407
could	-12.441
▁drawing	-12.4411
▁Greens	-12.4415
▁Victoria	-12.4415
▁limits	-12.4417
eva	-12.4418
▁WHY	-12.4421
▁excellence	-12.4427
▁mandatory	-12.4427
▁mega	-12.4435
Five	-12.4436
Sat	-12.4436
▁bok	-12.4437
▁panic	-12.4437
Once	-12.4437
▁default	-12.4437
▁grad	-12.4439
ILL	-12.444
▁4-6	-12.444
▁performers	-12.4443
put	-12.4444
▁screamed	-12.4444
Long	-12.4447
▁varies	-12.4448
▁cried	-12.4451
rry	-12.4454
▁Lane	-12.4457
▁dye	-12.4458
▁quietly	-12.4459
▁shipment	-12.4463
mal	-12.4463
▁operator	-12.4464
▁marina	-12.4466
!!!)	-12.4468
before	-12.4473
▁arena	-12.4474
▁boom	-12.4476
▁marinade	-12.4476
row	-12.4476
customer	-12.4477
▁katsu	-12.4479
▁VA	-12.4482
▁Band	-12.4483
pl	-12.4487
mine	-12.4489
▁Prior	-12.4489
▁Es	-12.4491
▁charts	-12.4491
▁holder	-12.4492
▁fade	-12.4495
▁bridesmaids	-12.4495
▁fiancee	-12.4496
▁Clam	-12.4496
▁Heck	-12.4497
▁richness	-12.45
▁costly	-12.45
▁Pecan	-12.45
door	-12.4506
▁Com	-12.4506
▁crumb	-12.451
▁unhealthy	-12.4511
▁Word	-12.4511
▁drinkers	-12.4512
▁Security	-12.4513
illo	-12.4513
▁toss	-12.4515
▁Crown	-12.452
▁fraud	-12.4521
▁assembly	-12.4523
▁Reservations	-12.4526
▁lucked	-12.4526
▁stool	-12.4527
lish	-12.4527
▁LOUD	-12.4532
▁parsley	-12.4532
▁Hertz	-12.4532
▁Saints	-12.4533
▁Northeast	-12.4535
▁approx	-12.4536
▁director	-12.4539
▁slam	-12.454
▁attendants	-12.454
▁Tiramisu	-12.4542
▁hottest	-12.4546
Bought	-12.4546
▁Gnocchi	-12.4553
See	-12.4555
pick	-12.4558
04	-12.4558
▁Spaghetti	-12.4563
▁notification	-12.4567
02	-12.4568
▁messing	-12.4571
▁horrid	-12.4574
▁Rosa	-12.4576
▁Jones	-12.4576
▁ban	-12.4578
▁favs	-12.4579
zer	-12.4581
▁para	-12.4581
▁OFF	-12.4584
▁hu	-12.4584
▁ANYTHING	-12.4584
▁Problem	-12.4584
▁identical	-12.4584
▁400	-12.4592
▁Waffles	-12.4592
▁Bucks	-12.4597
▁Work	-12.46
▁Fil	-12.4603
▁Shawn	-12.4606
▁bullet	-12.4606
▁chipping	-12.4607
▁Ve	-12.461
▁Affordable	-12.4612
▁Tommy	-12.4619
cer	-12.4622
ici	-12.4623
▁specialize	-12.4623
▁Marie	-12.4623
▁sober	-12.4624
▁measures	-12.4625
▁Meal	-12.4625
▁gorgonzola	-12.4627
▁cellar	-12.4628
▁$2.	-12.4628
ening	-12.4629
lla	-12.4631
▁impressions	-12.4633
▁remade	-12.4634
YUM	-12.4634
Pa	-12.4636
minutes	-12.4643
note	-12.4645
▁pattern	-12.4645
▁lait	-12.4645
▁insist	-12.4645
▁dispenser	-12.4646
▁Cauliflower	-12.4648
▁Anyhow	-12.4648
Ta	-12.4649
▁BO	-12.4652
yr	-12.4653
▁visibly	-12.4658
▁Presentation	-12.4658
▁dancers	-12.4661
▁rescheduled	-12.4661
anna	-12.4661
▁spoil	-12.4661
▁Enter	-12.4661
▁hardest	-12.4662
▁3:00	-12.4663
▁assisting	-12.4663
▁breed	-12.4664
lum	-12.4664
▁spoonful	-12.4666
▁prize	-12.4668
▁Sriracha	-12.4669
▁Hong	-12.467
▁minded	-12.4671
pen	-12.4676
lf	-12.4678
▁origin	-12.4679
▁introduction	-12.468
▁Thursdays	-12.4681
▁Repair	-12.4683
▁Beers	-12.4684
▁marshmallow	-12.4688
▁boozy	-12.469
▁Magic	-12.4692
▁reluctantly	-12.4693
▁dudes	-12.4694
▁restored	-12.4694
21	-12.4698
▁drama	-12.4701
▁prison	-12.4701
▁plating	-12.4701
▁strikes	-12.4701
▁mouthwatering	-12.4702
▁Fin	-12.4703
▁manages	-12.4703
▁Pair	-12.4704
▁popularity	-12.4705
▁clever	-12.4709
▁Noble	-12.4712
▁harbor	-12.4712
▁Joseph	-12.4712
▁DIE	-12.4713
▁rise	-12.4714
▁Convenient	-12.4715
9.99	-12.4716
each	-12.4716
▁measured	-12.4719
▁intersection	-12.4723
▁Jefferson	-12.4723
ture	-12.4729
-8	-12.473
▁Hello	-12.473
99	-12.473
ON	-12.4732
▁Treasure	-12.4733
▁disabled	-12.4733
▁Boba	-12.4736
az	-12.4737
▁agents	-12.4738
ello	-12.474
▁gap	-12.4751
▁lentils	-12.4752
▁printing	-12.4752
came	-12.4755
▁commission	-12.4755
▁granddaughter	-12.4755
rma	-12.4755
▁knees	-12.4757
▁blues	-12.4762
▁installer	-12.4764
▁COMPANY	-12.4765
▁scrapple	-12.4765
▁Mint	-12.4767
▁maintaining	-12.4767
▁Bone	-12.4769
▁Uncle	-12.4769
▁und	-12.4776
▁incompetence	-12.4776
▁linguini	-12.4776
▁Nu	-12.4777
▁boost	-12.4777
ving	-12.4783
▁$32	-12.4786
ensuring	-12.4788
▁dissapointed	-12.4788
▁Expensive	-12.479
miscommunication	-12.4791
mme	-12.4791
▁Moo	-12.4792
▁Thailand	-12.4793
▁SP	-12.4794
hood	-12.4796
TO	-12.4796
▁represent	-12.4797
▁unremarkable	-12.4798
▁foremost	-12.4798
▁shellfish	-12.4799
▁insight	-12.4799
▁gals	-12.4803
▁mason	-12.4804
▁stamp	-12.4805
▁smash	-12.4805
▁Say	-12.4806
nut	-12.481
▁smokers	-12.481
▁thickness	-12.481
▁Knowing	-12.4812
▁blessing	-12.4812
▁earthy	-12.4812
▁entertain	-12.4815
▁unexpectedly	-12.4817
▁Mak	-12.4817
▁artistic	-12.4821
▁gu	-12.4825
▁shocking	-12.4829
▁indicate	-12.483
▁unavailable	-12.483
his	-12.4831
pped	-12.4833
▁Raw	-12.4834
▁specializes	-12.4834
▁HO	-12.4836
▁ciders	-12.4841
▁Puerto	-12.4841
▁150	-12.4842
▁iconic	-12.4842
▁Lucy	-12.4843
▁melty	-12.4844
▁drowned	-12.4845
▁Ali	-12.4846
lk	-12.4848
▁lend	-12.485
▁UN	-12.485
▁fritter	-12.4851
▁slides	-12.4851
▁Bros	-12.4851
▁annoyance	-12.4852
▁Temple	-12.4852
▁mochi	-12.4852
▁oak	-12.4853
▁turnaround	-12.4854
▁thread	-12.4854
▁technical	-12.4854
▁lager	-12.4855
▁mountains	-12.486
RO	-12.4868
eal	-12.4869
/13	-12.4869
▁joining	-12.4869
lies	-12.4869
▁Everytime	-12.4871
▁ob	-12.4872
dia	-12.4873
▁PBR	-12.4875
▁MD	-12.4875
call	-12.4875
▁shining	-12.4876
▁Fashioned	-12.4878
▁bangs	-12.4878
▁forgive	-12.4879
▁Restaurants	-12.488
▁barbershop	-12.4885
▁colder	-12.4886
▁heavier	-12.4887
▁speakeasy	-12.4888
▁bend	-12.4889
▁BAR	-12.4891
▁stringy	-12.4891
▁porter	-12.4895
▁uninspired	-12.4896
▁Farmer	-12.4898
▁spill	-12.49
▁Shortly	-12.4901
▁licked	-12.4902
▁precise	-12.4904
▁steering	-12.4905
▁cage	-12.4906
▁Val	-12.4913
▁Je	-12.4917
▁tahini	-12.4917
▁peppery	-12.4917
▁existence	-12.4917
▁Berry	-12.4918
▁Done	-12.492
▁stink	-12.492
▁Nut	-12.4921
▁Ah	-12.4923
▁charcoal	-12.4928
▁fresco	-12.4928
▁hazard	-12.4928
▁jammed	-12.4929
▁Mixed	-12.493
Lovely	-12.4931
Thai	-12.4934
easy	-12.4935
▁buff	-12.4936
▁30-40	-12.494
▁snobby	-12.494
ich	-12.494
▁SI	-12.4943
▁valve	-12.4947
baked	-12.4948
Its	-12.4948
▁Dont	-12.4948
▁demanding	-12.4949
ink	-12.4949
▁camping	-12.4951
▁ranges	-12.4952
▁hovering	-12.4953
▁Audi	-12.4953
▁Blues	-12.4957
▁crumbled	-12.4957
ora	-12.4958
Looking	-12.496
▁Beet	-12.496
▁Glass	-12.496
▁gristle	-12.4961
▁Felix	-12.4961
▁acidic	-12.4961
-12	-12.4962
▁Jasmine	-12.4964
END	-12.4968
▁Generally	-12.4969
09	-12.497
▁jealous	-12.4972
▁kiss	-12.4979
▁pu	-12.4982
▁seasons	-12.4986
▁Flying	-12.4986
9.00	-12.4988
▁blocking	-12.4989
▁smelly	-12.4991
▁funds	-12.4991
▁uptown	-12.4993
▁EVEN	-12.4993
▁calendar	-12.4994
▁servicing	-12.4994
▁monitor	-12.4996
▁perks	-12.4996
▁scar	-12.5002
zu	-12.5003
▁shaded	-12.5004
Sushi	-12.5004
▁pl	-12.5005
menu	-12.5007
▁museums	-12.5008
▁user	-12.501
▁texts	-12.5012
ctor	-12.5015
▁Michigan	-12.5016
▁plague	-12.5016
▁spinning	-12.5016
▁Williams	-12.5017
▁notify	-12.5018
tive	-12.5018
▁drooling	-12.502
view	-12.5021
▁soupy	-12.5024
▁costume	-12.5025
▁flatbreads	-12.5026
▁counts	-12.5027
▁stoked	-12.5027
▁ventilation	-12.5027
▁unaware	-12.5027
▁PRO	-12.503
▁yearly	-12.5031
▁Comfortable	-12.5032
yet	-12.5033
▁depend	-12.5034
▁blowout	-12.5035
▁mic	-12.5036
▁voodoo	-12.5038
▁mai	-12.5038
▁occur	-12.5039
▁Seeing	-12.5039
▁consuming	-12.5042
mid	-12.5042
▁actions	-12.5047
▁sorely	-12.5052
▁homework	-12.5053
▁courts	-12.5053
▁Cook	-12.5054
▁hum	-12.5056
▁dope	-12.5056
ani	-12.5058
▁sips	-12.5059
▁UCSB	-12.506
▁Bailey	-12.506
▁colour	-12.506
▁dragged	-12.506
▁Hooters	-12.5061
class	-12.5061
▁Germantown	-12.5061
▁funeral	-12.5062
▁mileage	-12.5062
▁counters	-12.5062
▁blends	-12.5063
▁hints	-12.5065
lia	-12.507
▁bullshit	-12.5071
▁shore	-12.5072
▁Omelette	-12.5072
▁outgoing	-12.5074
▁DOWN	-12.5074
▁teenager	-12.5074
▁disgrace	-12.5075
▁respectable	-12.5076
▁36	-12.5076
Favorite	-12.5078
▁masked	-12.5079
▁purely	-12.5081
▁exaggeration	-12.5082
▁wagyu	-12.5083
▁slipped	-12.5083
▁realtor	-12.5085
har	-12.5087
▁cooling	-12.5089
▁unfair	-12.5091
LI	-12.5092
bag	-12.5094
▁evenly	-12.5096
rent	-12.5097
▁casually	-12.5097
▁Belle	-12.5098
sel	-12.5098
▁bust	-12.51
▁Flat	-12.51
▁Soon	-12.5101
▁fortunately	-12.5102
RT	-12.5104
▁additions	-12.5104
▁economy	-12.5105
/12	-12.5108
▁maid	-12.5108
▁Incredibly	-12.5109
▁informing	-12.511
▁movement	-12.5113
▁representation	-12.5116
ace	-12.5117
due	-12.5118
▁Cody	-12.5118
rito	-12.5119
▁$9.	-12.512
next	-12.5122
breakfast	-12.5123
▁Ardmore	-12.5127
▁depressing	-12.5127
▁radar	-12.5127
▁fancier	-12.5128
bor	-12.5128
▁Diamond	-12.513
▁Gar	-12.5132
▁piercings	-12.5134
▁Johns	-12.5139
Vi	-12.514
ali	-12.514
▁Forest	-12.5146
uch	-12.5146
▁Emeril	-12.5149
called	-12.515
pes	-12.515
▁relatives	-12.515
▁moisture	-12.5151
▁dumpster	-12.5151
▁crema	-12.5153
▁largely	-12.5157
▁youngest	-12.5158
▁apprehensive	-12.516
▁qualified	-12.516
▁virus	-12.516
▁liar	-12.5162
▁Fo	-12.5164
body	-12.5164
▁gi	-12.5165
▁bas	-12.5166
istic	-12.5167
▁experiment	-12.5171
▁bathtub	-12.5172
▁peeps	-12.5172
▁Holly	-12.5173
▁saltiness	-12.5175
butter	-12.5177
▁2/3	-12.5178
▁retrieve	-12.5179
▁nite	-12.518
▁mains	-12.5181
ooo	-12.5183
▁quarantine	-12.5183
▁unsanitary	-12.5183
▁vacuumed	-12.5183
▁cutlet	-12.5185
▁AMC	-12.519
tri	-12.519
Old	-12.5191
▁BY	-12.5193
▁thermostat	-12.5194
▁Alas	-12.5203
▁WAIT	-12.5205
▁masterpiece	-12.5205
▁Pra	-12.5207
▁ja	-12.5208
nes	-12.5209
▁Beignets	-12.5211
▁critic	-12.5213
▁Believe	-12.5213
▁neatly	-12.5214
▁Lafayette	-12.5217
▁irritating	-12.5217
▁stromboli	-12.5217
▁Portland	-12.5217
▁Different	-12.522
▁cuticle	-12.5221
▁Asia	-12.5225
▁shoppers	-12.5227
▁radius	-12.5228
▁punk	-12.5228
▁Fairmount	-12.5228
cio	-12.5229
▁Newtown	-12.5231
▁asap	-12.5232
deal	-12.5237
▁chimichurri	-12.5239
▁enticing	-12.5239
▁imitation	-12.5239
▁volcano	-12.5239
▁witness	-12.5242
▁Cookies	-12.5243
lor	-12.5244
TRA	-12.5251
▁bagged	-12.5252
wish	-12.5252
LO	-12.5252
dio	-12.5254
▁yams	-12.5258
▁CD	-12.5259
▁buttons	-12.5259
▁possibility	-12.5262
tine	-12.5262
ahav	-12.5264
▁growth	-12.5268
aaa	-12.5269
▁grind	-12.527
▁Cant	-12.5271
▁WANT	-12.5273
▁coordinator	-12.5273
▁captain	-12.5273
▁Jenny	-12.5275
▁Drop	-12.5275
▁Thumbs	-12.5276
▁frog	-12.5278
PERIENCE	-12.5284
▁Tortilla	-12.5284
▁cheery	-12.5287
▁stroller	-12.5292
▁improving	-12.5297
▁Juicy	-12.5298
▁Listen	-12.5299
▁influence	-12.5301
▁cord	-12.5302
Usually	-12.5303
Top	-12.5305
▁Shout	-12.5305
▁bliss	-12.5307
▁responses	-12.5307
▁resulting	-12.5307
▁MSG	-12.5307
▁greedy	-12.5308
▁Patty	-12.5309
▁periods	-12.5309
▁suites	-12.531
DR	-12.5313
▁grossed	-12.5314
▁raisins	-12.5315
tasting	-12.5315
▁expanding	-12.5317
▁scored	-12.5318
actually	-12.5318
▁crostini	-12.5318
▁phase	-12.5318
cup	-12.5319
▁Shi	-12.5319
▁Uptown	-12.5321
kins	-12.5322
▁mojitos	-12.5325
▁metro	-12.5326
▁slightest	-12.5331
▁disconnected	-12.5332
▁teen	-12.5333
▁magazines	-12.5335
bon	-12.5336
▁Sent	-12.5336
▁Hoping	-12.5337
▁BETTER	-12.5341
▁Winter	-12.5342
▁condensed	-12.5342
▁cor	-12.5342
▁talkative	-12.5343
▁timers	-12.5344
▁Shannon	-12.5345
▁waterfront	-12.5345
▁attentiveness	-12.5346
▁pal	-12.5346
▁airports	-12.5347
▁Kat	-12.5347
▁farmer	-12.5351
▁sweater	-12.5351
▁overcharge	-12.5352
▁reps	-12.5353
▁batteries	-12.5355
▁raisin	-12.5356
▁stocking	-12.5356
▁behalf	-12.5359
▁ensured	-12.5359
▁follows	-12.5361
▁loin	-12.5362
▁Gem	-12.5363
▁EVERYONE	-12.5364
▁Abita	-12.5364
ient	-12.5364
▁gently	-12.5366
▁buttercream	-12.5366
▁prescribed	-12.5367
▁wreck	-12.5372
▁Ce	-12.5374
▁concerning	-12.5374
aya	-12.5375
▁tendon	-12.5375
▁communicating	-12.5375
▁heirloom	-12.5375
▁Colorado	-12.5375
▁Ch	-12.5377
▁drugs	-12.5377
▁contents	-12.538
▁$4.	-12.5381
▁Board	-12.5383
▁Mignon	-12.5387
▁Hyde	-12.5387
▁infant	-12.5387
▁NYE	-12.5389
▁refrigerated	-12.539
▁Grant	-12.539
▁cho	-12.5391
▁peruse	-12.5391
▁Carol	-12.5393
Gu	-12.5394
cus	-12.5394
▁softer	-12.5396
until	-12.5396
▁responding	-12.5397
▁Octopus	-12.5398
▁enclosed	-12.5398
▁acknowledgement	-12.5399
▁barley	-12.54
▁intimidated	-12.5401
pack	-12.5402
▁kayak	-12.5405
▁Nasty	-12.5405
Italian	-12.5406
worthy	-12.5408
▁Omelet	-12.5409
▁input	-12.5409
▁unwelcome	-12.541
▁cheeks	-12.541
▁Nordstrom	-12.5421
ALL	-12.5423
▁heaping	-12.5425
▁bins	-12.5427
▁Kathy	-12.5433
▁stinks	-12.5433
ika	-12.5436
▁Domino	-12.5438
ult	-12.544
▁melon	-12.5442
▁insulted	-12.5443
▁ruining	-12.5447
▁relocated	-12.5448
▁orleans	-12.5451
▁settings	-12.5452
▁Donut	-12.5455
▁Lebanese	-12.5456
▁pharmacist	-12.5456
▁crinkle	-12.5456
▁repeating	-12.5456
▁rode	-12.5456
▁Roadhouse	-12.5457
▁charity	-12.5457
ld	-12.5458
meal	-12.5458
▁sage	-12.546
little	-12.5461
ancy	-12.5461
▁FULL	-12.5463
▁tonic	-12.5466
▁audacity	-12.5467
▁reheat	-12.547
▁Yup	-12.5473
kes	-12.5473
Breakfast	-12.5476
▁guilt	-12.5476
SA	-12.5477
aro	-12.5477
CA	-12.5478
▁exaggerating	-12.5479
▁Spend	-12.548
▁Arts	-12.548
▁shook	-12.548
▁abandoned	-12.548
UE	-12.5485
oy	-12.5488
▁painfully	-12.5488
▁accurately	-12.549
▁Shell	-12.549
▁Grubhub	-12.549
▁Tempura	-12.549
▁reflection	-12.5491
▁Loop	-12.5492
▁linger	-12.5493
aga	-12.5498
however	-12.5499
bri	-12.5499
▁patronizing	-12.5502
▁variation	-12.5507
▁veteran	-12.5507
▁samosa	-12.5507
cap	-12.5508
▁traveler	-12.5509
▁bedside	-12.5509
Literally	-12.5511
▁flavourful	-12.5513
▁saffron	-12.5514
▁crumbles	-12.5514
▁lifted	-12.5516
▁Lowes	-12.5516
nne	-12.5517
SS	-12.552
Wish	-12.552
▁Meatballs	-12.552
▁tuned	-12.5523
▁collections	-12.5524
▁humans	-12.5525
▁poblano	-12.5525
▁tapioca	-12.5525
▁sorta	-12.5528
▁duct	-12.5529
▁ciabatta	-12.5537
uiet	-12.5537
▁Christina	-12.5537
▁Mesa	-12.5538
▁lord	-12.5539
▁Canada	-12.554
▁Des	-12.5541
dent	-12.5545
alcoholic	-12.5546
▁Thus	-12.5546
▁Pink	-12.5546
such	-12.5547
▁TAKE	-12.5548
▁Speedway	-12.5548
▁Ruben	-12.5549
▁bedding	-12.5549
nia	-12.5551
▁Ohio	-12.5552
Po	-12.5559
▁twists	-12.5559
▁Doylestown	-12.556
▁Bryan	-12.556
▁gambling	-12.556
▁Molly	-12.5561
power	-12.5562
▁shouting	-12.5565
▁Angela	-12.5566
people	-12.5568
chocolate	-12.5569
▁Hit	-12.5569
▁reuben	-12.5572
▁Viet	-12.5572
▁document	-12.5576
▁Dee	-12.5579
Li	-12.558
burg	-12.5581
▁Med	-12.5584
▁download	-12.5585
▁Fit	-12.5586
▁transformed	-12.5587
these	-12.5594
▁lychee	-12.5595
▁shopper	-12.5595
▁Monte	-12.5601
▁2:00	-12.5601
▁component	-12.5601
▁CH	-12.5602
oi	-12.5603
▁knives	-12.5607
▁Network	-12.5607
▁carbonara	-12.5607
ID	-12.5607
▁paddle	-12.5608
▁lists	-12.5608
▁$30.	-12.5609
▁glove	-12.561
▁measurements	-12.5616
▁enhanced	-12.5618
▁Huevos	-12.5618
▁Sheraton	-12.5618
▁WORTH	-12.5618
▁Legacy	-12.5618
▁Almond	-12.5619
Didn	-12.5619
▁Frozen	-12.5623
▁socialize	-12.563
▁Fork	-12.5631
▁frying	-12.5632
▁charger	-12.5633
▁bark	-12.5634
girl	-12.5639
dale	-12.5641
▁breathtaking	-12.5642
▁researched	-12.5645
▁Gu	-12.5646
▁article	-12.5649
▁Pricey	-12.565
▁NEED	-12.5652
▁pedestrian	-12.5654
▁rotisserie	-12.5654
▁Craig	-12.5654
▁queue	-12.5654
▁swanky	-12.5654
sushi	-12.5656
▁horses	-12.5657
▁cannolis	-12.566
▁creamer	-12.5661
▁leaning	-12.5666
▁biz	-12.5667
▁Soooo	-12.5669
▁shareable	-12.5669
▁Mein	-12.5671
aw	-12.5671
▁installers	-12.5673
▁rundown	-12.5675
▁Snow	-12.5675
▁Korea	-12.5677
▁Rockefeller	-12.5677
▁chronic	-12.5677
▁glory	-12.5677
▁inconsiderate	-12.5677
▁tolerable	-12.5677
▁aesthetically	-12.5678
▁addict	-12.5679
▁Final	-12.568
▁Complete	-12.5683
▁wire	-12.5683
▁vape	-12.5684
▁bumping	-12.5685
▁mortgage	-12.5689
▁fraction	-12.5689
▁surly	-12.5691
▁effects	-12.5691
▁exclusively	-12.5691
▁onsite	-12.5693
▁Ver	-12.5697
▁vouch	-12.5698
▁sweaty	-12.5699
▁Col	-12.5699
▁Georgia	-12.5701
▁furnishings	-12.5701
▁Comes	-12.5703
mat	-12.5703
cra	-12.5703
▁Sound	-12.5705
▁conduct	-12.5706
▁similarly	-12.5706
▁Gra	-12.571
▁electronics	-12.5711
▁indecisive	-12.5712
▁costumes	-12.5712
▁refined	-12.5713
▁Harvest	-12.5713
▁Montecito	-12.5713
▁roses	-12.5713
▁Greenwood	-12.5714
▁programs	-12.5722
pal	-12.5723
▁maze	-12.5724
▁chuck	-12.5725
level	-12.5725
▁banging	-12.5726
▁Press	-12.5733
oke	-12.5733
ME	-12.5734
ration	-12.5735
▁Peg	-12.5735
▁fascinating	-12.5736
▁scope	-12.5736
▁ping	-12.5737
NOT	-12.5739
▁sensor	-12.5741
▁nashville	-12.5742
!!!!!!!!	-12.5745
▁chilli	-12.5747
▁wouldnt	-12.5748
▁Vodka	-12.5748
▁antipasto	-12.5748
▁drill	-12.5751
▁teeny	-12.5751
▁differ	-12.5752
OS	-12.5753
▁Jackie	-12.5753
▁chit	-12.5753
▁$3.	-12.5754
▁joked	-12.5755
▁streetcar	-12.5756
▁Earl	-12.5757
LT	-12.5757
▁arts	-12.5757
uk	-12.5759
els	-12.5759
79	-12.576
▁Tokyo	-12.576
▁anchovies	-12.576
▁unbearable	-12.576
▁lens	-12.576
▁HOURS	-12.5762
▁refreshed	-12.5763
▁income	-12.5764
▁Cooper	-12.5766
▁fi	-12.5768
▁beginner	-12.5769
gas	-12.5772
▁pancetta	-12.5772
▁3-5	-12.5774
▁mighty	-12.5774
▁INCREDIBLE	-12.5774
▁($3	-12.578
UM	-12.578
▁Travel	-12.5783
▁College	-12.5784
▁excess	-12.5784
RI	-12.579
▁tricks	-12.5791
▁Entree	-12.5792
Atmosphere	-12.5794
▁handicapped	-12.5796
▁data	-12.5798
lon	-12.5798
▁geared	-12.5799
▁develop	-12.5801
▁infamous	-12.5805
▁reflects	-12.5806
▁mindful	-12.5807
▁defense	-12.5808
▁peppercorn	-12.5809
▁FAVORITE	-12.5809
av	-12.5809
▁1:00	-12.581
?????	-12.5815
▁medications	-12.5815
ature	-12.5816
Se	-12.5817
▁remembering	-12.5818
▁angle	-12.5818
▁Nugget	-12.582
▁belief	-12.582
▁dedication	-12.582
▁proprietor	-12.582
tel	-12.5821
▁educate	-12.5822
▁mouths	-12.5825
▁GR	-12.5827
yer	-12.5828
▁bye	-12.583
nda	-12.5831
▁Church	-12.5832
▁Campbell	-12.5832
▁residence	-12.5832
▁shades	-12.5833
▁Jess	-12.5836
▁Whyte	-12.5837
▁tremendously	-12.5837
▁premade	-12.5837
ddy	-12.5837
▁refuses	-12.5839
▁varying	-12.5841
▁leches	-12.5843
▁Opry	-12.5843
▁Teriyaki	-12.5844
▁absent	-12.5844
▁korma	-12.5844
▁pierced	-12.5844
▁Mer	-12.5844
▁af	-12.5844
▁labels	-12.5847
▁800	-12.5848
▁mural	-12.5853
Overpriced	-12.5854
▁royal	-12.5856
▁Gouda	-12.5856
▁unseasoned	-12.5857
▁cocoa	-12.5858
▁leaks	-12.5859
ATION	-12.586
▁hut	-12.586
dding	-12.586
chain	-12.5862
fit	-12.5863
▁glow	-12.5863
Di	-12.5864
▁pays	-12.5865
DI	-12.5865
▁Mix	-12.5867
▁employ	-12.5868
▁esthetician	-12.5868
▁sublime	-12.5868
close	-12.5868
▁exhaust	-12.5869
▁letters	-12.5873
▁gathered	-12.5874
▁spreads	-12.5874
▁fist	-12.5875
▁socially	-12.5878
▁yeast	-12.588
▁Keith	-12.588
▁Cigar	-12.588
▁medley	-12.588
▁Soda	-12.588
friend	-12.5881
▁Cocktail	-12.5882
▁Marco	-12.5883
▁amaze	-12.5884
▁tactics	-12.5886
▁carnivore	-12.5889
▁Btw	-12.5892
▁toilets	-12.5892
mart	-12.5893
▁thier	-12.5894
▁printer	-12.5895
▁crafts	-12.5898
▁keg	-12.59
▁fam	-12.59
phone	-12.5901
PS	-12.5904
▁chickpeas	-12.5904
▁overcrowded	-12.5907
▁HATE	-12.5908
▁Strange	-12.5908
Your	-12.5911
Authentic	-12.5914
▁PEOPLE	-12.5916
▁disclosure	-12.5916
▁disposable	-12.5916
▁identified	-12.5916
▁telephone	-12.5916
▁Tracy	-12.5916
▁Punch	-12.5916
▁unwind	-12.5916
▁arrange	-12.5918
▁lasting	-12.592
▁threatening	-12.5923
vol	-12.5924
▁claw	-12.5927
▁Pizzeria	-12.5928
▁imagination	-12.5928
▁unforgettable	-12.5928
▁veterinarian	-12.5928
▁Leave	-12.5928
▁images	-12.5929
06	-12.5931
▁Smoothie	-12.5931
▁musty	-12.5933
Lots	-12.5939
▁aficionado	-12.594
brown	-12.594
▁breakdown	-12.5944
▁Dick	-12.5944
▁wee	-12.5949
▁WOULD	-12.5952
▁manicurist	-12.5952
▁specified	-12.5952
▁Cantina	-12.5953
▁Amish	-12.5953
Huge	-12.5954
▁hanger	-12.5954
▁TON	-12.5955
▁cabin	-12.5958
▁harm	-12.5962
▁performances	-12.5962
▁mechanical	-12.5963
qua	-12.5963
much	-12.5963
▁30-45	-12.5964
ato	-12.5969
▁Wonton	-12.5969
▁shoved	-12.5971
MO	-12.5971
▁leash	-12.5974
UN	-12.5975
▁peek	-12.5976
▁Yorker	-12.5976
▁Gravy	-12.5976
▁Selection	-12.5977
▁snooty	-12.5977
▁dolphins	-12.5977
▁bounce	-12.5978
▁blond	-12.5979
▁lesser	-12.5984
▁Pear	-12.5984
yaki	-12.5988
fix	-12.5989
▁emphasis	-12.599
ATE	-12.5997
▁midst	-12.5998
▁comic	-12.5999
1.	-12.6001
▁loft	-12.6001
▁hardwood	-12.6004
works	-12.6004
City	-12.6004
▁choy	-12.6004
eee	-12.6005
▁decorating	-12.6006
▁powerful	-12.6007
▁Crunch	-12.601
(?)	-12.6011
31	-12.6012
itas	-12.6012
▁Brennan	-12.6013
▁elaborate	-12.6013
▁vending	-12.6013
▁PLUS	-12.6013
▁begging	-12.6014
▁confirming	-12.6015
▁Pesto	-12.6016
▁fairness	-12.6019
▁rangoons	-12.6019
▁gained	-12.6021
▁marsala	-12.6025
oul	-12.6027
▁mop	-12.6027
▁leader	-12.6027
▁Set	-12.6028
▁rank	-12.6028
▁4:00	-12.6029
▁solutions	-12.603
watch	-12.6032
eb	-12.6033
sia	-12.6034
▁commit	-12.6036
▁spider	-12.6036
▁mound	-12.6036
▁donair	-12.6037
▁Hispanic	-12.6037
▁legendary	-12.6037
▁fla	-12.6037
▁ke	-12.604
▁Help	-12.604
▁Tai	-12.6045
▁Anne	-12.6045
▁sigh	-12.6048
ify	-12.6049
bby	-12.605
▁blink	-12.605
▁wishes	-12.605
▁Daily	-12.605
ev	-12.6051
▁skipping	-12.6051
▁antibiotics	-12.6051
▁Courtney	-12.6053
▁Ralph	-12.6053
lton	-12.6054
▁blasting	-12.6055
▁announced	-12.6056
▁FB	-12.6058
▁entitled	-12.6062
▁parfait	-12.6062
▁privilege	-12.6065
▁balloons	-12.6066
▁values	-12.607
fest	-12.6071
▁fil	-12.6072
08	-12.6073
▁croquettes	-12.6073
▁Voodoo	-12.6074
▁grandparents	-12.6074
▁slapped	-12.6074
▁landscape	-12.6075
▁$4.50	-12.6075
▁Lesson	-12.6076
▁hotdogs	-12.608
/11	-12.608
tie	-12.6083
▁cheek	-12.6083
ense	-12.6085
▁alternate	-12.6086
▁Bruce	-12.6086
▁(1)	-12.6091
▁successfully	-12.6094
▁floats	-12.6094
gra	-12.6095
▁SLOW	-12.6099
▁Cozy	-12.61
▁nonexistent	-12.61
▁photography	-12.61
need	-12.6103
▁cheer	-12.6103
▁volunteers	-12.6104
▁disregard	-12.6106
ude	-12.6108
hold	-12.6109
▁Buck	-12.611
▁deny	-12.611
▁Davis	-12.6111
▁executive	-12.6113
▁Dough	-12.6116
▁SHE	-12.6118
▁icecream	-12.612
Yelp	-12.6122
▁nursing	-12.6123
▁Hannah	-12.6123
▁nibble	-12.6123
park	-12.6123
▁challenges	-12.6125
▁greeter	-12.6125
cook	-12.6126
▁union	-12.6126
▁Elizabeth	-12.6127
2.00	-12.6134
▁jackets	-12.6134
▁Win	-12.6134
▁PACKED	-12.6135
▁Added	-12.6141
▁Uni	-12.6142
▁TR	-12.6142
▁Fra	-12.6144
▁WELL	-12.6145
eng	-12.6146
▁Roy	-12.6147
▁Gin	-12.6148
▁nutella	-12.6148
▁KOP	-12.6148
▁countries	-12.6148
▁dependable	-12.6148
▁chaat	-12.6149
▁oversized	-12.6149
▁ranks	-12.615
itos	-12.615
▁Fix	-12.6152
▁Alley	-12.6153
▁Donna	-12.6153
Mon	-12.6156
LL	-12.6156
▁grit	-12.6157
▁2000	-12.6159
▁furious	-12.6159
▁kennel	-12.616
▁taqueria	-12.616
▁Va	-12.6163
▁Pharmacy	-12.6163
▁awesomeness	-12.6164
tti	-12.6167
▁Rome	-12.6171
▁Gen	-12.6171
▁amateur	-12.6172
▁FOREVER	-12.6173
▁WERE	-12.6173
▁addiction	-12.6174
gie	-12.6174
▁Joy	-12.6176
▁Ps	-12.6176
▁vomit	-12.6177
▁ongoing	-12.6177
▁NV	-12.6178
▁seller	-12.618
▁toddlers	-12.618
ound	-12.618
lbs	-12.6182
▁FAST	-12.6185
▁Velvet	-12.6185
▁thanksgiving	-12.6185
▁papa	-12.6187
▁duo	-12.6188
▁Enchiladas	-12.6188
▁RO	-12.619
▁ranged	-12.619
▁twin	-12.6191
▁cop	-12.6192
▁GA	-12.6194
▁concoctions	-12.6196
▁CHEESE	-12.6197
▁Mojito	-12.6197
▁punctual	-12.6197
▁stunned	-12.6197
▁transplant	-12.6197
▁Soulard	-12.6197
▁Design	-12.6198
▁Round	-12.6199
▁Lord	-12.62
▁overload	-12.6202
paid	-12.6202
▁attest	-12.6204
▁busboy	-12.6205
▁teams	-12.6205
▁Comcast	-12.621
▁$7.50	-12.6211
▁Brand	-12.6216
▁Drago	-12.6218
▁Trip	-12.6218
59	-12.6218
▁cutter	-12.6219
▁divided	-12.6221
▁maneuver	-12.6222
▁20-25	-12.6223
▁ga	-12.6224
▁Chad	-12.6225
▁cloud	-12.6233
▁tar	-12.6233
▁Baltimore	-12.6235
▁marathon	-12.6235
▁shoestring	-12.6235
▁Debbie	-12.6235
▁pinball	-12.6235
RY	-12.6235
▁Course	-12.6238
▁fl	-12.6239
▁intake	-12.6239
▁coupled	-12.624
▁Needed	-12.624
▁Germany	-12.6241
lier	-12.6244
▁Drove	-12.6245
03	-12.6246
▁Atlantis	-12.6247
▁Dream	-12.6247
▁gang	-12.6249
▁sewer	-12.6249
▁bob	-12.625
▁Ab	-12.625
▁Lot	-12.6255
▁swallow	-12.6255
▁watches	-12.6255
yard	-12.6257
▁sights	-12.6257
Mar	-12.6257
▁recording	-12.6259
▁Illinois	-12.626
▁debating	-12.626
▁platform	-12.626
▁practitioner	-12.626
▁scenario	-12.626
▁wisdom	-12.626
▁protocols	-12.626
▁playlist	-12.6261
▁approve	-12.6263
FT	-12.6267
▁hue	-12.627
▁beads	-12.6271
▁oregano	-12.6272
▁gaming	-12.6272
▁drowning	-12.6276
fin	-12.6283
▁Mis	-12.6284
▁kettle	-12.6285
▁Bridal	-12.6285
▁compote	-12.6285
▁Bahn	-12.6285
▁pray	-12.6286
▁VW	-12.629
▁Idk	-12.629
▁margs	-12.6292
eu	-12.6294
▁reflected	-12.6295
▁3:	-12.6295
▁buses	-12.6296
▁Healthy	-12.6297
▁Chardonnay	-12.6297
▁starbucks	-12.6297
▁doc	-12.6299
▁Jonathan	-12.6301
▁delights	-12.6301
▁failing	-12.6304
▁($5	-12.6306
▁development	-12.6307
▁disc	-12.6307
nn	-12.6307
hello	-12.6308
▁tat	-12.6308
▁Strike	-12.631
▁discomfort	-12.631
▁nightly	-12.6312
▁accomplished	-12.6314
▁wrapper	-12.6314
▁shellac	-12.6315
▁Ball	-12.6315
Sha	-12.6316
ima	-12.6317
▁essence	-12.6322
▁disinterested	-12.6323
▁pralines	-12.6323
▁$9.99	-12.6323
▁daiquiri	-12.6324
heat	-12.6324
post	-12.6329
should	-12.633
.3	-12.633
▁Dynasty	-12.6335
▁Goose	-12.6336
▁8-10	-12.6337
▁groomers	-12.6338
▁foundation	-12.6339
fat	-12.6343
▁fer	-12.6343
▁HD	-12.6343
▁garnished	-12.6345
▁granite	-12.6347
▁frat	-12.6348
early	-12.6348
▁Busy	-12.6352
▁Regular	-12.6353
▁Job	-12.6354
▁Ladies	-12.6355
▁mag	-12.6358
▁government	-12.636
▁Signature	-12.636
▁population	-12.636
▁defective	-12.636
ker	-12.6361
▁blatantly	-12.6361
▁passengers	-12.6366
▁boasts	-12.6367
▁absorb	-12.6368
▁chock	-12.637
▁LI	-12.6373
▁celiac	-12.6373
▁nowadays	-12.6373
▁bald	-12.6375
ister	-12.6376
▁prom	-12.6378
▁ties	-12.638
▁intent	-12.6382
▁buyers	-12.6384
▁yourselves	-12.6385
▁LIKE	-12.6385
▁nutty	-12.6386
▁Chow	-12.6389
lyn	-12.6391
ET	-12.6392
▁Marc	-12.6392
fill	-12.6393
▁Andrea	-12.6393
▁Court	-12.6398
▁ecstatic	-12.6398
▁Slightly	-12.6398
▁elite	-12.6399
▁kitschy	-12.6399
▁Creamy	-12.64
known	-12.6401
▁Cheeseburger	-12.6402
nel	-12.6402
tar	-12.6406
▁considerably	-12.6412
▁barn	-12.6415
▁cam	-12.6417
▁sprayed	-12.6419
▁scheme	-12.6423
▁wildlife	-12.6424
▁personalities	-12.6425
▁yuck	-12.6425
▁slowest	-12.6427
chy	-12.6428
▁zing	-12.6429
▁Drew	-12.643
▁Honest	-12.6431
▁causes	-12.6435
TY	-12.6435
▁ala	-12.6435
▁Step	-12.6435
▁sunshine	-12.6436
▁Grace	-12.6436
say	-12.6437
▁noticeably	-12.6438
▁Sooo	-12.644
▁click	-12.644
nar	-12.6443
▁Plant	-12.6446
▁rink	-12.6447
▁proven	-12.6447
▁refusing	-12.6449
▁copies	-12.6449
▁Planet	-12.6449
verse	-12.645
▁manageable	-12.6451
▁2009	-12.6451
▁decorative	-12.6451
jack	-12.6452
ndi	-12.6454
▁theory	-12.6455
▁Mag	-12.6456
▁Space	-12.6458
▁extent	-12.6458
▁concessions	-12.646
▁Minus	-12.6462
▁Benny	-12.6463
Wanted	-12.6464
▁ABSOLUTELY	-12.647
rant	-12.6471
▁Received	-12.6473
▁Caprese	-12.6474
▁Phillies	-12.6474
▁curated	-12.6474
experience	-12.6475
▁studios	-12.6476
▁hungover	-12.6476
▁bee	-12.6481
▁Cubano	-12.6481
▁maki	-12.6482
sign	-12.6483
▁motion	-12.6483
▁slop	-12.6485
▁dec	-12.6486
▁Ran	-12.6486
.2	-12.6487
▁sterile	-12.6487
▁blaring	-12.6487
seafood	-12.6488
▁Hubs	-12.6488
▁Visited	-12.6489
black	-12.6489
▁discovering	-12.649
cks	-12.649
round	-12.6493
▁ding	-12.6495
UL	-12.6498
▁38	-12.6498
▁scenic	-12.65
▁vicinity	-12.65
▁maps	-12.6501
▁unlikely	-12.6504
▁believer	-12.651
▁mishap	-12.651
▁moldy	-12.651
▁ants	-12.6512
bie	-12.6512
cco	-12.6512
▁handicap	-12.6512
▁Elmo	-12.6514
▁permanently	-12.6517
▁showcase	-12.6518
▁brim	-12.6519
▁pigs	-12.6519
▁curls	-12.6525
VI	-12.6525
▁simplicity	-12.6525
▁Gelato	-12.6525
▁CWE	-12.6526
▁Warning	-12.6527
▁models	-12.6531
▁devices	-12.6532
▁caps	-12.6533
ough	-12.6533
▁CONS	-12.6534
▁rival	-12.6538
▁suffice	-12.6538
▁BUSINESS	-12.6538
▁DoorDash	-12.6538
▁William	-12.6541
▁Ru	-12.6542
▁consisting	-12.6542
▁screams	-12.6545
▁laughs	-12.6547
▁dread	-12.6548
Ru	-12.6548
balls	-12.655
▁sizable	-12.6551
▁Clinic	-12.6551
▁clogged	-12.6551
▁cottage	-12.6551
▁yay	-12.6551
▁RA	-12.6554
▁6-8	-12.6555
▁um	-12.6558
▁fax	-12.656
▁atleast	-12.6561
Of	-12.6562
▁Corona	-12.6564
Note	-12.6565
▁wears	-12.6565
▁turnip	-12.6566
▁confronted	-12.6566
▁2008	-12.6567
mill	-12.6567
ye	-12.6568
CE	-12.6571
▁pumps	-12.6573
uh	-12.6574
▁silent	-12.6574
▁Bisque	-12.6577
▁Oregon	-12.6577
▁kitty	-12.6577
▁Farmers	-12.6579
▁$25.	-12.6582
blowing	-12.6584
▁comforter	-12.6586
▁whereas	-12.6586
▁Corporate	-12.659
▁couscous	-12.659
▁unimpressive	-12.659
▁verbally	-12.6592
▁accents	-12.6592
▁drool	-12.6592
▁virgin	-12.6593
▁placement	-12.6596
▁Bland	-12.6597
▁cousins	-12.6599
imo	-12.6604
OUS	-12.6605
eria	-12.6607
dos	-12.6607
mph	-12.6612
▁buzzing	-12.6616
▁descent	-12.6616
▁DR	-12.6616
EE	-12.6616
▁WONDERFUL	-12.6618
▁Card	-12.662
▁observation	-12.662
▁Vic	-12.662
▁Americano	-12.6624
▁Roman	-12.6626
▁Lack	-12.6627
▁7:45	-12.6629
▁barbacoa	-12.6629
average	-12.663
▁biting	-12.6631
▁chiropractor	-12.6633
▁treasures	-12.6635
▁Jet	-12.6636
▁notable	-12.6637
▁Starting	-12.6637
▁icy	-12.6639
▁Mozzarella	-12.6642
▁expiration	-12.6642
▁pregnancy	-12.6642
▁Bike	-12.6643
▁coal	-12.6643
▁85	-12.6645
▁entre	-12.6646
▁poker	-12.665
▁exclusive	-12.6652
▁conch	-12.6653
▁apricot	-12.6654
▁processing	-12.6656
▁fastest	-12.6656
▁USF	-12.666
▁conditioned	-12.6664
▁awaiting	-12.6667
▁jacuzzi	-12.6667
▁idk	-12.6669
bling	-12.667
iff	-12.6672
ologist	-12.6672
▁experts	-12.6674
▁coin	-12.6676
▁Bananas	-12.6676
▁lemony	-12.6677
▁reader	-12.6677
▁scrape	-12.668
▁Moroccan	-12.6681
▁serene	-12.6681
▁hostile	-12.6682
▁fitted	-12.6683
raw	-12.6684
▁drown	-12.6684
gle	-12.6691
▁buckets	-12.6692
lt	-12.6693
▁creep	-12.6694
▁clay	-12.6695
▁BOTH	-12.6696
▁Smokey	-12.6697
arm	-12.6698
▁spas	-12.6698
xx	-12.67
mbo	-12.6702
▁Department	-12.6707
▁Detroit	-12.6707
▁caviar	-12.6707
▁raising	-12.6707
Ex	-12.6707
French	-12.6708
hill	-12.6712
Th	-12.6713
▁wage	-12.6714
▁Chill	-12.6717
▁heal	-12.6718
▁FI	-12.6718
▁Deal	-12.6719
▁unappealing	-12.672
▁luncheon	-12.672
▁sauced	-12.6722
▁nation	-12.6725
plan	-12.6726
▁Uh	-12.6729
▁(7	-12.673
▁supplier	-12.6733
▁questioning	-12.6733
▁slathered	-12.6735
▁Slice	-12.6737
▁uniquely	-12.6737
cket	-12.6738
▁waves	-12.6739
boo	-12.6742
▁Risotto	-12.6746
ake	-12.6746
▁Monon	-12.6748
▁partners	-12.6748
▁JJ	-12.6749
▁landing	-12.6751
Stay	-12.6753
▁Lil	-12.6755
Rude	-12.6757
▁lu	-12.6758
▁submit	-12.6758
▁obscure	-12.6759
▁boar	-12.6759
Tasty	-12.6761
▁ew	-12.6762
▁Jeremy	-12.6763
▁Aldi	-12.6763
▁regrets	-12.6765
▁(3)	-12.6765
▁Grandma	-12.6765
▁capital	-12.6768
▁90'	-12.677
▁unsweetened	-12.6772
▁reassured	-12.6774
▁Kay	-12.6775
▁marg	-12.6783
▁Fran	-12.6784
fl	-12.6784
▁Carnitas	-12.6785
▁housing	-12.6785
▁baggage	-12.6786
▁colada	-12.6786
▁Rican	-12.6787
▁OUR	-12.6787
▁Tequila	-12.6788
▁FIRST	-12.6788
▁Feb	-12.679
going	-12.6791
▁bridesmaid	-12.6792
▁earrings	-12.6793
lea	-12.6793
▁che	-12.6794
rose	-12.6795
▁Ty	-12.6795
AD	-12.6797
▁craziness	-12.6798
▁piccata	-12.6798
▁acid	-12.68
▁murals	-12.6802
▁towing	-12.6803
▁una	-12.6803
aught	-12.6806
Order	-12.6809
▁MI	-12.6809
▁puzzles	-12.6811
▁lecture	-12.6812
▁Wedding	-12.6813
whatever	-12.6814
▁Henry	-12.6817
Beer	-12.6818
▁extension	-12.6818
▁souffl	-12.6819
▁dramatic	-12.6825
▁Lettuce	-12.6825
▁President	-12.6825
▁Denver	-12.6825
soft	-12.6826
Haven	-12.6826
Disappointed	-12.6827
▁damages	-12.6828
ami	-12.6828
▁Rest	-12.6828
roasted	-12.6829
soup	-12.6831
▁fulfilling	-12.6831
biz	-12.6831
rian	-12.6833
▁finely	-12.6837
▁Doug	-12.6837
wash	-12.6838
▁Trenton	-12.6838
▁prepaid	-12.6839
▁flakey	-12.684
▁realistic	-12.684
▁prompted	-12.684
cakes	-12.6841
ttle	-12.6842
▁obliged	-12.6842
▁packet	-12.6842
▁bulb	-12.6845
▁Turn	-12.6846
▁Th	-12.6847
rus	-12.6851
▁hurried	-12.6851
▁Motel	-12.6852
▁hog	-12.6856
▁represented	-12.6857
▁envelope	-12.6858
▁sleeve	-12.6858
▁statue	-12.6859
▁respected	-12.6859
RS	-12.686
▁Crisp	-12.6862
party	-12.6864
▁roads	-12.6864
▁abysmal	-12.6865
▁Lasagna	-12.6865
▁Garces	-12.6865
▁foo	-12.6866
Fil	-12.687
▁Boyfriend	-12.6871
▁awards	-12.6873
▁expression	-12.6873
stuffed	-12.6873
▁legitimate	-12.6876
maker	-12.6876
▁GrubHub	-12.6878
▁Lemonade	-12.6878
▁cumin	-12.6879
▁Seared	-12.6879
▁permission	-12.6879
▁coaches	-12.6879
▁Jesse	-12.6884
loved	-12.6885
▁requirement	-12.6886
▁Sh	-12.6887
zzo	-12.689
▁honeymoon	-12.6891
▁deserving	-12.6892
▁aromatic	-12.6892
▁mattresses	-12.6896
▁cheeseburgers	-12.6896
▁canceling	-12.6896
▁Yard	-12.6897
▁q	-12.6898
▁Lube	-12.6899
Asian	-12.6899
IL	-12.6901
▁Tuscan	-12.6902
▁volunteer	-12.6904
pping	-12.6904
▁indicating	-12.6905
▁Jill	-12.6906
Chinese	-12.6907
▁operations	-12.691
▁bulbs	-12.6911
▁Tin	-12.6911
iz	-12.6914
▁approaching	-12.6914
▁Valentines	-12.6916
wich	-12.6917
▁Society	-12.6918
▁WORK	-12.6918
▁snotty	-12.6918
▁humidity	-12.6918
▁Maine	-12.6918
▁scarce	-12.692
Before	-12.692
healthy	-12.6921
▁rant	-12.6926
▁rocking	-12.6929
ome	-12.693
▁claustrophobic	-12.6931
▁fin	-12.6931
street	-12.6933
▁tripe	-12.6935
▁differences	-12.6935
▁minds	-12.6935
▁toasty	-12.6936
▁swamped	-12.6939
▁sear	-12.6943
game	-12.6943
▁Depending	-12.6945
▁crisis	-12.6945
▁curiosity	-12.6945
▁quantities	-12.6945
▁strive	-12.6945
▁snarky	-12.6945
▁password	-12.6945
▁lastly	-12.6946
▁crumbly	-12.6948
▁affected	-12.6953
▁Feels	-12.6956
Fa	-12.6957
mes	-12.6961
▁Joint	-12.6964
OW	-12.6964
ros	-12.6967
▁devil	-12.6969
hur	-12.6971
▁Reminds	-12.6971
▁Patio	-12.6972
hon	-12.6975
▁trans	-12.6975
▁balloon	-12.698
ooooo	-12.6982
▁cuisines	-12.6983
▁victim	-12.6985
tation	-12.6987
▁fountains	-12.6988
▁Lin	-12.6993
▁(4)	-12.6998
▁scraped	-12.6998
▁healthcare	-12.6999
berg	-12.6999
Too	-12.7
NA	-12.7003
▁tra	-12.7004
▁Pancake	-12.7007
ANT	-12.7009
▁strings	-12.7011
▁Grub	-12.7011
▁tunnel	-12.7012
▁Dairy	-12.7012
Jo	-12.7012
pepper	-12.7015
▁Bubble	-12.7015
▁Sue	-12.7016
▁films	-12.7017
Free	-12.7018
▁cheated	-12.7019
HA	-12.702
▁magically	-12.702
mex	-12.7023
▁hygiene	-12.7025
▁landlord	-12.7025
▁Firestone	-12.7025
▁moral	-12.7027
gh	-12.7032
▁Customers	-12.7034
▁HOW	-12.7035
ison	-12.7035
▁SC	-12.7037
▁muffaletta	-12.7039
▁transparent	-12.7039
▁avocados	-12.7039
▁Logan	-12.7039
▁surpassed	-12.704
dal	-12.7044
▁actively	-12.7045
▁(20	-12.7046
als	-12.7046
add	-12.7051
▁Colombe	-12.7052
▁Hyundai	-12.7052
▁acknowledging	-12.7052
▁desirable	-12.7052
▁empathy	-12.7052
▁Couple	-12.7052
▁Braised	-12.7052
▁miniature	-12.7053
Review	-12.7055
▁reg	-12.7056
outs	-12.7059
Ka	-12.7064
▁Bre	-12.7065
▁Stadium	-12.7066
▁cactus	-12.7066
▁griddle	-12.7067
▁hills	-12.7067
▁Fig	-12.7067
▁walkway	-12.7067
▁browned	-12.7068
▁mailed	-12.7071
eater	-12.7074
▁Ac	-12.7075
▁RUN	-12.7076
ched	-12.7076
▁baker	-12.7076
▁dynamite	-12.7079
▁qualities	-12.7079
▁unwelcoming	-12.7079
▁Safety	-12.7079
▁boyfriends	-12.7079
▁8:15	-12.708
▁converse	-12.708
▁Escape	-12.708
▁Discount	-12.708
▁workmanship	-12.7081
▁Bright	-12.7082
▁inspiring	-12.7086
▁der	-12.7088
▁connecting	-12.709
market	-12.7091
▁Buyer	-12.7093
▁laundromat	-12.7093
▁wrist	-12.7093
▁sodium	-12.7093
▁Peking	-12.7093
▁flame	-12.7095
▁newbie	-12.7096
▁drawer	-12.7098
took	-12.7098
▁invested	-12.71
OT	-12.7101
/1	-12.7103
▁Lion	-12.7103
23	-12.7104
▁Krispy	-12.7106
▁dismissed	-12.7109
ering	-12.711
▁artsy	-12.711
▁pao	-12.7111
▁Westin	-12.7111
▁Days	-12.7111
▁tended	-12.7117
sse	-12.7118
▁peeled	-12.712
▁sarcastic	-12.712
▁clutch	-12.712
▁cranberries	-12.712
▁burden	-12.712
▁cornmeal	-12.7121
word	-12.7123
▁recieved	-12.7123
MP	-12.7125
ook	-12.7125
Four	-12.7126
▁proportion	-12.7126
▁Glen	-12.7126
ching	-12.7127
▁Traditional	-12.7133
▁incentive	-12.7134
▁iffy	-12.7134
▁puddle	-12.7134
▁Daughter	-12.7134
BO	-12.7137
▁hitch	-12.7138
▁Leg	-12.7138
▁Cur	-12.714
▁Erica	-12.7143
▁purposely	-12.7144
uesadilla	-12.7146
▁Cross	-12.7147
▁Sazerac	-12.7147
▁Bummer	-12.7147
▁Elvis	-12.7148
▁chu	-12.7149
Take	-12.7149
▁mansion	-12.7151
Totally	-12.7152
▁Class	-12.7153
▁neutral	-12.7161
▁behaved	-12.7161
▁Carpet	-12.7162
▁Lyft	-12.7166
▁Poboy	-12.7171
live	-12.7172
▁importance	-12.7175
tty	-12.7175
▁Tomatoes	-12.7177
▁spark	-12.7179
▁$800	-12.718
▁bouncers	-12.7181
eur	-12.7182
icle	-12.7184
▁lowered	-12.7184
▁Dish	-12.7185
give	-12.7187
▁maximum	-12.7188
▁Chevy	-12.7188
▁Sake	-12.7189
world	-12.7192
▁novice	-12.7194
▁diff	-12.7195
nis	-12.7198
▁emotional	-12.72
gers	-12.72
▁strolling	-12.72
ists	-12.7201
▁ANOTHER	-12.7202
[...]
